<unk>	0
<s>	0
</s>	0
▁t	-0
he	-1
▁a	-2
in	-3
▁s	-4
▁w	-5
▁the	-6
re	-7
ou	-8
ed	-9
▁o	-10
nd	-11
ha	-12
▁b	-13
er	-14
ing	-15
▁to	-16
▁c	-17
▁f	-18
is	-19
it	-20
en	-21
▁m	-22
on	-23
▁d	-24
▁he	-25
▁and	-26
ll	-27
or	-28
▁p	-29
▁l	-30
▁h	-31
▁"	-32
▁of	-33
an	-34
▁I	-35
as	-36
es	-37
▁in	-38
ar	-39
at	-40
▁g	-41
▁ha	-42
▁n	-43
om	-44
hat	-45
▁be	-46
ow	-47
le	-48
id	-49
▁e	-50
▁y	-51
ot	-52
ve	-53
ly	-54
ac	-55
▁th	-56
▁you	-57
gh	-58
ic	-59
st	-60
▁was	-61
ld	-62
."	-63
im	-64
et	-65
▁that	-66
▁re	-67
▁her	-68
▁T	-69
▁on	-70
▁u	-71
ay	-72
▁st	-73
al	-74
ent	-75
se	-76
ut	-77
▁it	-78
▁his	-79
ir	-80
▁S	-81
ion	-82
▁H	-83
ver	-84
oo	-85
ad	-86
▁we	-87
▁A	-88
out	-89
▁as	-90
ght	-91
ith	-92
▁r	-93
▁for	-94
▁with	-95
ould	-96
..	-97
ur	-98
ke	-99
▁The	-100
▁she	-101
▁had	-102
▁at	-103
am	-104
▁an	-105
▁is	-106
all	-107
▁me	-108
▁He	-109
ight	-110
ce	-111
ill	-112
▁M	-113
ro	-114
▁k	-115
▁fr	-116
▁not	-117
red	-118
her	-119
▁se	-120
if	-121
il	-122
▁him	-123
▁wh	-124
ch	-125
▁sa	-126
ct	-127
▁do	-128
ter	-129
pp	-130
?"	-131
ain	-132
ack	-133
▁up	-134
ore	-135
▁have	-136
▁ne	-137
▁C	-138
▁but	-139
ook	-140
ust	-141
ome	-142
▁sh	-143
▁W	-144
▁out	-145
▁this	-146
rou	-147
ant	-148
▁my	-149
▁B	-150
ri	-151
,"	-152
▁de	-153
▁j	-154
▁so	-155
▁D	-156
▁kn	-157
us	-158
▁con	-159
▁from	-160
▁li	-161
▁int	-162
ind	-163
▁said	-164
and	-165
▁ab	-166
ge	-167
hing	-168
ess	-169
▁She	-170
▁su	-171
▁fe	-172
one	-173
qu	-174
ab	-175
pe	-176
ck	-177
ation	-178
▁go	-179
▁they	-180
...	-181
our	-182
ate	-183
▁would	-184
▁ex	-185
▁le	-186
▁are	-187
▁al	-188
▁all	-189
os	-190
▁v	-191
art	-192
▁whe	-193
ie	-194
ally	-195
ood	-196
ard	-197
ul	-198
hed	-199
un	-200
res	-201
▁look	-202
▁back	-203
▁could	-204
▁were	-205
ak	-206
▁J	-207
own	-208
▁into	-209
▁tr	-210
ide	-211
est	-212
ist	-213
ast	-214
▁what	-215
um	-216
ers	-217
ace	-218
▁wor	-219
han	-220
▁P	-221
▁no	-222
▁did	-223
▁L	-224
em	-225
▁like	-226
▁them	-227
ig	-228
▁been	-229
ick	-230
ol	-231
▁com	-232
▁by	-233
▁ag	-234
▁know	-235
ous	-236
au	-237
▁about	-238
ell	-239
▁pl	-240
▁one	-241
▁cl	-242
▁un	-243
ive	-244
ven	-245
▁just	-246
▁or	-247
el	-248
▁G	-249
very	-250
▁can	-251
▁get	-252
ra	-253
▁N	-254
way	-255
ong	-256
op	-257
▁your	-258
ep	-259
▁will	-260
You	-261
▁tim	-262
ink	-263
▁over	-264
▁if	-265
ice	-266
ov	-267
▁K	-268
▁It	-269
▁there	-270
ake	-271
are	-272
round	-273
▁sp	-274
lf	-275
ort	-276
▁qu	-277
pt	-278
ry	-279
urn	-280
ked	-281
▁off	-282
▁bl	-283
▁any	-284
▁sm	-285
ame	-286
▁man	-287
ity	-288
▁R	-289
▁down	-290
▁some	-291
▁pro	-292
od	-293
▁O	-294
▁who	-295
▁their	-296
▁time	-297
ther	-298
ound	-299
▁when	-300
▁E	-301
▁thou	-302
▁ro	-303
▁ey	-304
▁hand	-305
▁us	-306
▁want	-307
▁fl	-308
▁then	-309
ag	-310
▁en	-311
pl	-312
ost	-313
▁too	-314
ure	-315
ond	-316
ull	-317
ile	-318
▁gr	-319
▁now	-320
ered	-321
fore	-322
ff	-323
▁again	-324
▁see	-325
▁head	-326
nt	-327
▁F	-328
ite	-329
▁tw	-330
ine	-331
▁other	-332
itt	-333
ass	-334
▁say	-335
dd	-336
th	-337
▁sl	-338
self	-339
▁ar	-340
▁_	-341
▁dis	-342
led	-343
ment	-344
▁going	-345
▁before	-346
▁around	-347
▁more	-348
ose	-349
▁think	-350
hi	-351
av	-352
reat	-353
ect	-354
▁eyes	-355
▁im	-356
▁don	-357
alk	-358
▁cont	-359
other	-360
▁here	-361
ove	-362
▁Is	-363
▁br	-364
fter	-365
ress	-366
ble	-367
ru	-368
ies	-369
able	-370
omet	-371
▁am	-372
▁way	-373
▁sc	-374
nder	-375
▁turn	-376
ich	-377
ward	-378
ear	-379
act	-380
rough	-381
▁only	-382
ious	-383
ft	-384
iz	-385
▁We	-386
▁looked	-387
pped	-388
▁Z	-389
▁They	-390
▁through	-391
▁has	-392
▁bec	-393
▁pe	-394
ave	-395
▁wat	-396
▁even	-397
ire	-398
▁Ar	-399
▁right	-400
▁than	-401
▁co	-402
▁need	-403
ap	-404
ud	-405
ied	-406
▁didn	-407
ance	-408
▁thought	-409
▁gl	-410
ence	-411
ovy	-412
inovy	-413
▁every	-414
▁how	-415
ated	-416
cl	-417
omething	-418
▁ac	-419
ree	-420
▁Zinovy	-421
▁which	-422
wn	-423
oy	-424
▁mom	-425
ted	-426
▁two	-427
▁our	-428
ne	-429
▁gu	-430
▁under	-431
ark	-432
▁day	-433
▁should	-434
ber	-435
hen	-436
▁long	-437
ting	-438
ened	-439
len	-440
ach	-441
ue	-442
iv	-443
ps	-444
▁rem	-445
▁face	-446
ning	-447
▁thing	-448
▁sha	-449
▁door	-450
ock	-451
▁U	-452
▁app	-453
age	-454
▁still	-455
▁res	-456
▁fir	-457
▁away	-458
ade	-459
▁something	-460
ew	-461
thing	-462
lena	-463
oc	-464
▁em	-465
▁pr	-466
ared	-467
ough	-468
▁got	-469
ause	-470
ail	-471
his	-472
▁after	-473
uck	-474
▁mu	-475
▁where	-476
▁let	-477
ai	-478
▁att	-479
▁Islena	-480
ian	-481
▁In	-482
▁first	-483
▁ho	-484
ple	-485
▁op	-486
▁call	-487
lt	-488
▁pre	-489
▁good	-490
ss	-491
▁cha	-492
ople	-493
▁well	-494
▁start	-495
▁asked	-496
ched	-497
▁ke	-498
▁room	-499
here	-500
▁much	-501
▁Y	-502
▁work	-503
oin	-504
ions	-505
▁You	-506
▁sw	-507
ged	-508
te	-509
ath	-510
▁sur	-511
orm	-512
side	-513
▁come	-514
▁feel	-515
▁But	-516
ittle	-517
ather	-518
ary	-519
▁people	-520
ady	-521
▁happ	-522
▁ch	-523
▁wom	-524
!"	-525
▁little	-526
ced	-527
▁bot	-528
▁part	-529
ase	-530
▁turned	-531
▁te	-532
ouse	-533
ving	-534
▁tell	-535
▁beg	-536
▁never	-537
aking	-538
ens	-539
ody	-540
ident	-541
What	-542
▁bet	-543
▁des	-544
▁moment	-545
▁lif	-546
▁vo	-547
▁spe	-548
▁per	-549
▁make	-550
ere	-551
per	-552
▁very	-553
▁fo	-554
ont	-555
ub	-556
▁seem	-557
row	-558
ved	-559
▁knew	-560
▁made	-561
▁take	-562
oss	-563
hia	-564
▁toward	-565
▁real	-566
ign	-567
ish	-568
ira	-569
▁che	-570
▁ph	-571
▁left	-572
ying	-573
▁cou	-574
▁har	-575
▁find	-576
▁fin	-577
ans	-578
▁own	-579
ty	-580
son	-581
ise	-582
▁Kira	-583
ng	-584
pect	-585
ful	-586
▁act	-587
ob	-588
iss	-589
so	-590
ait	-591
▁night	-592
▁because	-593
xt	-594
▁arm	-595
▁went	-596
▁My	-597
ci	-598
▁while	-599
▁car	-600
▁ent	-601
▁mind	-602
▁'	-603
▁voice	-604
ling	-605
▁came	-606
▁felt	-607
▁sure	-608
▁As	-609
ross	-610
▁being	-611
ord	-612
▁took	-613
az	-614
co	-615
▁And	-616
ually	-617
▁new	-618
ower	-619
It	-620
The	-621
ears	-622
▁His	-623
ness	-624
▁its	-625
ried	-626
be	-627
ang	-628
▁last	-629
▁place	-630
▁sec	-631
▁cle	-632
▁ret	-633
get	-634
ating	-635
▁unt	-636
▁end	-637
▁talk	-638
▁another	-639
end	-640
ily	-641
..."	-642
▁really	-643
▁bel	-644
▁might	-645
▁St	-646
▁few	-647
▁found	-648
▁pull	-649
▁hel	-650
▁put	-651
ense	-652
igh	-653
rew	-654
less	-655
iff	-656
▁saw	-657
ori	-658
▁ad	-659
▁This	-660
▁light	-661
ip	-662
▁That	-663
▁woman	-664
med	-665
▁though	-666
hind	-667
▁There	-668
▁hands	-669
▁must	-670
llow	-671
▁dec	-672
▁walk	-673
ool	-674
ane	-675
hy	-676
▁behind	-677
dded	-678
▁str	-679
▁both	-680
ner	-681
ks	-682
▁comp	-683
ible	-684
air	-685
ale	-686
We	-687
ames	-688
hes	-689
▁wasn	-690
▁ev	-691
ever	-692
▁wr	-693
▁imp	-694
ual	-695
▁may	-696
aring	-697
▁ass	-698
ory	-699
▁rel	-700
ah	-701
▁*	-702
▁side	-703
▁chan	-704
▁life	-705
▁bu	-706
▁looking	-707
irl	-708
▁book	-709
▁An	-710
▁ob	-711
▁next	-712
▁el	-713
▁wait	-714
▁enough	-715
▁himself	-716
▁small	-717
▁rest	-718
▁told	-719
▁When	-720
ways	-721
▁conf	-722
▁until	-723
▁cr	-724
▁repl	-725
ict	-726
▁If	-727
▁word	-728
▁min	-729
▁smil	-730
▁ser	-731
▁keep	-732
▁set	-733
ering	-734
ret	-735
used	-736
▁body	-737
▁does	-738
gg	-739
▁quick	-740
▁bed	-741
van	-742
we	-743
▁war	-744
▁cour	-745
▁mov	-746
ical	-747
▁says	-748
▁hard	-749
les	-750
▁help	-751
ons	-752
iend	-753
▁1	-754
▁lau	-755
ater	-756
▁friend	-757
ee	-758
ching	-759
ned	-760
▁anything	-761
▁old	-762
▁girl	-763
erson	-764
ably	-765
mer	-766
ince	-767
▁home	-768
ately	-769
▁sk	-770
▁contin	-771
arly	-772
▁also	-773
ert	-774
ently	-775
▁those	-776
▁sat	-777
▁V	-778
▁inst	-779
▁clos	-780
▁Then	-781
▁poin	-782
err	-783
ully	-784
ition	-785
na	-786
ors	-787
resident	-788
iver	-789
ren	-790
▁world	-791
▁against	-792
orio	-793
▁water	-794
▁underst	-795
▁things	-796
ild	-797
▁dr	-798
ised	-799
▁dark	-800
ations	-801
ys	-802
day	-803
No	-804
oke	-805
▁most	-806
▁inv	-807
That	-808
to	-809
▁house	-810
▁always	-811
▁stood	-812
▁President	-813
▁nothing	-814
▁wanted	-815
▁boy	-816
▁open	-817
▁Lorio	-818
▁aw	-819
▁quest	-820
▁pass	-821
▁comm	-822
▁belie	-823
most	-824
▁read	-825
ves	-826
ained	-827
▁breat	-828
▁sil	-829
▁each	-830
Yes	-831
alked	-832
▁Ivan	-833
▁sound	-834
▁these	-835
▁follow	-836
og	-837
ank	-838
cess	-839
rhia	-840
▁without	-841
▁why	-842
▁dist	-843
▁heard	-844
▁James	-845
▁mor	-846
ars	-847
▁exp	-848
▁Al	-849
▁Br	-850
▁same	-851
ents	-852
▁seemed	-853
▁What	-854
▁front	-855
▁cur	-856
▁stand	-857
▁hu	-858
▁once	-859
sw	-860
▁phone	-861
▁across	-862
▁smiled	-863
rist	-864
▁run	-865
▁three	-866
▁All	-867
▁nodded	-868
▁Myrhia	-869
▁replied	-870
▁minut	-871
ached	-872
▁air	-873
▁inf	-874
▁So	-875
ready	-876
▁Ale	-877
▁answ	-878
bed	-879
cept	-880
har	-881
▁began	-882
ction	-883
outh	-884
▁sle	-885
▁mean	-886
ized	-887
▁Ugh	-888
▁bre	-889
▁deep	-890
ia	-891
ony	-892
▁Dav	-893
▁ever	-894
▁herself	-895
oor	-896
▁sit	-897
▁years	-898
▁couldn	-899
▁resp	-900
▁wind	-901
ream	-902
▁wond	-903
▁soon	-904
ec	-905
▁God	-906
▁return	-907
ix	-908
▁expl	-909
▁supp	-910
pr	-911
ier	-912
▁almost	-913
▁already	-914
▁care	-915
iet	-916
▁sn	-917
▁blood	-918
oud	-919
He	-920
▁bit	-921
aught	-922
ention	-923
ial	-924
▁meet	-925
ings	-926
▁sto	-927
▁feet	-928
▁give	-929
▁Her	-930
aw	-931
▁Kate	-932
▁David	-933
▁bo	-934
amp	-935
▁else	-936
▁hour	-937
ib	-938
ished	-939
ult	-940
▁ask	-941
▁mat	-942
▁poss	-943
ired	-944
▁diff	-945
▁vis	-946
▁started	-947
chie	-948
ided	-949
▁done	-950
hu	-951
▁disc	-952
▁Arm	-953
▁morning	-954
▁chi	-955
▁hair	-956
▁doing	-957
▁kill	-958
▁love	-959
▁trying	-960
▁Now	-961
▁ste	-962
ued	-963
aced	-964
▁show	-965
▁slow	-966
up	-967
the	-968
▁far	-969
▁rep	-970
▁power	-971
ek	-972
▁hum	-973
▁Mr	-974
ax	-975
ef	-976
▁cor	-977
▁course	-978
▁along	-979
▁men	-980
▁hold	-981
▁dire	-982
▁everything	-983
ening	-984
ces	-985
iously	-986
▁smile	-987
▁ple	-988
Well	-989
andy	-990
▁great	-991
▁def	-992
ount	-993
▁inc	-994
▁many	-995
ured	-996
▁ca	-997
▁upon	-998
umb	-999
▁big	-1000
▁close	-1001
▁better	-1002
eral	-1003
▁pick	-1004
▁remem	-1005
ric	-1006
▁rec	-1007
▁sim	-1008
ither	-1009
▁pain	-1010
▁inter	-1011
▁plan	-1012
▁since	-1013
▁One	-1014
▁such	-1015
▁Davidson	-1016
kay	-1017
▁dra	-1018
▁getting	-1019
aihu	-1020
irit	-1021
fully	-1022
ni	-1023
▁Jer	-1024
▁coming	-1025
▁understand	-1026
▁second	-1027
▁black	-1028
inda	-1029
▁move	-1030
vers	-1031
mb	-1032
pping	-1033
▁child	-1034
▁hear	-1035
▁person	-1036
ash	-1037
nce	-1038
▁ins	-1039
▁gave	-1040
▁cons	-1041
▁pres	-1042
▁least	-1043
▁pulled	-1044
▁onto	-1045
▁called	-1046
▁dro	-1047
vel	-1048
Oh	-1049
uth	-1050
▁ref	-1051
▁later	-1052
▁pur	-1053
▁tre	-1054
▁gone	-1055
▁name	-1056
▁acc	-1057
ertain	-1058
▁quickly	-1059
ween	-1060
▁dri	-1061
▁walked	-1062
▁pus	-1063
▁fam	-1064
▁wall	-1065
gether	-1066
▁Mandy	-1067
▁Ad	-1068
▁lot	-1069
▁others	-1070
aden	-1071
▁between	-1072
▁ord	-1073
▁days	-1074
▁yet	-1075
itting	-1076
And	-1077
▁sch	-1078
▁bus	-1079
▁leave	-1080
ped	-1081
▁inside	-1082
ike	-1083
pter	-1084
▁eye	-1085
▁towards	-1086
mit	-1087
▁After	-1088
▁seen	-1089
▁reg	-1090
▁tak	-1091
ger	-1092
▁met	-1093
uri	-1094
bably	-1095
▁mon	-1096
▁stay	-1097
▁floor	-1098
▁fore	-1099
ically	-1100
▁finally	-1101
dden	-1102
▁held	-1103
▁play	-1104
part	-1105
reet	-1106
eared	-1107
▁someone	-1108
So	-1109
oe	-1110
▁How	-1111
▁gaz	-1112
▁hope	-1113
▁point	-1114
br	-1115
▁outside	-1116
ason	-1117
▁past	-1118
▁believe	-1119
uss	-1120
▁Dor	-1121
▁fall	-1122
**	-1123
▁together	-1124
aux	-1125
▁cat	-1126
▁comple	-1127
arent	-1128
tle	-1129
▁spirit	-1130
room	-1131
▁heart	-1132
▁table	-1133
▁Ch	-1134
▁mouth	-1135
▁Wh	-1136
▁coll	-1137
▁ra	-1138
▁ground	-1139
▁dem	-1140
▁quiet	-1141
▁kind	-1142
ined	-1143
▁sleep	-1144
▁Archie	-1145
▁expect	-1146
▁es	-1147
▁words	-1148
▁eas	-1149
▁minutes	-1150
irt	-1151
▁fact	-1152
▁prot	-1153
▁tried	-1154
▁young	-1155
▁Doraux	-1156
▁mother	-1157
▁happened	-1158
aut	-1159
▁No	-1160
▁Gen	-1161
▁use	-1162
▁surpr	-1163
▁school	-1164
▁exc	-1165
▁able	-1166
▁used	-1167
▁question	-1168
▁Lu	-1169
ins	-1170
ject	-1171
reen	-1172
▁det	-1173
▁arms	-1174
ien	-1175
▁dead	-1176
▁within	-1177
▁Yuri	-1178
▁stopped	-1179
▁ide	-1180
▁shook	-1181
ara	-1182
king	-1183
ited	-1184
▁Arminda	-1185
▁watched	-1186
ters	-1187
▁breath	-1188
empt	-1189
ung	-1190
idd	-1191
▁allow	-1192
▁2	-1193
ten	-1194
▁moved	-1195
▁probably	-1196
How	-1197
ates	-1198
▁list	-1199
▁check	-1200
▁del	-1201
▁ran	-1202
▁cut	-1203
▁high	-1204
eah	-1205
But	-1206
▁sense	-1207
▁half	-1208
▁hor	-1209
▁lead	-1210
ery	-1211
where	-1212
▁reached	-1213
ility	-1214
▁soft	-1215
▁Jerhia	-1216
kse	-1217
ksei	-1218
▁ind	-1219
▁sub	-1220
uring	-1221
▁stop	-1222
▁fing	-1223
haps	-1224
medi	-1225
▁For	-1226
▁continued	-1227
ead	-1228
▁Car	-1229
▁sign	-1230
ize	-1231
▁father	-1232
cc	-1233
gged	-1234
blem	-1235
ressed	-1236
▁fur	-1237
▁build	-1238
▁Aleksei	-1239
▁near	-1240
▁differe	-1241
aren	-1242
▁white	-1243
▁grab	-1244
▁At	-1245
tered	-1246
▁glan	-1247
cy	-1248
itch	-1249
uff	-1250
▁With	-1251
▁taking	-1252
ton	-1253
▁window	-1254
▁stud	-1255
▁problem	-1256
▁immedi	-1257
▁remember	-1258
▁Tony	-1259
▁Braden	-1260
ny	-1261
▁squ	-1262
▁Adam	-1263
▁doesn	-1264
fort	-1265
▁best	-1266
ristan	-1267
▁certain	-1268
▁bar	-1269
▁red	-1270
▁Dane	-1271
▁talking	-1272
coot	-1273
▁tri	-1274
▁guess	-1275
▁slight	-1276
▁Th	-1277
▁ear	-1278
▁sudden	-1279
▁conc	-1280
▁reason	-1281
▁beaut	-1282
▁ed	-1283
▁bad	-1284
ression	-1285
▁Tristan	-1286
erest	-1287
▁slowly	-1288
▁count	-1289
▁Caren	-1290
▁ready	-1291
▁eff	-1292
▁Scoot	-1293
alm	-1294
▁Jack	-1295
▁Luke	-1296
oney	-1297
osed	-1298
▁full	-1299
iced	-1300
▁Jo	-1301
▁sens	-1302
▁contro	-1303
▁char	-1304
▁food	-1305
▁opened	-1306
▁par	-1307
▁saf	-1308
▁sun	-1309
overed	-1310
▁lost	-1311
▁Ne	-1312
▁Un	-1313
▁won	-1314
lan	-1315
otion	-1316
▁ago	-1317
▁ele	-1318
▁needed	-1319
▁Fr	-1320
▁spoke	-1321
▁pol	-1322
gs	-1323
▁bro	-1324
▁top	-1325
▁sitting	-1326
erg	-1327
vis	-1328
aned	-1329
▁Not	-1330
▁feeling	-1331
head	-1332
▁idea	-1333
▁quite	-1334
▁Scooter	-1335
not	-1336
▁actually	-1337
▁lar	-1338
▁land	-1339
▁Le	-1340
hapter	-1341
▁city	-1342
This	-1343
▁Con	-1344
▁fight	-1345
▁.	-1346
▁four	-1347
▁looks	-1348
▁office	-1349
▁interest	-1350
app	-1351
aged	-1352
▁guy	-1353
▁making	-1354
Why	-1355
▁today	-1356
▁complete	-1357
als	-1358
erv	-1359
orry	-1360
▁death	-1361
▁either	-1362
anor	-1363
ster	-1364
▁break	-1365
clud	-1366
▁hadn	-1367
▁matter	-1368
▁arri	-1369
oun	-1370
▁ext	-1371
##	-1372
rief	-1373
▁pat	-1374
▁fire	-1375
▁everyone	-1376
▁Sec	-1377
aving	-1378
▁miss	-1379
▁appro	-1380
▁decided	-1381
▁whis	-1382
hal	-1383
ghed	-1384
veral	-1385
▁short	-1386
▁different	-1387
▁bur	-1388
▁pos	-1389
▁having	-1390
man	-1391
ants	-1392
▁loc	-1393
▁immediately	-1394
▁hours	-1395
▁thinking	-1396
▁unc	-1397
▁gaze	-1398
▁become	-1399
by	-1400
ken	-1401
Yeah	-1402
iven	-1403
▁Bar	-1404
ased	-1405
enry	-1406
▁Den	-1407
▁hur	-1408
If	-1409
▁sy	-1410
ures	-1411
▁stra	-1412
▁alone	-1413
▁shad	-1414
▁Mar	-1415
▁appeared	-1416
▁shoulder	-1417
▁sou	-1418
▁five	-1419
▁wouldn	-1420
▁Sam	-1421
▁apart	-1422
▁family	-1423
oon	-1424
aybe	-1425
▁Cam	-1426
▁dou	-1427
night	-1428
errick	-1429
▁couple	-1430
rupt	-1431
▁try	-1432
▁chair	-1433
▁taken	-1434
▁forward	-1435
itc	-1436
▁fig	-1437
▁Dmit	-1438
▁form	-1439
cing	-1440
tern	-1441
▁situ	-1442
▁direct	-1443
era	-1444
▁dam	-1445
Do	-1446
inch	-1447
▁Henry	-1448
▁invol	-1449
▁anyone	-1450
▁Poe	-1451
ative	-1452
endaihu	-1453
mor	-1454
unch	-1455
▁job	-1456
▁Just	-1457
▁large	-1458
▁Derrick	-1459
ular	-1460
▁mil	-1461
antly	-1462
iness	-1463
▁fill	-1464
▁pa	-1465
▁lay	-1466
ution	-1467
▁control	-1468
▁several	-1469
gn	-1470
ply	-1471
▁enc	-1472
anger	-1473
▁mar	-1474
▁hall	-1475
▁wound	-1476
iew	-1477
airs	-1478
land	-1479
read	-1480
▁whole	-1481
▁Be	-1482
▁bring	-1483
▁answer	-1484
▁entire	-1485
▁glanced	-1486
aces	-1487
yge	-1488
ygeanor	-1489
ging	-1490
▁perf	-1491
▁begin	-1492
▁protect	-1493
its	-1494
▁waiting	-1495
▁ten	-1496
▁step	-1497
▁myself	-1498
▁Jackson	-1499
▁laughed	-1500
▁offic	-1501
▁women	-1502
▁Dmitri	-1503
▁Mendaihu	-1504
▁tou	-1505
▁attempt	-1506
aleb	-1507
▁friends	-1508
ime	-1509
rought	-1510
▁laugh	-1511
▁street	-1512
ract	-1513
ingly	-1514
ipped	-1515
▁attack	-1516
oot	-1517
▁bes	-1518
▁rather	-1519
mm	-1520
ts	-1521
▁cent	-1522
▁hell	-1523
▁reco	-1524
▁stru	-1525
▁inform	-1526
▁ve	-1527
ange	-1528
lled	-1529
▁human	-1530
ocked	-1531
▁kiss	-1532
omm	-1533
▁ver	-1534
▁frown	-1535
iding	-1536
▁closed	-1537
▁cra	-1538
▁fuck	-1539
sed	-1540
▁Art	-1541
ities	-1542
▁dest	-1543
▁attention	-1544
▁Gr	-1545
▁imag	-1546
▁pret	-1547
inchon	-1548
▁wrong	-1549
▁Sara	-1550
▁case	-1551
▁free	-1552
▁Chapter	-1553
▁nat	-1554
▁speak	-1555
▁event	-1556
erm	-1557
ief	-1558
ird	-1559
sel	-1560
ump	-1561
ards	-1562
▁"...	-1563
▁sent	-1564
▁times	-1565
▁followed	-1566
▁situation	-1567
ern	-1568
▁fun	-1569
▁mus	-1570
▁swe	-1571
▁Sygeanor	-1572
ides	-1573
▁hot	-1574
▁Pinchon	-1575
▁building	-1576
enty	-1577
▁possible	-1578
▁standing	-1579
▁suddenly	-1580
▁drink	-1581
ailed	-1582
▁prom	-1583
There	-1584
ape	-1585
irc	-1586
▁Caleb	-1587
▁cross	-1588
ene	-1589
▁exper	-1590
▁saying	-1591
old	-1592
▁pri	-1593
▁Rub	-1594
▁fell	-1595
halé	-1596
▁creat	-1597
▁brought	-1598
▁working	-1599
▁expression	-1600
▁On	-1601
They	-1602
ience	-1603
▁foot	-1604
▁brief	-1605
hn	-1606
She	-1607
body	-1608
▁area	-1609
▁grow	-1610
▁soul	-1611
Is	-1612
▁realized	-1613
reed	-1614
▁occ	-1615
▁shru	-1616
▁AJ	-1617
inai	-1618
▁six	-1619
▁join	-1620
joy	-1621
umas	-1622
▁warm	-1623
▁glass	-1624
▁party	-1625
▁trans	-1626
▁pretty	-1627
ient	-1628
isted	-1629
▁requ	-1630
▁cold	-1631
ife	-1632
▁grou	-1633
▁lips	-1634
▁silence	-1635
▁kid	-1636
aining	-1637
▁col	-1638
iving	-1639
me	-1640
▁obv	-1641
▁disapp	-1642
▁command	-1643
▁watching	-1644
ield	-1645
ific	-1646
ines	-1647
ister	-1648
▁camp	-1649
▁noticed	-1650
▁respond	-1651
▁Cl	-1652
▁add	-1653
▁opp	-1654
▁Arinai	-1655
▁hop	-1656
▁const	-1657
▁energ	-1658
▁caught	-1659
00	-1660
akes	-1661
▁Oh	-1662
▁esc	-1663
▁became	-1664
▁simply	-1665
aby	-1666
ute	-1667
▁desp	-1668
▁true	-1669
oved	-1670
▁blue	-1671
▁loud	-1672
▁mess	-1673
▁seat	-1674
▁chest	-1675
▁given	-1676
▁sorry	-1677
▁watch	-1678
gar	-1679
ush	-1680
▁gen	-1681
gr	-1682
._	-1683
▁aff	-1684
▁okay	-1685
▁Do	-1686
▁doub	-1687
▁kept	-1688
▁less	-1689
▁parent	-1690
▁money	-1691
▁Nehalé	-1692
▁ang	-1693
▁clot	-1694
aves	-1695
▁fear	-1696
ets	-1697
ude	-1698
▁shot	-1699
▁tight	-1700
cial	-1701
▁Met	-1702
▁grin	-1703
▁enjoy	-1704
▁maybe	-1705
▁living	-1706
▁wonder	-1707
ex	-1708
▁pap	-1709
▁sus	-1710
▁line	-1711
▁live	-1712
▁class	-1713
▁Artumas	-1714
▁brother	-1715
ison	-1716
▁din	-1717
Not	-1718
iful	-1719
▁cre	-1720
▁wood	-1721
▁change	-1722
▁General	-1723
llen	-1724
▁sort	-1725
▁above	-1726
▁Secret	-1727
ored	-1728
▁Max	-1729
▁eat	-1730
▁heav	-1731
▁road	-1732
▁happy	-1733
umber	-1734
▁Eric	-1735
▁longer	-1736
▁pushed	-1737
▁thoughts	-1738
orn	-1739
Than	-1740
ggest	-1741
▁clear	-1742
▁story	-1743
sh	-1744
orth	-1745
light	-1746
▁truth	-1747
adi	-1748
▁More	-1749
itchen	-1750
▁House	-1751
▁exact	-1752
▁returned	-1753
clock	-1754
▁includ	-1755
▁suggest	-1756
irty	-1757
▁town	-1758
▁during	-1759
▁kitchen	-1760
▁straight	-1761
use	-1762
▁Bill	-1763
▁nice	-1764
▁Mitch	-1765
▁closer	-1766
▁slightly	-1767
▁mis	-1768
▁John	-1769
▁late	-1770
▁Metoc	-1771
▁Why	-1772
▁led	-1773
though	-1774
▁compan	-1775
▁Metocan	-1776
▁parents	-1777
arth	-1778
▁safe	-1779
cri	-1780
bing	-1781
vern	-1782
▁gro	-1783
▁main	-1784
how	-1785
ues	-1786
arch	-1787
▁lear	-1788
▁neck	-1789
▁trees	-1790
▁headed	-1791
▁...	-1792
▁group	-1793
▁truck	-1794
▁bright	-1795
aim	-1796
▁Su	-1797
ches	-1798
▁picked	-1799
▁energy	-1800
▁walking	-1801
but	-1802
▁fine	-1803
▁prep	-1804
▁books	-1805
▁shut	-1806
▁fingers	-1807
ze	-1808
▁abs	-1809
▁dad	-1810
ected	-1811
selves	-1812
▁Denni	-1813
ator	-1814
▁ann	-1815
▁lab	-1816
ement	-1817
▁terr	-1818
▁demand	-1819
ias	-1820
▁av	-1821
▁sick	-1822
▁month	-1823
▁beside	-1824
▁strong	-1825
▁completely	-1826
du	-1827
▁sex	-1828
ashed	-1829
usion	-1830
▁team	-1831
▁Carter	-1832
▁shadow	-1833
ments	-1834
vent	-1835
lease	-1836
nding	-1837
pered	-1838
▁Even	-1839
▁deal	-1840
ination	-1841
ho	-1842
▁cond	-1843
▁prov	-1844
▁3	-1845
▁pay	-1846
▁bare	-1847
Don	-1848
▁wee	-1849
▁trust	-1850
My	-1851
ham	-1852
▁news	-1853
▁radi	-1854
▁convers	-1855
ior	-1856
▁cry	-1857
ified	-1858
▁coff	-1859
▁ign	-1860
▁guys	-1861
▁hung	-1862
▁shout	-1863
▁passed	-1864
▁Dar	-1865
▁Mat	-1866
▁yes	-1867
▁Char	-1868
▁view	-1869
inally	-1870
▁visit	-1871
▁number	-1872
la	-1873
▁To	-1874
▁state	-1875
▁scream	-1876
▁meeting	-1877
aff	-1878
ians	-1879
▁surv	-1880
▁danger	-1881
,_	-1882
▁—	-1883
ask	-1884
ming	-1885
▁sig	-1886
▁sol	-1887
▁raised	-1888
eth	-1889
ains	-1890
▁bag	-1891
▁hit	-1892
▁anyway	-1893
nded	-1894
▁Ber	-1895
meric	-1896
▁Some	-1897
▁suff	-1898
▁river	-1899
▁leaving	-1900
▁ir	-1901
ection	-1902
▁meant	-1903
ift	-1904
▁stared	-1905
▁further	-1906
▁instead	-1907
▁position	-1908
hip	-1909
oes	-1910
ices	-1911
▁thr	-1912
▁baby	-1913
▁stepped	-1914
▁Americ	-1915
▁Inos	-1916
▁rock	-1917
▁holding	-1918
▁yourself	-1919
off	-1920
▁isn	-1921
▁Russ	-1922
▁crow	-1923
▁react	-1924
▁beautiful	-1925
ider	-1926
ives	-1927
▁reading	-1928
▁children	-1929
▁obs	-1930
▁suc	-1931
▁finished	-1932
Okay	-1933
ived	-1934
▁bat	-1935
▁accept	-1936
lic	-1937
nik	-1938
▁desk	-1939
▁edge	-1940
▁tree	-1941
▁Light	-1942
▁order	-1943
▁sight	-1944
▁happen	-1945
▁lo	-1946
ctor	-1947
▁low	-1948
▁tonight	-1949
'_	-1950
▁tor	-1951
▁Elan	-1952
▁Every	-1953
▁moving	-1954
▁la	-1955
ushed	-1956
oned	-1957
Let	-1958
unt	-1959
cted	-1960
hnik	-1961
arvis	-1962
▁worry	-1963
ively	-1964
▁Col	-1965
▁boys	-1966
▁sighed	-1967
▁running	-1968
▁po	-1969
▁skin	-1970
▁tears	-1971
▁cho	-1972
▁lim	-1973
▁son	-1974
▁conv	-1975
▁draw	-1976
▁quietly	-1977
▁apartment	-1978
clay	-1979
▁circ	-1980
▁pict	-1981
▁store	-1982
▁perhaps	-1983
▁Well	-1984
▁grass	-1985
▁Christ	-1986
▁threat	-1987
iddle	-1988
ously	-1989
▁surprised	-1990
ph	-1991
imes	-1992
▁Pro	-1993
aster	-1994
cious	-1995
▁forg	-1996
▁week	-1997
▁frowned	-1998
ili	-1999
morrow	-2000
▁Jarvis	-2001
▁exactly	-2002
▁tomorrow	-2003
onse	-2004
▁year	-2005
▁cannot	-2006
▁partic	-2007
▁regard	-2008
ev	-2009
yond	-2010
▁dev	-2011
cially	-2012
▁ahead	-2013
▁whispered	-2014
▁sky	-2015
ndred	-2016
▁calm	-2017
▁dream	-2018
▁chance	-2019
▁Barclay	-2020
▁grabbed	-2021
▁conversation	-2022
ails	-2023
tled	-2024
▁hang	-2025
▁thro	-2026
▁doubt	-2027
▁early	-2028
▁coffee	-2029
▁Finally	-2030
▁rub	-2031
▁gets	-2032
▁Ishnik	-2033
▁softly	-2034
▁-	-2035
urity	-2036
▁bath	-2037
▁mount	-2038
▁report	-2039
aj	-2040
bs	-2041
▁Per	-2042
▁known	-2043
▁nearly	-2044
▁presence	-2045
acy	-2046
well	-2047
▁phys	-2048
▁spot	-2049
▁yell	-2050
▁recogn	-2051
▁comfort	-2052
▁Secretary	-2053
▁direction	-2054
▁af	-2055
▁hon	-2056
▁green	-2057
▁contact	-2058
▁response	-2059
tic	-2060
▁**	-2061
Where	-2062
▁fast	-2063
▁Berry	-2064
▁Grace	-2065
▁gently	-2066
▁leaned	-2067
Good	-2068
acing	-2069
ising	-2070
itary	-2071
ought	-2072
▁allowed	-2073
▁wondered	-2074
inger	-2075
▁anim	-2076
▁empt	-2077
▁wants	-2078
ists	-2079
▁gra	-2080
naihu	-2081
▁clim	-2082
▁clean	-2083
▁means	-2084
▁Shenaihu	-2085
Are	-2086
raid	-2087
▁foc	-2088
▁mem	-2089
icked	-2090
▁flat	-2091
▁shar	-2092
▁comes	-2093
▁force	-2094
▁distance	-2095
urd	-2096
iting	-2097
▁trou	-2098
▁wish	-2099
▁evening	-2100
olog	-2101
pose	-2102
aching	-2103
▁crowd	-2104
▁guard	-2105
▁hundred	-2106
ley	-2107
▁Maybe	-2108
▁added	-2109
▁beyond	-2110
▁filled	-2111
▁gas	-2112
▁knowing	-2113
▁offered	-2114
ope	-2115
▁adm	-2116
▁giving	-2117
▁placed	-2118
▁seeing	-2119
osp	-2120
▁Mom	-2121
▁Mur	-2122
▁ble	-2123
▁alive	-2124
een	-2125
▁Re	-2126
▁pie	-2127
▁seems	-2128
▁import	-2129
▁including	-2130
ips	-2131
▁med	-2132
▁pair	-2133
▁sing	-2134
▁haven	-2135
▁makes	-2136
▁paused	-2137
▁shoulders	-2138
▁norm	-2139
▁corner	-2140
ER	-2141
▁Em	-2142
▁Spe	-2143
▁doll	-2144
▁legs	-2145
▁test	-2146
▁please	-2147
▁worked	-2148
anne	-2149
▁Any	-2150
▁Red	-2151
uthor	-2152
▁Vera	-2153
▁clearly	-2154
ey	-2155
ral	-2156
▁##	-2157
agren	-2158
▁cover	-2159
▁drive	-2160
▁stuff	-2161
▁dinner	-2162
▁sister	-2163
▁expected	-2164
ole	-2165
▁Jan	-2166
▁odd	-2167
pecially	-2168
▁shrugged	-2169
▁information	-2170
esh	-2171
oth	-2172
ceed	-2173
▁gun	-2174
hered	-2175
▁Nick	-2176
▁earth	-2177
▁afraid	-2178
▁perfect	-2179
▁staring	-2180
▁hy	-2181
rent	-2182
itual	-2183
▁paper	-2184
▁country	-2185
▁Don	-2186
▁easy	-2187
▁knows	-2188
zy	-2189
ney	-2190
ital	-2191
▁Morena	-2192
▁whatever	-2193
ls	-2194
ones	-2195
▁spr	-2196
▁reach	-2197
unk	-2198
▁mag	-2199
▁tot	-2200
lling	-2201
▁walks	-2202
▁Muragren	-2203
ler	-2204
book	-2205
ency	-2206
itted	-2207
▁flow	-2208
▁twenty	-2209
▁Charles	-2210
▁process	-2211
▁mere	-2212
▁path	-2213
noon	-2214
stem	-2215
▁Mill	-2216
▁smell	-2217
▁secret	-2218
▁surround	-2219
▁vi	-2220
aked	-2221
onro	-2222
that	-2223
▁sir	-2224
ormias	-2225
▁shall	-2226
▁Leanne	-2227
▁killed	-2228
▁dropped	-2229
▁certainly	-2230
oming	-2231
right	-2232
▁burn	-2233
▁park	-2234
▁peace	-2235
▁throw	-2236
▁managed	-2237
▁supposed	-2238
ural	-2239
▁Sir	-2240
▁box	-2241
▁cloud	-2242
▁system	-2243
▁despite	-2244
▁emotion	-2245
rig	-2246
▁Clay	-2247
▁anger	-2248
▁thick	-2249
▁middle	-2250
▁notice	-2251
▁remind	-2252
▁eventually	-2253
▁Ag	-2254
▁ut	-2255
▁asks	-2256
▁minute	-2257
ork	-2258
Come	-2259
aded	-2260
▁turning	-2261
▁business	-2262
▁somewhere	-2263
iny	-2264
▁Or	-2265
onroe	-2266
tress	-2267
▁pack	-2268
▁tone	-2269
ashing	-2270
▁pointed	-2271
aled	-2272
▁leg	-2273
▁huge	-2274
umbled	-2275
▁ritual	-2276
▁arrived	-2277
oa	-2278
iance	-2279
▁Comm	-2280
▁Ruby	-2281
▁jour	-2282
idence	-2283
▁trave	-2284
▁Darien	-2285
▁Miller	-2286
▁figure	-2287
▁Clayton	-2288
osa	-2289
▁reve	-2290
▁discuss	-2291
▁afternoon	-2292
lier	-2293
port	-2294
▁die	-2295
ander	-2296
ories	-2297
umped	-2298
▁post	-2299
▁lunch	-2300
▁shirt	-2301
▁nation	-2302
Hey	-2303
▁Am	-2304
iber	-2305
▁Let	-2306
▁mad	-2307
▁tem	-2308
oring	-2309
▁Dian	-2310
▁died	-2311
▁wide	-2312
▁aware	-2313
ometimes	-2314
aker	-2315
ulas	-2316
▁bow	-2317
▁carry	-2318
▁strange	-2319
▁questions	-2320
omp	-2321
▁equ	-2322
▁eight	-2323
▁stone	-2324
▁glance	-2325
▁Sormias	-2326
ibly	-2327
▁uns	-2328
▁pock	-2329
▁empty	-2330
▁covered	-2331
▁telling	-2332
▁surprise	-2333
ds	-2334
▁cap	-2335
▁Once	-2336
▁prof	-2337
▁self	-2338
▁effect	-2339
ug	-2340
ilt	-2341
int	-2342
inite	-2343
▁amaz	-2344
▁coun	-2345
▁crew	-2346
▁Monroe	-2347
▁appear	-2348
▁throat	-2349
▁answered	-2350
▁understood	-2351
ume	-2352
▁Tw	-2353
Then	-2354
ekoa	-2355
ills	-2356
using	-2357
▁tall	-2358
ration	-2359
▁author	-2360
▁beginning	-2361
▁By	-2362
▁eng	-2363
▁sand	-2364
▁weak	-2365
▁itself	-2366
▁bathroom	-2367
zz	-2368
▁,	-2369
▁fut	-2370
▁van	-2371
▁ding	-2372
▁glad	-2373
▁grim	-2374
▁Kekoa	-2375
itution	-2376
▁barely	-2377
▁present	-2378
▁personal	-2379
AP	-2380
▁ce	-2381
amed	-2382
iling	-2383
▁note	-2384
▁weeks	-2385
abin	-2386
▁gri	-2387
itten	-2388
▁Also	-2389
▁Mark	-2390
▁decl	-2391
▁Camulas	-2392
▁obviously	-2393
▁mot	-2394
▁sal	-2395
▁gest	-2396
▁forth	-2397
vernment	-2398
▁military	-2399
now	-2400
▁evil	-2401
▁Maroc	-2402
▁strugg	-2403
▁themselves	-2404
uc	-2405
Just	-2406
▁ill	-2407
ivers	-2408
▁pleas	-2409
▁except	-2410
▁remained	-2411
▁cell	-2412
▁damn	-2413
▁flesh	-2414
▁often	-2415
▁touch	-2416
▁Ph	-2417
ages	-2418
▁High	-2419
▁takes	-2420
▁decide	-2421
▁Ge	-2422
oose	-2423
urch	-2424
▁dog	-2425
▁pub	-2426
velop	-2427
▁mass	-2428
▁mine	-2429
▁press	-2430
aughter	-2431
▁center	-2432
▁waited	-2433
▁purpose	-2434
add	-2435
arm	-2436
ics	-2437
▁New	-2438
▁rose	-2439
▁avo	-2440
▁Inst	-2441
eal	-2442
kes	-2443
lor	-2444
ires	-2445
▁law	-2446
pected	-2447
▁heavy	-2448
▁moments	-2449
▁involving	-2450
oof	-2451
vice	-2452
itude	-2453
▁Emer	-2454
▁awak	-2455
▁horr	-2456
▁diffic	-2457
▁forget	-2458
▁earlier	-2459
▁entered	-2460
▁pulling	-2461
▁fa	-2462
alth	-2463
rews	-2464
rible	-2465
▁hurt	-2466
▁White	-2467
▁explain	-2468
▁mention	-2469
cil	-2470
els	-2471
udd	-2472
come	-2473
like	-2474
▁priv	-2475
▁Emian	-2476
▁sounds	-2477
ges	-2478
▁win	-2479
▁City	-2480
▁stre	-2481
▁drove	-2482
▁months	-2483
▁although	-2484
▁Rosa	-2485
▁king	-2486
ishing	-2487
▁nature	-2488
▁rolled	-2489
▁changed	-2490
ots	-2491
▁ty	-2492
acle	-2493
reme	-2494
▁Dra	-2495
▁Kai	-2496
▁fif	-2497
▁lit	-2498
acred	-2499
house	-2500
▁Jess	-2501
▁Mars	-2502
▁Winger	-2503
sit	-2504
more	-2505
▁###	-2506
▁hesit	-2507
▁clothes	-2508
▁directly	-2509
▁especially	-2510
▁arg	-2511
▁stri	-2512
▁Still	-2513
▁verse	-2514
▁Conall	-2515
▁important	-2516
rect	-2517
▁cop	-2518
▁emb	-2519
▁fil	-2520
▁disp	-2521
▁shoot	-2522
▁teeth	-2523
▁using	-2524
▁agreed	-2525
▁settled	-2526
▁darkness	-2527
eter	-2528
inct	-2529
▁scr	-2530
▁claim	-2531
▁level	-2532
▁beauty	-2533
Who	-2534
den	-2535
ote	-2536
ajor	-2537
onel	-2538
▁Who	-2539
▁mist	-2540
▁rece	-2541
▁forest	-2542
▁silent	-2543
▁thirty	-2544
ism	-2545
▁Mrs	-2546
bered	-2547
▁viol	-2548
▁final	-2549
▁lives	-2550
Did	-2551
uit	-2552
▁CH	-2553
▁Gl	-2554
line	-2555
word	-2556
▁lifted	-2557
▁However	-2558
▁however	-2559
St	-2560
▁Nat	-2561
▁mid	-2562
▁mir	-2563
▁thank	-2564
ries	-2565
ended	-2566
usted	-2567
▁spec	-2568
ground	-2569
▁forced	-2570
▁fucking	-2571
TER	-2572
ept	-2573
ety	-2574
what	-2575
▁unf	-2576
▁base	-2577
▁goes	-2578
▁email	-2579
▁eating	-2580
my	-2581
bit	-2582
ades	-2583
▁arr	-2584
▁fav	-2585
▁ris	-2586
▁luck	-2587
▁stro	-2588
▁stup	-2589
▁weap	-2590
▁compl	-2591
▁relax	-2592
▁enchan	-2593
▁police	-2594
▁keeping	-2595
rest	-2596
▁Heb	-2597
▁tow	-2598
▁wra	-2599
▁oper	-2600
▁steps	-2601
elt	-2602
▁ur	-2603
▁Ben	-2604
▁imm	-2605
ision	-2606
▁cool	-2607
▁enem	-2608
▁nerv	-2609
▁wild	-2610
▁field	-2611
▁seven	-2612
▁doctor	-2613
▁stairs	-2614
▁picture	-2615
▁station	-2616
▁wearing	-2617
▁tru	-2618
Thank	-2619
▁tent	-2620
▁wave	-2621
▁stret	-2622
▁simple	-2623
▁somehow	-2624
▁Dan	-2625
APTER	-2626
iliar	-2627
▁cock	-2628
▁eyeb	-2629
▁phot	-2630
▁sold	-2631
ension	-2632
▁abrupt	-2633
▁CHAPTER	-2634
▁continue	-2635
In	-2636
asp	-2637
ees	-2638
▁fly	-2639
▁und	-2640
▁destro	-2641
▁Hebrews	-2642
▁intense	-2643
▁serious	-2644
Of	-2645
rate	-2646
ifted	-2647
▁stom	-2648
▁Diana	-2649
▁agree	-2650
▁colle	-2651
initely	-2652
▁remain	-2653
▁dressed	-2654
▁success	-2655
▁security	-2656
eed	-2657
cise	-2658
▁Tre	-2659
▁Web	-2660
entle	-2661
mbers	-2662
▁game	-2663
▁loved	-2664
sidered	-2665
▁bedroom	-2666
.'	-2667
▁#	-2668
▁Bl	-2669
ayed	-2670
▁Tom	-2671
▁dep	-2672
cript	-2673
▁exha	-2674
▁suck	-2675
▁hoping	-2676
As	-2677
bo	-2678
ila	-2679
resh	-2680
▁fle	-2681
▁nar	-2682
unity	-2683
▁ones	-2684
▁ring	-2685
▁oppos	-2686
▁space	-2687
▁threw	-2688
▁motion	-2689
▁eyebrow	-2690
▁consider	-2691
▁physical	-2692
ixed	-2693
▁iss	-2694
▁chat	-2695
▁rele	-2696
tering	-2697
▁dress	-2698
▁bother	-2699
▁effort	-2700
▁Speaker	-2701
une	-2702
teen	-2703
▁cru	-2704
▁gar	-2705
▁Your	-2706
▁prev	-2707
▁crack	-2708
▁track	-2709
▁action	-2710
▁forgot	-2711
▁imposs	-2712
▁necess	-2713
▁Webster	-2714
▁difficult	-2715
▁considered	-2716
aur	-2717
cha	-2718
astic	-2719
olute	-2720
▁Alex	-2721
▁inqu	-2722
▁rese	-2723
▁till	-2724
ooking	-2725
▁appre	-2726
▁pocket	-2727
▁series	-2728
▁stupid	-2729
▁talked	-2730
▁powerful	-2731
uls	-2732
aven	-2733
fast	-2734
▁Son	-2735
▁cas	-2736
▁fac	-2737
▁org	-2738
▁Geoff	-2739
▁offer	-2740
▁shock	-2741
▁tired	-2742
▁turns	-2743
▁finger	-2744
▁single	-2745
▁seconds	-2746
AD	-2747
▁jud	-2748
aling	-2749
apped	-2750
erved	-2751
▁beat	-2752
▁drew	-2753
▁Frank	-2754
▁needs	-2755
▁stick	-2756
▁Janoss	-2757
bor	-2758
for	-2759
ina	-2760
you	-2761
atic	-2762
cles	-2763
esus	-2764
▁key	-2765
▁vision	-2766
▁possess	-2767
▁carefully	-2768
▁enchantress	-2769
ald	-2770
nie	-2771
▁Sp	-2772
▁Tr	-2773
▁pu	-2774
ands	-2775
▁aren	-2776
▁ball	-2777
▁bott	-2778
▁cast	-2779
▁term	-2780
stairs	-2781
▁apparent	-2782
irth	-2783
lder	-2784
oken	-2785
ront	-2786
▁rap	-2787
▁ter	-2788
▁surf	-2789
▁thin	-2790
▁piece	-2791
▁company	-2792
▁studied	-2793
▁confused	-2794
▁laughing	-2795
con	-2796
ipp	-2797
▁conn	-2798
▁entr	-2799
▁gray	-2800
▁Their	-2801
▁blink	-2802
▁super	-2803
▁comput	-2804
▁escape	-2805
▁merely	-2806
▁starting	-2807
Now	-2808
▁ap	-2809
Your	-2810
inal	-2811
umed	-2812
▁opt	-2813
eneath	-2814
▁cause	-2815
▁elect	-2816
ospital	-2817
▁determ	-2818
▁events	-2819
▁future	-2820
▁reality	-2821
▁trouble	-2822
▁log	-2823
orted	-2824
▁date	-2825
▁message	-2826
▁playing	-2827
▁realize	-2828
▁stories	-2829
▁government	-2830
▁Sha	-2831
▁catch	-2832
▁Sacred	-2833
▁normal	-2834
▁whether	-2835
▁Sh	-2836
▁Dad	-2837
ining	-2838
izing	-2839
▁bell	-2840
▁dust	-2841
▁none	-2842
▁slam	-2843
▁block	-2844
▁bound	-2845
▁gentle	-2846
▁instru	-2847
▁Alliance	-2848
yed	-2849
▁age	-2850
ichar	-2851
▁Chan	-2852
▁gold	-2853
▁rain	-2854
▁send	-2855
racted	-2856
▁walls	-2857
▁concern	-2858
▁shaking	-2859
▁Something	-2860
▁remembered	-2861
elle	-2862
ilet	-2863
▁Did	-2864
▁Sen	-2865
aning	-2866
▁nose	-2867
ecause	-2868
▁ident	-2869
▁handle	-2870
▁members	-2871
▁demanded	-2872
▁problems	-2873
▁spiritual	-2874
▁particular	-2875
imon	-2876
▁quar	-2877
▁Ashan	-2878
▁doors	-2879
▁paras	-2880
▁Richar	-2881
▁narrow	-2882
arehouse	-2883
▁Russian	-2884
▁chapter	-2885
▁develop	-2886
▁familiar	-2887
▁reaction	-2888
▁experience	-2889
▁cam	-2890
ledge	-2891
osing	-2892
riend	-2893
▁prop	-2894
▁repe	-2895
ounced	-2896
▁fully	-2897
▁image	-2898
▁gather	-2899
▁shouted	-2900
▁sleeping	-2901
erve	-2902
iant	-2903
▁sam	-2904
asion	-2905
rated	-2906
urred	-2907
▁Hend	-2908
▁ange	-2909
▁below	-2910
▁burst	-2911
▁church	-2912
▁confir	-2913
▁streng	-2914
▁excited	-2915
▁instant	-2916
▁stomach	-2917
Can	-2918
abri	-2919
cean	-2920
▁wit	-2921
▁busy	-2922
▁dism	-2923
ivered	-2924
▁angry	-2925
▁broke	-2926
▁truly	-2927
▁easily	-2928
▁island	-2929
▁memory	-2930
▁heading	-2931
▁prepared	-2932
eng	-2933
ode	-2934
pic	-2935
zed	-2936
oint	-2937
▁div	-2938
▁Army	-2939
▁libr	-2940
▁sour	-2941
▁wife	-2942
lessly	-2943
▁aside	-2944
▁blank	-2945
▁music	-2946
▁spent	-2947
▁honest	-2948
▁Colonel	-2949
▁anymore	-2950
▁beneath	-2951
arr	-2952
aul	-2953
que	-2954
▁Phil	-2955
ipping	-2956
▁north	-2957
▁thous	-2958
▁bottle	-2959
▁choice	-2960
▁spread	-2961
▁Henderson	-2962
▁disappeared	-2963
aac	-2964
nel	-2965
ury	-2966
atus	-2967
oods	-2968
▁dru	-2969
▁fit	-2970
▁mer	-2971
▁Ellen	-2972
▁share	-2973
▁sweet	-2974
▁trail	-2975
▁search	-2976
▁toilet	-2977
ky	-2978
▁Mic	-2979
▁bas	-2980
▁mut	-2981
▁Than	-2982
▁laid	-2983
▁vamp	-2984
illian	-2985
▁sword	-2986
ibility	-2987
▁lights	-2988
▁places	-2989
▁shadows	-2990
▁computer	-2991
▁dangerous	-2992
▁responded	-2993
und	-2994
brid	-2995
▁Bob	-2996
▁rid	-2997
ances	-2998
ented	-2999
gress	-3000
▁fate	-3001
▁hist	-3002
▁lack	-3003
▁shit	-3004
▁desper	-3005
▁worried	-3006
▁abruptly	-3007
▁creature	-3008
obi	-3009
raw	-3010
val	-3011
zen	-3012
aint	-3013
▁bod	-3014
▁sad	-3015
▁calling	-3016
▁hospital	-3017
▁following	-3018
bled	-3019
▁Ant	-3020
▁Ted	-3021
▁hate	-3022
▁tong	-3023
▁Danie	-3024
▁annoy	-3025
▁broad	-3026
▁third	-3027
▁depart	-3028
abrielle	-3029
▁respons	-3030
▁impossible	-3031
de	-3032
oom	-3033
ule	-3034
ando	-3035
leep	-3036
sing	-3037
▁Can	-3038
▁brow	-3039
▁snow	-3040
▁fresh	-3041
▁weren	-3042
▁daughter	-3043
▁sometimes	-3044
▁wondering	-3045
▁Go	-3046
ruce	-3047
▁pan	-3048
▁pen	-3049
▁Only	-3050
▁lose	-3051
▁lived	-3052
▁public	-3053
▁falling	-3054
▁figured	-3055
▁journey	-3056
▁sounded	-3057
▁special	-3058
▁explained	-3059
sy	-3060
▁TV	-3061
oria	-3062
roud	-3063
uine	-3064
▁adj	-3065
▁pers	-3066
▁Simon	-3067
▁polit	-3068
▁round	-3069
▁worth	-3070
▁collect	-3071
▁entrance	-3072
▁involved	-3073
▁approached	-3074
EN	-3075
any	-3076
uct	-3077
▁Are	-3078
▁bal	-3079
▁rat	-3080
ument	-3081
▁beer	-3082
▁ears	-3083
▁woke	-3084
▁horse	-3085
▁finish	-3086
▁gotten	-3087
▁definitely	-3088
set	-3089
▁spl	-3090
▁sear	-3091
▁tast	-3092
▁troo	-3093
Thanks	-3094
▁Isaac	-3095
▁frust	-3096
▁asking	-3097
▁relief	-3098
▁Gillian	-3099
▁Perhaps	-3100
▁checked	-3101
▁crossed	-3102
▁usually	-3103
▁strength	-3104
▁happening	-3105
▁discovered	-3106
lg	-3107
ron	-3108
aved	-3109
iled	-3110
ises	-3111
lgak	-3112
▁Bry	-3113
essor	-3114
▁birth	-3115
▁spect	-3116
▁result	-3117
▁hallway	-3118
▁suggested	-3119
lish	-3120
nath	-3121
vere	-3122
▁Off	-3123
▁buy	-3124
▁pun	-3125
▁sna	-3126
illed	-3127
▁Like	-3128
terday	-3129
▁Again	-3130
▁brain	-3131
▁older	-3132
▁produ	-3133
nathreen	-3134
▁correct	-3135
▁breathing	-3136
hel	-3137
Look	-3138
▁Kay	-3139
▁pot	-3140
Maybe	-3141
▁firm	-3142
▁save	-3143
▁sigh	-3144
▁text	-3145
omfort	-3146
▁Yates	-3147
▁hence	-3148
▁knock	-3149
▁Before	-3150
▁imagine	-3151
▁obvious	-3152
▁breakfast	-3153
▁20	-3154
▁Aw	-3155
▁Of	-3156
When	-3157
gram	-3158
pper	-3159
▁harm	-3160
▁pure	-3161
▁trip	-3162
▁Algar	-3163
▁Bryan	-3164
▁Where	-3165
▁aband	-3166
▁faces	-3167
▁knees	-3168
▁learn	-3169
▁ocean	-3170
▁refle	-3171
▁tongue	-3172
▁extreme	-3173
▁library	-3174
▁witness	-3175
▁interrupt	-3176
▁Ab	-3177
irst	-3178
▁inn	-3179
▁rev	-3180
▁capt	-3181
▁heat	-3182
▁blind	-3183
▁ended	-3184
▁extra	-3185
▁plans	-3186
▁tells	-3187
▁Instead	-3188
▁willing	-3189
▁movement	-3190
▁speaking	-3191
▁z	-3192
fer	-3193
ball	-3194
▁amb	-3195
▁aud	-3196
▁cig	-3197
▁dim	-3198
iment	-3199
▁Rose	-3200
▁hide	-3201
▁leng	-3202
▁shop	-3203
▁Bruce	-3204
▁girls	-3205
▁storm	-3206
▁worse	-3207
▁Sheila	-3208
▁contain	-3209
▁leather	-3210
▁clearing	-3211
▁necessary	-3212
--	-3213
▁er	-3214
▁ast	-3215
arily	-3216
ially	-3217
▁lock	-3218
▁Anton	-3219
▁local	-3220
▁caused	-3221
▁listen	-3222
▁driving	-3223
▁parasite	-3224
▁warehouse	-3225
Sure	-3226
▁Liz	-3227
itive	-3228
▁Stan	-3229
▁card	-3230
▁drop	-3231
▁mark	-3232
▁tick	-3233
▁chuck	-3234
▁usual	-3235
▁length	-3236
▁natural	-3237
Re	-3238
mma	-3239
▁11	-3240
▁sum	-3241
▁Cole	-3242
▁Ruben	-3243
▁liked	-3244
▁miles	-3245
▁whose	-3246
▁Anando	-3247
▁broken	-3248
▁American	-3249
▁terrible	-3250
cho	-3251
dom	-3252
iot	-3253
cell	-3254
cent	-3255
uous	-3256
▁Leo	-3257
▁cup	-3258
▁flo	-3259
▁wip	-3260
idden	-3261
▁bull	-3262
▁exte	-3263
inated	-3264
otions	-3265
▁North	-3266
▁gener	-3267
▁utter	-3268
▁bodies	-3269
▁recall	-3270
▁experien	-3271
NAD	-3272
she	-3273
▁da	-3274
adir	-3275
aped	-3276
ndah	-3277
▁Gol	-3278
aylor	-3279
igned	-3280
▁blow	-3281
ontane	-3282
▁Jesus	-3283
▁Woods	-3284
▁demon	-3285
▁disco	-3286
▁grasp	-3287
▁lying	-3288
▁Daniel	-3289
▁breast	-3290
▁hanging	-3291
▁subject	-3292
isf	-3293
▁Pr	-3294
▁mo	-3295
▁dut	-3296
▁non	-3297
▁var	-3298
cting	-3299
▁Lord	-3300
▁beha	-3301
▁whom	-3302
▁cried	-3303
▁flash	-3304
▁focus	-3305
▁hoped	-3306
▁squee	-3307
▁treat	-3308
ilities	-3309
▁Golgar	-3310
▁bottom	-3311
▁orders	-3312
▁proper	-3313
▁letting	-3314
▁promise	-3315
?_	-3316
▁anx	-3317
▁hun	-3318
▁neg	-3319
▁wel	-3320
ortic	-3321
▁Vict	-3322
▁exam	-3323
▁glow	-3324
▁hers	-3325
ensive	-3326
▁among	-3327
ational	-3328
▁heaven	-3329
▁current	-3330
▁pushing	-3331
▁absolute	-3332
▁decision	-3333
cle	-3334
▁dig	-3335
▁pet	-3336
▁pow	-3337
ellig	-3338
▁Mike	-3339
▁wine	-3340
fessor	-3341
▁color	-3342
▁couch	-3343
▁organ	-3344
▁driver	-3345
▁fallen	-3346
▁request	-3347
▁emotions	-3348
▁officers	-3349
▁students	-3350
▁Ynathreen	-3351
Mr	-3352
▁wa	-3353
ogra	-3354
rodu	-3355
▁lap	-3356
aston	-3357
oured	-3358
▁Mont	-3359
▁Will	-3360
▁bank	-3361
▁murd	-3362
▁vill	-3363
▁brown	-3364
▁desce	-3365
▁serve	-3366
▁asleep	-3367
▁entirely	-3368
▁relations	-3369
▁interested	-3370
▁Se	-3371
ague	-3372
aric	-3373
▁Two	-3374
▁gle	-3375
▁hat	-3376
▁obl	-3377
ament	-3378
▁Kobi	-3379
▁Adams	-3380
▁elder	-3381
▁favor	-3382
▁pract	-3383
▁queen	-3384
▁sharp	-3385
athered	-3386
▁Mathis	-3387
▁leaves	-3388
▁locked	-3389
▁climbed	-3390
▁spirits	-3391
▁opposite	-3392
▁listening	-3393
olon	-3394
thew	-3395
▁Har	-3396
inted	-3397
ulous	-3398
▁Coun	-3399
▁Emma	-3400
▁grew	-3401
▁avoid	-3402
▁reply	-3403
▁Philip	-3404
▁charac	-3405
▁actions	-3406
▁counter	-3407
▁ordered	-3408
▁totally	-3409
▁Mathisen	-3410
▁silently	-3411
com	-3412
aret	-3413
iday	-3414
idly	-3415
▁***	-3416
▁fro	-3417
acher	-3418
▁cute	-3419
▁orig	-3420
ifying	-3421
▁Ulgak	-3422
▁Taylor	-3423
▁shower	-3424
▁weapon	-3425
▁Fontane	-3426
▁Glaston	-3427
▁history	-3428
▁windows	-3429
Sh	-3430
_.	-3431
cer	-3432
iles	-3433
▁dry	-3434
▁vol	-3435
gging	-3436
iction	-3437
vation	-3438
▁blond	-3439
▁displ	-3440
▁hybrid	-3441
▁jumped	-3442
▁prison	-3443
▁carried	-3444
▁restaur	-3445
hern	-3446
anted	-3447
ustom	-3448
▁Ange	-3449
▁sees	-3450
vering	-3451
▁bitch	-3452
▁scene	-3453
▁stuck	-3454
▁Matthew	-3455
▁touched	-3456
▁reminded	-3457
▁Commander	-3458
▁interesting	-3459
leg	-3460
vor	-3461
ples	-3462
work	-3463
▁bra	-3464
under	-3465
▁These	-3466
▁funny	-3467
▁grand	-3468
▁staff	-3469
itement	-3470
▁shared	-3471
▁Professor	-3472
Ah	-3473
uh	-3474
ech	-3475
ils	-3476
ping	-3477
▁ant	-3478
▁bran	-3479
▁toss	-3480
abinet	-3481
erence	-3482
▁neigh	-3483
▁growing	-3484
▁officer	-3485
▁pressed	-3486
▁yesterday	-3487
▁De	-3488
wise	-3489
▁vac	-3490
▁comb	-3491
▁disg	-3492
▁ment	-3493
▁tiny	-3494
▁Solon	-3495
▁crazy	-3496
▁nearby	-3497
▁starts	-3498
▁ability	-3499
▁address	-3500
▁perform	-3501
▁program	-3502
▁service	-3503
▁excitement	-3504
che	-3505
ding	-3506
ryss	-3507
▁ben	-3508
▁fre	-3509
▁hole	-3510
▁kids	-3511
▁push	-3512
▁stun	-3513
Please	-3514
▁Billy	-3515
▁drawn	-3516
▁major	-3517
▁speed	-3518
▁sweat	-3519
▁likely	-3520
▁opport	-3521
▁played	-3522
▁appreci	-3523
▁insisted	-3524
▁attempted	-3525
▁conscious	-3526
▁forgotten	-3527
igg	-3528
lin	-3529
ivil	-3530
sequ	-3531
▁hus	-3532
▁por	-3533
arked	-3534
wards	-3535
▁Here	-3536
▁bird	-3537
▁myst	-3538
▁palm	-3539
▁suit	-3540
▁tour	-3541
▁court	-3542
▁sheep	-3543
▁waved	-3544
▁charge	-3545
▁smiling	-3546
▁written	-3547
▁gathered	-3548
:1	-3549
Th	-3550
wan	-3551
ager	-3552
anda	-3553
ival	-3554
▁Old	-3555
▁fat	-3556
▁une	-3557
icate	-3558
▁Park	-3559
▁cost	-3560
▁scar	-3561
▁tech	-3562
▁faith	-3563
▁waves	-3564
▁Alaric	-3565
▁deeply	-3566
▁record	-3567
▁learned	-3568
,'	-3569
af	-3570
lo	-3571
,'_	-3572
▁10	-3573
▁di	-3574
claim	-3575
▁From	-3576
▁furn	-3577
▁male	-3578
▁mood	-3579
oudwan	-3580
▁board	-3581
▁grave	-3582
▁shake	-3583
▁satisf	-3584
▁sensed	-3585
▁comment	-3586
▁meaning	-3587
▁snapped	-3588
▁support	-3589
▁compound	-3590
▁occasion	-3591
izz	-3592
▁Pe	-3593
iers	-3594
owed	-3595
▁Eng	-3596
▁Mak	-3597
▁adv	-3598
▁emp	-3599
ading	-3600
aging	-3601
anged	-3602
▁Mall	-3603
▁chin	-3604
▁gate	-3605
▁pill	-3606
▁pond	-3607
▁stir	-3608
▁inner	-3609
ication	-3610
▁Mortic	-3611
▁Trevor	-3612
▁animal	-3613
▁battle	-3614
▁incred	-3615
▁leader	-3616
▁showed	-3617
▁America	-3618
▁briefly	-3619
▁cigaret	-3620
▁pleased	-3621
▁private	-3622
▁suspect	-3623
wh	-3624
aid	-3625
empl	-3626
▁Was	-3627
▁lat	-3628
▁nod	-3629
imate	-3630
▁Most	-3631
▁born	-3632
▁vers	-3633
▁wake	-3634
ailing	-3635
▁Annie	-3636
▁dread	-3637
▁noise	-3638
▁smoke	-3639
▁concer	-3640
▁fright	-3641
▁helped	-3642
▁screen	-3643
▁Council	-3644
▁finding	-3645
▁gesture	-3646
▁Victoria	-3647
▁listened	-3648
▁understanding	-3649
sc	-3650
ify	-3651
▁dan	-3652
▁est	-3653
▁fem	-3654
▁lie	-3655
▁rum	-3656
▁cook	-3657
▁nine	-3658
icated	-3659
icking	-3660
▁Tower	-3661
▁greet	-3662
▁naked	-3663
▁plate	-3664
▁train	-3665
▁Malloy	-3666
▁bought	-3667
▁master	-3668
▁missed	-3669
▁planet	-3670
▁challen	-3671
▁college	-3672
▁respect	-3673
▁slipped	-3674
▁wrapped	-3675
▁Richards	-3676
▁mountain	-3677
▁required	-3678
Get	-3679
hood	-3680
▁den	-3681
▁sav	-3682
ounds	-3683
▁ride	-3684
▁tele	-3685
▁While	-3686
▁exchan	-3687
▁letter	-3688
▁unable	-3689
▁happens	-3690
▁shifted	-3691
stitution	-3692
▁believed	-3693
hic	-3694
rie	-3695
band	-3696
▁Yes	-3697
▁pin	-3698
▁embr	-3699
▁rout	-3700
▁task	-3701
▁wand	-3702
▁prove	-3703
▁hiding	-3704
▁spoken	-3705
▁putting	-3706
▁suppose	-3707
—"	-3708
apt	-3709
▁Af	-3710
▁id	-3711
ysia	-3712
▁rif	-3713
oving	-3714
▁Bull	-3715
▁fold	-3716
▁poor	-3717
▁memor	-3718
▁metal	-3719
▁proud	-3720
ruction	-3721
▁Boudwan	-3722
▁answers	-3723
▁opening	-3724
▁declared	-3725
▁knowledge	-3726
▁restaurant	-3727
mat	-3728
tain	-3729
▁Des	-3730
▁hol	-3731
ierce	-3732
▁Paul	-3733
▁clut	-3734
▁fool	-3735
▁lady	-3736
iently	-3737
▁admit	-3738
▁exist	-3739
▁joined	-3740
▁struck	-3741
All	-3742
bow	-3743
hall	-3744
over	-3745
▁Lam	-3746
▁val	-3747
▁rare	-3748
▁shel	-3749
▁tear	-3750
▁cheek	-3751
▁enemy	-3752
▁enter	-3753
▁Anyway	-3754
▁voices	-3755
▁hearing	-3756
▁heavily	-3757
▁confusion	-3758
ma	-3759
low	-3760
ilar	-3761
▁art	-3762
▁cal	-3763
cture	-3764
hamus	-3765
▁ANAD	-3766
▁dirt	-3767
▁host	-3768
▁impl	-3769
▁pale	-3770
▁slid	-3771
arrass	-3772
eralad	-3773
▁relie	-3774
▁trick	-3775
▁Johnny	-3776
▁commun	-3777
▁invest	-3778
▁object	-3779
▁suspic	-3780
▁terror	-3781
▁weight	-3782
▁dingoes	-3783
For	-3784
hea	-3785
raft	-3786
▁Cor	-3787
▁deb	-3788
▁fan	-3789
▁ice	-3790
▁joy	-3791
ghter	-3792
inary	-3793
▁craw	-3794
▁duty	-3795
▁mach	-3796
▁mort	-3797
ctions	-3798
▁Helen	-3799
▁beast	-3800
▁porch	-3801
▁shoes	-3802
▁slept	-3803
▁vehic	-3804
ability	-3805
▁guards	-3806
▁Stanley	-3807
▁grinned	-3808
▁nervous	-3809
▁tension	-3810
▁becoming	-3811
▁inquired	-3812
▁laughter	-3813
:00	-3814
Per	-3815
asc	-3816
ids	-3817
oll	-3818
par	-3819
▁Ex	-3820
angu	-3821
dess	-3822
lies	-3823
▁nor	-3824
iture	-3825
▁copy	-3826
▁east	-3827
▁feat	-3828
▁meas	-3829
▁beach	-3830
▁rough	-3831
▁works	-3832
▁scared	-3833
iversity	-3834
▁emailed	-3835
▁proceed	-3836
▁provide	-3837
▁pleasure	-3838
olic	-3839
uing	-3840
▁pop	-3841
ember	-3842
▁bree	-3843
▁roof	-3844
▁sink	-3845
▁smir	-3846
Really	-3847
isters	-3848
▁pants	-3849
▁relig	-3850
▁shudd	-3851
▁stiff	-3852
▁woods	-3853
▁Shamus	-3854
▁handed	-3855
▁troops	-3856
▁details	-3857
▁killing	-3858
▁tightly	-3859
▁instinct	-3860
cif	-3861
cts	-3862
ipe	-3863
eled	-3864
gons	-3865
hens	-3866
eping	-3867
▁Both	-3868
▁pool	-3869
▁awake	-3870
▁innoc	-3871
ization	-3872
▁attend	-3873
▁distur	-3874
▁explan	-3875
▁manner	-3876
▁created	-3877
▁dollars	-3878
▁precise	-3879
▁shouldn	-3880
▁succeed	-3881
▁carrying	-3882
▁previous	-3883
▁embarrass	-3884
!_	-3885
go	-3886
amn	-3887
asy	-3888
▁sne	-3889
▁Kore	-3890
▁echo	-3891
▁feed	-3892
▁incl	-3893
▁port	-3894
▁ways	-3895
ddenly	-3896
ession	-3897
▁hotel	-3898
▁spend	-3899
ounding	-3900
▁former	-3901
▁horror	-3902
▁stayed	-3903
▁introdu	-3904
▁leaning	-3905
▁evidence	-3906
urm	-3907
▁Sm	-3908
▁Us	-3909
case	-3910
idge	-3911
rier	-3912
▁Mir	-3913
▁Rob	-3914
▁ess	-3915
acket	-3916
asing	-3917
▁cart	-3918
▁numb	-3919
▁pred	-3920
▁unto	-3921
▁gazed	-3922
▁radio	-3923
▁amount	-3924
▁apolog	-3925
▁peered	-3926
▁safety	-3927
▁thanks	-3928
▁planned	-3929
▁breaking	-3930
▁occurred	-3931
▁regarded	-3932
▁research	-3933
▁stretched	-3934
Be	-3935
▁_'	-3936
▁ru	-3937
elta	-3938
this	-3939
lthea	-3940
raham	-3941
spect	-3942
▁Oleg	-3943
▁dear	-3944
jected	-3945
▁Chief	-3946
▁antic	-3947
▁etern	-3948
umbling	-3949
▁source	-3950
▁Meralad	-3951
▁amazing	-3952
▁leaders	-3953
▁neither	-3954
▁release	-3955
▁whisper	-3956
▁possibly	-3957
▁released	-3958
▁cigarette	-3959
▁opportunity	-3960
▁surrounding	-3961
ko	-3962
ems	-3963
vir	-3964
▁Mc	-3965
▁aut	-3966
▁hig	-3967
▁nur	-3968
▁pit	-3969
osity	-3970
▁tremb	-3971
▁wrist	-3972
▁yours	-3973
▁United	-3974
▁buried	-3975
▁flight	-3976
▁kissed	-3977
▁purcha	-3978
▁Dragons	-3979
▁careful	-3980
▁mission	-3981
▁surface	-3982
▁writing	-3983
▁Suddenly	-3984
▁contempl	-3985
▁planning	-3986
▁relationship	-3987
:3	-3988
der	-3989
gen	-3990
rad	-3991
walk	-3992
arest	-3993
▁Yuck	-3994
▁mail	-3995
▁paid	-3996
▁vict	-3997
ularly	-3998
▁built	-3999
▁langu	-4000
▁plane	-4001
▁access	-4002
▁summer	-4003
▁Another	-4004
▁husband	-4005
▁showing	-4006
▁weather	-4007
▁infected	-4008
▁recognized	-4009
▁Dragonsword	-4010
mp	-4011
▁jo	-4012
Hell	-4013
pted	-4014
▁Sat	-4015
▁jer	-4016
▁rul	-4017
▁Rain	-4018
▁fort	-4019
▁risk	-4020
▁temp	-4021
▁unex	-4022
▁faced	-4023
▁lower	-4024
▁plain	-4025
attered	-4026
▁curious	-4027
▁wanting	-4028
▁anywhere	-4029
ns	-4030
ya	-4031
let	-4032
rict	-4033
▁awk	-4034
▁dom	-4035
▁vir	-4036
ators	-4037
ature	-4038
▁anci	-4039
▁fist	-4040
▁mask	-4041
▁pray	-4042
▁sole	-4043
▁vast	-4044
▁Emerc	-4045
▁exped	-4046
▁gives	-4047
▁heads	-4048
▁honey	-4049
▁shape	-4050
▁south	-4051
▁stare	-4052
unately	-4053
▁belong	-4054
▁circum	-4055
▁hardly	-4056
▁indeed	-4057
▁lovely	-4058
▁stream	-4059
▁awkward	-4060
▁ceiling	-4061
▁consequ	-4062
▁deliber	-4063
▁dragged	-4064
▁forever	-4065
▁ignored	-4066
▁leading	-4067
▁streets	-4068
▁warning	-4069
▁accepted	-4070
▁memories	-4071
▁classroom	-4072
aly	-4073
iod	-4074
ador	-4075
ayne	-4076
▁Def	-4077
▁bol	-4078
istic	-4079
▁aver	-4080
▁gigg	-4081
▁hint	-4082
▁jump	-4083
▁rang	-4084
ission	-4085
▁dingo	-4086
▁separ	-4087
▁sniff	-4088
▁waste	-4089
claimed	-4090
▁Office	-4091
▁States	-4092
▁choose	-4093
▁concent	-4094
▁refused	-4095
▁village	-4096
bel	-4097
men	-4098
rop	-4099
agon	-4100
cher	-4101
▁ate	-4102
▁Alec	-4103
▁army	-4104
▁glim	-4105
▁summ	-4106
inging	-4107
ushing	-4108
▁Monti	-4109
▁clock	-4110
▁smoot	-4111
▁accord	-4112
▁health	-4113
▁served	-4114
▁anticip	-4115
▁blinked	-4116
▁twisted	-4117
▁forehead	-4118
Ex	-4119
rit	-4120
evit	-4121
kend	-4122
▁Rud	-4123
▁aim	-4124
▁jaw	-4125
▁wet	-4126
alace	-4127
aries	-4128
idget	-4129
orrow	-4130
ucked	-4131
▁agre	-4132
▁fair	-4133
▁wore	-4134
▁Those	-4135
▁achie	-4136
▁enorm	-4137
▁knife	-4138
▁slave	-4139
▁inevit	-4140
▁loudly	-4141
▁period	-4142
▁travel	-4143
▁Nothing	-4144
▁shocked	-4145
▁eyebrows	-4146
▁Gabrielle	-4147
▁comfortable	-4148
ik	-4149
▁Joe	-4150
▁mod	-4151
▁tun	-4152
▁Sher	-4153
▁Unit	-4154
▁drug	-4155
▁grad	-4156
▁grip	-4157
▁pant	-4158
▁west	-4159
illing	-4160
reedom	-4161
▁Thank	-4162
▁brill	-4163
▁dirty	-4164
▁yards	-4165
▁collap	-4166
▁failed	-4167
onscious	-4168
▁Cabinet	-4169
▁account	-4170
▁balance	-4171
▁observed	-4172
▁screamed	-4173
▁experienced	-4174
▁explanation	-4175
Ar	-4176
ats	-4177
arin	-4178
ploy	-4179
pless	-4180
▁Book	-4181
▁puzz	-4182
▁rise	-4183
esides	-4184
▁Badir	-4185
▁swept	-4186
ception	-4187
▁Lamish	-4188
▁descri	-4189
▁landed	-4190
▁notion	-4191
▁missing	-4192
▁survive	-4193
▁fighters	-4194
▁incident	-4195
▁provided	-4196
▁expecting	-4197
▁recognize	-4198
▁searching	-4199
▁seriously	-4200
io	-4201
acr	-4202
erge	-4203
ites	-4204
mber	-4205
ring	-4206
time	-4207
uced	-4208
udge	-4209
▁Jew	-4210
ences	-4211
▁Awak	-4212
▁band	-4213
▁elev	-4214
▁mirr	-4215
itions	-4216
ointed	-4217
▁civil	-4218
▁flick	-4219
▁incre	-4220
▁warri	-4221
▁Angela	-4222
▁custom	-4223
▁remark	-4224
▁resist	-4225
▁thrust	-4226
▁enjoyed	-4227
elligence	-4228
ventually	-4229
▁Everyone	-4230
▁received	-4231
▁uncomfort	-4232
▁downstairs	-4233
Go	-4234
fe	-4235
.'_	-4236
God	-4237
ama	-4238
rid	-4239
aone	-4240
form	-4241
▁Our	-4242
▁bul	-4243
▁inj	-4244
▁lip	-4245
▁hill	-4246
▁roll	-4247
▁shat	-4248
▁wear	-4249
▁South	-4250
▁emerg	-4251
▁hated	-4252
▁mater	-4253
▁techn	-4254
▁Althea	-4255
▁speech	-4256
▁massive	-4257
▁nowhere	-4258
▁rolling	-4259
▁drinking	-4260
▁fighting	-4261
▁remarked	-4262
▁soldiers	-4263
▁announced	-4264
▁condition	-4265
▁determined	-4266
mn	-4267
cip	-4268
kin	-4269
▁Ol	-4270
▁ep	-4271
back	-4272
▁Yet	-4273
▁wis	-4274
▁buck	-4275
▁exit	-4276
▁init	-4277
▁race	-4278
iberas	-4279
▁Kayla	-4280
▁pulls	-4281
▁rever	-4282
▁souls	-4283
▁damned	-4284
▁thinks	-4285
▁Hiberas	-4286
▁animals	-4287
▁passing	-4288
▁plastic	-4289
▁prevent	-4290
▁protest	-4291
▁weekend	-4292
▁welcome	-4293
▁character	-4294
▁furniture	-4295
▁everywhere	-4296
▁consciousness	-4297
nal	-4298
rib	-4299
uch	-4300
aige	-4301
chan	-4302
elve	-4303
they	-4304
▁Rom	-4305
▁deg	-4306
Hello	-4307
ality	-4308
atory	-4309
ienko	-4310
▁hips	-4311
▁lift	-4312
▁role	-4313
▁unus	-4314
Islena	-4315
riatus	-4316
▁Jayne	-4317
▁Peter	-4318
▁horiz	-4319
▁lucky	-4320
▁names	-4321
▁rooms	-4322
▁surre	-4323
▁assist	-4324
▁button	-4325
▁common	-4326
▁gasped	-4327
▁online	-4328
▁senses	-4329
▁parking	-4330
▁retreat	-4331
▁similar	-4332
▁chuckled	-4333
▁intended	-4334
▁reaching	-4335
▁training	-4336
▁intention	-4337
▁Morticants	-4338
▁throughout	-4339
▁unexpected	-4340
▁interrupted	-4341
tar	-4342
wen	-4343
pend	-4344
pite	-4345
zing	-4346
▁See	-4347
▁due	-4348
ables	-4349
aming	-4350
front	-4351
unted	-4352
vision	-4353
▁chain	-4354
▁harsh	-4355
▁pause	-4356
▁resol	-4357
▁rifle	-4358
▁Strate	-4359
▁Though	-4360
▁desire	-4361
▁fought	-4362
▁mostly	-4363
▁yelled	-4364
▁attract	-4365
▁married	-4366
▁passage	-4367
▁resting	-4368
▁section	-4369
▁investig	-4370
▁progress	-4371
▁startled	-4372
▁thousand	-4373
▁throwing	-4374
▁radiation	-4375
bara	-4376
rete	-4377
▁Far	-4378
▁Man	-4379
▁god	-4380
▁rob	-4381
arden	-4382
asped	-4383
▁Have	-4384
▁loss	-4385
▁pace	-4386
▁pier	-4387
▁Inner	-4388
▁calls	-4389
▁feels	-4390
▁lines	-4391
▁twice	-4392
Perhaps	-4393
emember	-4394
ulation	-4395
▁blonde	-4396
▁defend	-4397
▁smooth	-4398
▁Section	-4399
▁delight	-4400
▁focused	-4401
▁various	-4402
▁Adriatus	-4403
▁bringing	-4404
▁circumst	-4405
▁mentioned	-4406
▁appearance	-4407
▁Constitution	-4408
To	-4409
One	-4410
mon	-4411
▁je	-4412
ault	-4413
ille	-4414
oses	-4415
alley	-4416
eling	-4417
ianos	-4418
tling	-4419
▁bite	-4420
▁inha	-4421
▁ship	-4422
▁type	-4423
▁Afric	-4424
▁begun	-4425
▁dance	-4426
▁grabs	-4427
▁shore	-4428
▁weird	-4429
▁Donald	-4430
▁breeze	-4431
▁member	-4432
▁unless	-4433
▁defense	-4434
▁distant	-4435
▁fifteen	-4436
▁thunder	-4437
▁accident	-4438
▁enjoying	-4439
▁relieved	-4440
▁stumbled	-4441
▁confident	-4442
DC	-4443
Hi	-4444
cr	-4445
▁Dr	-4446
▁Pl	-4447
▁Ty	-4448
▁Ste	-4449
▁flu	-4450
▁Owen	-4451
▁hors	-4452
▁rage	-4453
▁rear	-4454
▁Jones	-4455
▁Velta	-4456
▁cabin	-4457
▁fifty	-4458
▁fruit	-4459
▁sides	-4460
Because	-4461
▁Script	-4462
▁female	-4463
▁hidden	-4464
▁parked	-4465
▁rubbed	-4466
▁settle	-4467
atherine	-4468
▁Marsden	-4469
▁flashed	-4470
▁younger	-4471
▁Makienko	-4472
▁breathed	-4473
▁notebook	-4474
▁repeated	-4475
▁supplies	-4476
▁perfectly	-4477
▁Eventually	-4478
On	-4479
Den	-4480
arai	-4481
cery	-4482
pers	-4483
semb	-4484
▁tar	-4485
▁bags	-4486
▁boss	-4487
▁clay	-4488
▁fail	-4489
▁star	-4490
▁tang	-4491
▁thor	-4492
▁Carol	-4493
▁Saone	-4494
▁activ	-4495
▁alarm	-4496
▁monit	-4497
▁total	-4498
idering	-4499
▁glared	-4500
▁strang	-4501
▁courage	-4502
▁display	-4503
▁embrace	-4504
▁horizon	-4505
▁picking	-4506
▁vampire	-4507
▁approach	-4508
▁feelings	-4509
▁whenever	-4510
▁wonderful	-4511
pel	-4512
amon	-4513
oted	-4514
oves	-4515
▁gut	-4516
olate	-4517
▁Cent	-4518
▁Lacy	-4519
▁Sule	-4520
▁bast	-4521
▁bent	-4522
▁club	-4523
▁defe	-4524
▁hasn	-4525
▁meal	-4526
▁scow	-4527
▁sits	-4528
▁Robin	-4529
▁fixed	-4530
▁saved	-4531
▁upper	-4532
▁Senate	-4533
▁begins	-4534
▁clouds	-4535
▁ignore	-4536
▁mirror	-4537
▁appears	-4538
▁assumed	-4539
▁groaned	-4540
▁sending	-4541
▁shelter	-4542
▁Natianos	-4543
▁checking	-4544
▁material	-4545
▁stopping	-4546
▁concerned	-4547
▁absolutely	-4548
▁frustration	-4549
Uh	-4550
sec	-4551
irlf	-4552
▁Ham	-4553
▁hug	-4554
ordon	-4555
▁Cong	-4556
▁fish	-4557
▁knee	-4558
▁lots	-4559
▁spat	-4560
▁spun	-4561
assion	-4562
▁forty	-4563
▁issue	-4564
▁named	-4565
▁occup	-4566
▁spark	-4567
▁sucks	-4568
▁Usarai	-4569
▁arrive	-4570
▁assume	-4571
▁fellow	-4572
▁height	-4573
▁horses	-4574
▁nobody	-4575
▁wallet	-4576
▁Without	-4577
▁muscles	-4578
▁rapidly	-4579
▁staying	-4580
irlfriend	-4581
▁abandoned	-4582
▁Everything	-4583
▁apparently	-4584
▁attempting	-4585
ano	-4586
bey	-4587
mar	-4588
rud	-4589
stal	-4590
▁CDC	-4591
antic	-4592
▁Serv	-4593
▁dawn	-4594
▁drag	-4595
▁hous	-4596
▁chose	-4597
▁grown	-4598
▁waist	-4599
▁accomp	-4600
▁engine	-4601
▁flying	-4602
▁forces	-4603
▁losing	-4604
▁sample	-4605
▁warmth	-4606
▁Barbara	-4607
▁complex	-4608
▁Emercian	-4609
▁constant	-4610
▁features	-4611
▁helpless	-4612
▁location	-4613
▁pointing	-4614
▁stranger	-4615
▁wandered	-4616
▁emotional	-4617
▁gathering	-4618
▁otherwise	-4619
▁remaining	-4620
▁destruction	-4621
▁circumstances	-4622
RU	-4623
pet	-4624
yet	-4625
▁Me	-4626
▁Sc	-4627
ares	-4628
atch	-4629
cast	-4630
iety	-4631
ivid	-4632
ueen	-4633
▁ven	-4634
▁wid	-4635
iform	-4636
▁Zach	-4637
▁lake	-4638
▁pour	-4639
▁conce	-4640
▁fence	-4641
▁loose	-4642
▁swall	-4643
▁veget	-4644
▁Beamon	-4645
▁convin	-4646
▁Despite	-4647
▁closely	-4648
▁general	-4649
▁growled	-4650
▁knocked	-4651
▁slammed	-4652
▁attitude	-4653
▁informed	-4654
▁photogra	-4655
▁squeezed	-4656
▁buildings	-4657
▁disappear	-4658
▁extremely	-4659
▁mountains	-4660
▁ourselves	-4661
▁underground	-4662
▁uncomfortable	-4663
yn	-4664
iam	-4665
ola	-4666
str	-4667
▁TH	-4668
hael	-4669
rian	-4670
▁Law	-4671
▁lob	-4672
▁tur	-4673
Right	-4674
aches	-4675
agged	-4676
board	-4677
isten	-4678
olica	-4679
▁bill	-4680
▁diss	-4681
▁sacr	-4682
▁size	-4683
Acting	-4684
cluded	-4685
▁stars	-4686
▁terms	-4687
▁Jolica	-4688
▁arrest	-4689
▁detail	-4690
▁plenty	-4691
▁powers	-4692
▁prefer	-4693
▁ancient	-4694
▁destroy	-4695
▁awakened	-4696
▁extended	-4697
▁profound	-4698
▁survived	-4699
▁thorough	-4700
▁agreement	-4701
▁seemingly	-4702
Al	-4703
osc	-4704
ulf	-4705
Here	-4706
Very	-4707
ales	-4708
ners	-4709
oyal	-4710
▁vul	-4711
gment	-4712
oning	-4713
▁moon	-4714
▁pink	-4715
▁runs	-4716
▁succ	-4717
▁tend	-4718
▁yard	-4719
▁Since	-4720
▁dying	-4721
▁notes	-4722
▁write	-4723
orthern	-4724
▁Street	-4725
▁bitter	-4726
▁bloody	-4727
▁deeper	-4728
▁firmly	-4729
▁higher	-4730
▁reluct	-4731
▁cleared	-4732
▁escaped	-4733
▁express	-4734
▁mystery	-4735
▁project	-4736
▁uniform	-4737
▁recently	-4738
▁confirmed	-4739
aps	-4740
Have	-4741
roll	-4742
▁Dep	-4743
▁eru	-4744
▁pul	-4745
▁sea	-4746
▁tip	-4747
arted	-4748
dding	-4749
inous	-4750
ircle	-4751
osure	-4752
▁Come	-4753
▁Tris	-4754
apping	-4755
nation	-4756
▁alert	-4757
▁thigh	-4758
▁Friday	-4759
▁Gordon	-4760
▁Graham	-4761
▁angels	-4762
▁buying	-4763
▁double	-4764
▁golden	-4765
▁jacket	-4766
ications	-4767
idgetown	-4768
▁Mirades	-4769
▁causing	-4770
▁stunned	-4771
▁Marshall	-4772
▁birthday	-4773
▁branches	-4774
▁normally	-4775
▁hesitated	-4776
▁political	-4777
▁possessed	-4778
▁screaming	-4779
▁difference	-4780
:**	-4781
Any	-4782
oms	-4783
pse	-4784
lear	-4785
▁cow	-4786
ondon	-4787
▁Aust	-4788
▁cred	-4789
▁curi	-4790
▁resc	-4791
▁serv	-4792
▁behav	-4793
▁solid	-4794
▁stair	-4795
▁corrid	-4796
▁priest	-4797
▁silver	-4798
▁wooden	-4799
▁burning	-4800
▁discern	-4801
▁relaxed	-4802
▁grimaced	-4803
▁somebody	-4804
▁curiosity	-4805
▁exclaimed	-4806
▁suffering	-4807
▁girlfriend	-4808
bl	-4809
cul	-4810
yth	-4811
illy	-4812
iter	-4813
onna	-4814
osen	-4815
rous	-4816
▁ens	-4817
▁wed	-4818
uming	-4819
▁bowl	-4820
▁liqu	-4821
▁soil	-4822
▁Drake	-4823
▁signs	-4824
Chapter	-4825
▁London	-4826
▁Please	-4827
▁circle	-4828
▁explod	-4829
▁rushed	-4830
▁shouts	-4831
▁supply	-4832
velation	-4833
▁English	-4834
▁Michael	-4835
▁blanket	-4836
▁disgust	-4837
▁flowers	-4838
▁mistake	-4839
▁passion	-4840
▁removed	-4841
▁teacher	-4842
▁vehicle	-4843
▁discover	-4844
▁awakening	-4845
▁Bridgetown	-4846
▁deliberately	-4847
'.	-4848
sm	-4849
att	-4850
nes	-4851
▁tu	-4852
azed	-4853
omes	-4854
orse	-4855
▁Amp	-4856
▁Get	-4857
▁Kev	-4858
▁Reg	-4859
▁fed	-4860
rence	-4861
▁fant	-4862
▁gear	-4863
▁mill	-4864
▁murm	-4865
▁pile	-4866
▁pity	-4867
▁thus	-4868
▁virt	-4869
antage	-4870
arinna	-4871
atched	-4872
ential	-4873
▁Caden	-4874
▁Paige	-4875
▁Redia	-4876
▁frame	-4877
▁hurry	-4878
▁shade	-4879
▁study	-4880
▁wiped	-4881
atively	-4882
▁burned	-4883
▁camera	-4884
▁facing	-4885
▁intent	-4886
▁locate	-4887
▁prophe	-4888
▁target	-4889
▁wished	-4890
▁Ampryss	-4891
▁Because	-4892
▁Denysia	-4893
▁brushed	-4894
▁freedom	-4895
▁setting	-4896
▁affected	-4897
▁innocent	-4898
▁pressure	-4899
▁promised	-4900
▁vanished	-4901
▁immediate	-4902
▁considering	-4903
▁constitution	-4904
inc	-4905
uhm	-4906
Wait	-4907
ases	-4908
▁smo	-4909
▁ult	-4910
cknow	-4911
▁Tier	-4912
▁prim	-4913
▁rate	-4914
▁seek	-4915
arters	-4916
idding	-4917
uments	-4918
▁Other	-4919
▁agent	-4920
▁await	-4921
▁faint	-4922
▁impat	-4923
▁magic	-4924
▁stage	-4925
▁kisses	-4926
▁poison	-4927
▁arrival	-4928
▁breasts	-4929
▁concept	-4930
▁neighbor	-4931
▁reported	-4932
▁struggle	-4933
▁brilliant	-4934
▁everybody	-4935
▁nervously	-4936
▁connection	-4937
asm	-4938
ugg	-4939
▁Ro	-4940
fall	-4941
otic	-4942
rawl	-4943
uish	-4944
▁ARU	-4945
▁Pat	-4946
▁Sal	-4947
▁ban	-4948
erted	-4949
ounce	-4950
▁Test	-4951
▁crim	-4952
▁file	-4953
▁iron	-4954
▁mult	-4955
▁piss	-4956
▁subs	-4957
▁vent	-4958
iverse	-4959
▁blade	-4960
▁bless	-4961
▁honor	-4962
▁opens	-4963
▁range	-4964
▁upset	-4965
▁chosen	-4966
▁option	-4967
▁Besides	-4968
▁Maxwell	-4969
▁Someone	-4970
▁unusual	-4971
▁utterly	-4972
▁clothing	-4973
▁enormous	-4974
▁favorite	-4975
▁continues	-4976
▁appreciate	-4977
lect	-4978
nday	-4979
taru	-4980
whel	-4981
▁Bel	-4982
▁Had	-4983
▁Pet	-4984
▁doc	-4985
▁tit	-4986
orate	-4987
▁King	-4988
▁Soon	-4989
▁cand	-4990
▁caut	-4991
▁link	-4992
▁puts	-4993
▁rush	-4994
▁brush	-4995
▁chick	-4996
▁parts	-4997
▁prior	-4998
▁sandw	-4999
▁smart	-5000
▁steel	-5001
▁Redian	-5002
▁assass	-5003
▁assemb	-5004
▁blocks	-5005
▁mental	-5006
▁murder	-5007
▁square	-5008
▁stands	-5009
▁Goddess	-5010
▁arrange	-5011
▁content	-5012
▁dismiss	-5013
▁shuttle	-5014
▁concrete	-5015
▁confront	-5016
▁language	-5017
▁commander	-5018
▁companion	-5019
▁descended	-5020
▁operation	-5021
▁precisely	-5022
▁religious	-5023
▁sensation	-5024
▁surrounded	-5025
▁particularly	-5026
gy	-5027
ka	-5028
icy	-5029
imm	-5030
pir	-5031
rin	-5032
rom	-5033
▁Nic	-5034
▁fal	-5035
▁unp	-5036
asons	-5037
eless	-5038
obody	-5039
urday	-5040
▁Main	-5041
▁keen	-5042
▁tore	-5043
isible	-5044
▁avail	-5045
▁blame	-5046
▁equip	-5047
▁swear	-5048
▁vague	-5049
▁bushes	-5050
▁louder	-5051
▁pieces	-5052
▁shiver	-5053
▁taught	-5054
quarters	-5055
uinevere	-5056
▁enemies	-5057
▁genuine	-5058
▁located	-5059
▁torment	-5060
▁arranged	-5061
▁facility	-5062
▁original	-5063
▁returning	-5064
▁companions	-5065
▁confidence	-5066
▁personally	-5067
gu	-5068
eks	-5069
▁12	-5070
▁Mer	-5071
▁err	-5072
words	-5073
▁York	-5074
▁blur	-5075
▁butt	-5076
▁nuhm	-5077
▁ripp	-5078
▁scan	-5079
▁spin	-5080
ashion	-5081
urning	-5082
▁grace	-5083
▁impro	-5084
▁intim	-5085
▁prete	-5086
▁reass	-5087
▁taste	-5088
usement	-5089
uttered	-5090
▁Circle	-5091
▁aspect	-5092
▁detect	-5093
▁easier	-5094
▁hungry	-5095
▁kicked	-5096
▁recent	-5097
▁drawing	-5098
▁heavens	-5099
▁landing	-5100
▁medical	-5101
▁smaller	-5102
▁version	-5103
▁wedding	-5104
▁Congress	-5105
▁Russians	-5106
▁allowing	-5107
▁Catherine	-5108
▁equipment	-5109
▁statement	-5110
▁expedition	-5111
of	-5112
rel	-5113
▁ug	-5114
ethe	-5115
▁Jon	-5116
▁Wil	-5117
Sorry	-5118
ology	-5119
▁doct	-5120
▁scen	-5121
▁wash	-5122
▁yeah	-5123
▁Agent	-5124
▁Earth	-5125
▁First	-5126
▁Otaru	-5127
▁jeans	-5128
▁scent	-5129
▁withd	-5130
▁amused	-5131
▁degree	-5132
▁faster	-5133
▁garage	-5134
▁misery	-5135
▁papers	-5136
▁paying	-5137
▁tossed	-5138
▁anybody	-5139
▁despair	-5140
▁filling	-5141
▁remains	-5142
▁warrior	-5143
▁Saturday	-5144
▁attached	-5145
▁electric	-5146
▁football	-5147
▁muttered	-5148
▁pictures	-5149
▁revealed	-5150
▁shivered	-5151
▁shooting	-5152
▁sidewalk	-5153
▁Guinevere	-5154
▁Salvation	-5155
▁challenge	-5156
▁existence	-5157
▁suspected	-5158
xy	-5159
lebr	-5160
zurd	-5161
▁Bur	-5162
▁Mel	-5163
▁der	-5164
▁fab	-5165
▁fix	-5166
▁lad	-5167
▁lum	-5168
▁sed	-5169
▁unw	-5170
bling	-5171
ulate	-5172
▁Amna	-5173
▁crit	-5174
▁exer	-5175
▁infl	-5176
▁stat	-5177
▁tied	-5178
action	-5179
isting	-5180
ounded	-5181
resent	-5182
uclear	-5183
zurdan	-5184
▁climb	-5185
▁guide	-5186
▁imper	-5187
▁irrit	-5188
▁lobby	-5189
▁raise	-5190
▁worst	-5191
Nothing	-5192
▁bigger	-5193
▁employ	-5194
▁nights	-5195
▁rising	-5196
▁secure	-5197
▁chamber	-5198
▁grocery	-5199
▁monster	-5200
▁admitted	-5201
▁behavior	-5202
▁elevator	-5203
▁purchase	-5204
▁upstairs	-5205
▁invisible	-5206
▁scattered	-5207
▁terrified	-5208
▁University	-5209
no	-5210
eff	-5211
mas	-5212
uno	-5213
urs	-5214
win	-5215
▁Gu	-5216
▁Ra	-5217
clam	-5218
▁cit	-5219
▁dat	-5220
alled	-5221
aping	-5222
cifer	-5223
▁Sure	-5224
▁flew	-5225
▁lion	-5226
▁whim	-5227
anding	-5228
ifting	-5229
▁concl	-5230
▁judge	-5231
▁tempt	-5232
artment	-5233
▁collar	-5234
▁crying	-5235
▁humans	-5236
▁images	-5237
▁intens	-5238
▁spring	-5239
▁Lucifer	-5240
▁dancing	-5241
▁nodding	-5242
▁numbers	-5243
▁require	-5244
▁attacked	-5245
▁intently	-5246
▁Natzurdan	-5247
▁Testament	-5248
▁according	-5249
▁delivered	-5250
▁exhausted	-5251
▁impression	-5252
▁photograph	-5253
▁protection	-5254
bye	-5255
net	-5256
pri	-5257
xed	-5258
acks	-5259
athy	-5260
hell	-5261
wing	-5262
▁War	-5263
▁Wat	-5264
▁bru	-5265
▁pil	-5266
▁sen	-5267
▁unl	-5268
▁vib	-5269
acked	-5270
itory	-5271
udged	-5272
▁Cont	-5273
▁Joey	-5274
▁hast	-5275
▁hook	-5276
▁limp	-5277
▁quit	-5278
erable	-5279
▁blast	-5280
▁gonna	-5281
▁shift	-5282
▁wings	-5283
▁Nicola	-5284
▁advice	-5285
▁afford	-5286
▁bullet	-5287
▁dating	-5288
▁inches	-5289
▁interv	-5290
▁riding	-5291
▁thread	-5292
▁washed	-5293
▁winter	-5294
▁Defense	-5295
▁bastard	-5296
▁confirm	-5297
▁glasses	-5298
▁samples	-5299
▁student	-5300
▁covering	-5301
▁imagined	-5302
▁official	-5303
▁overwhel	-5304
▁positive	-5305
▁prospect	-5306
▁vampires	-5307
▁regarding	-5308
▁struggled	-5309
▁thousands	-5310
▁trembling	-5311
▁distracted	-5312
▁desperately	-5313
▁possibility	-5314
ON	-5315
Or	-5316
omb	-5317
pap	-5318
Damn	-5319
Tell	-5320
ests	-5321
uses	-5322
yard	-5323
▁Out	-5324
▁gre	-5325
▁vid	-5326
inate	-5327
▁cris	-5328
▁fart	-5329
▁fasc	-5330
▁joke	-5331
icious	-5332
onment	-5333
ulence	-5334
▁Kraft	-5335
▁badly	-5336
▁bored	-5337
▁conve	-5338
▁holds	-5339
▁magaz	-5340
▁swift	-5341
▁People	-5342
▁acting	-5343
▁hissed	-5344
▁photos	-5345
ashington	-5346
▁Although	-5347
▁Security	-5348
▁replaced	-5349
▁Awakening	-5350
▁destroyed	-5351
▁responsible	-5352
At	-5353
kn	-5354
ays	-5355
bri	-5356
key	-5357
oly	-5358
▁TW	-5359
ique	-5360
rael	-5361
▁Bed	-5362
force	-5363
▁Look	-5364
▁Slow	-5365
▁Thom	-5366
▁coat	-5367
▁cult	-5368
▁dare	-5369
▁dumb	-5370
▁ends	-5371
▁halt	-5372
▁snar	-5373
▁tale	-5374
▁trem	-5375
▁ugly	-5376
▁wise	-5377
estern	-5378
friend	-5379
▁Could	-5380
▁Major	-5381
▁bleed	-5382
▁eager	-5383
▁estab	-5384
▁habit	-5385
▁multi	-5386
▁subst	-5387
▁wheel	-5388
▁acknow	-5389
▁dining	-5390
▁manage	-5391
▁smiles	-5392
etheless	-5393
▁greater	-5394
▁helping	-5395
▁hurried	-5396
▁painful	-5397
▁contents	-5398
▁gestured	-5399
▁sunlight	-5400
▁answering	-5401
▁Washington	-5402
▁background	-5403
▁leadership	-5404
▁intelligence	-5405
tw	-5406
Does	-5407
ache	-5408
aiah	-5409
elin	-5410
igil	-5411
▁Air	-5412
▁Him	-5413
▁sty	-5414
▁tal	-5415
▁urg	-5416
asper	-5417
aying	-5418
erves	-5419
oscow	-5420
uries	-5421
▁Ghar	-5422
▁gift	-5423
▁kick	-5424
▁lawy	-5425
▁swim	-5426
▁webs	-5427
herent	-5428
ulsion	-5429
▁Creat	-5430
▁Serge	-5431
▁State	-5432
▁dozen	-5433
▁drunk	-5434
▁ideas	-5435
▁perce	-5436
▁plant	-5437
▁stern	-5438
▁traff	-5439
cellent	-5440
jection	-5441
▁celebr	-5442
▁cheeks	-5443
▁compre	-5444
▁dreams	-5445
▁explos	-5446
▁feared	-5447
▁poured	-5448
▁shield	-5449
▁twelve	-5450
▁wicked	-5451
▁claimed	-5452
▁gripped	-5453
▁lowered	-5454
▁matters	-5455
▁pleasant	-5456
▁community	-5457
fortunately	-5458
▁protective	-5459
▁thoroughly	-5460
▁instructions	-5461
OU	-5462
eep	-5463
irm	-5464
rog	-5465
ses	-5466
down	-5467
mosp	-5468
omed	-5469
outs	-5470
▁oxy	-5471
adder	-5472
agues	-5473
icing	-5474
isive	-5475
▁Five	-5476
▁Hope	-5477
▁buzz	-5478
▁cous	-5479
▁haul	-5480
▁sway	-5481
▁Emery	-5482
▁Miles	-5483
▁citiz	-5484
▁idiot	-5485
▁items	-5486
▁pills	-5487
▁pride	-5488
▁scram	-5489
▁slope	-5490
▁stock	-5491
retched	-5492
▁Isaiah	-5493
▁Israel	-5494
▁Moscow	-5495
▁Sunday	-5496
▁cursed	-5497
▁folded	-5498
▁myster	-5499
▁retrie	-5500
▁vulner	-5501
▁yellow	-5502
▁capable	-5503
▁closing	-5504
▁individ	-5505
▁machine	-5506
▁measure	-5507
▁nuclear	-5508
▁traffic	-5509
▁violent	-5510
▁Chancell	-5511
▁argument	-5512
▁inclined	-5513
▁Scripture	-5514
▁available	-5515
▁desperate	-5516
▁preparing	-5517
▁transport	-5518
▁straightened	-5519
Br	-5520
eg	-5521
loy	-5522
izar	-5523
ourt	-5524
▁rib	-5525
Every	-5526
agger	-5527
scape	-5528
utive	-5529
▁bear	-5530
▁soot	-5531
▁torn	-5532
▁wink	-5533
rowing	-5534
utable	-5535
vernor	-5536
▁absor	-5537
▁artic	-5538
▁chaos	-5539
▁faded	-5540
▁giant	-5541
▁route	-5542
▁screw	-5543
▁teach	-5544
▁thumb	-5545
▁whore	-5546
inating	-5547
ulating	-5548
▁Darwin	-5549
▁Father	-5550
▁Oliver	-5551
▁atmosp	-5552
▁echoed	-5553
▁orange	-5554
▁reveal	-5555
▁ripped	-5556
▁solemn	-5557
▁unsure	-5558
ointment	-5559
▁doorway	-5560
▁guessed	-5561
▁accompan	-5562
▁changing	-5563
▁friendly	-5564
▁peaceful	-5565
▁suffered	-5566
▁constantly	-5567
▁discussion	-5568
▁flashlight	-5569
▁approaching	-5570
By	-5571
fl	-5572
ora	-5573
pth	-5574
▁Fl	-5575
Take	-5576
eyed	-5577
▁Ree	-5578
▁coo	-5579
▁sem	-5580
erged	-5581
hndah	-5582
▁Head	-5583
▁Pent	-5584
▁Shir	-5585
▁acqu	-5586
▁bond	-5587
▁bone	-5588
▁fund	-5589
▁mate	-5590
▁pist	-5591
▁song	-5592
▁tort	-5593
▁unit	-5594
▁ward	-5595
coming	-5596
itched	-5597
urally	-5598
▁Bedou	-5599
▁Mount	-5600
▁Perth	-5601
▁Three	-5602
▁chill	-5603
▁depth	-5604
▁guilt	-5605
▁obliv	-5606
▁raven	-5607
▁restr	-5608
▁shrug	-5609
ishment	-5610
itional	-5611
▁affect	-5612
▁damage	-5613
▁emails	-5614
▁harder	-5615
▁intend	-5616
▁status	-5617
▁surely	-5618
▁Creator	-5619
▁demands	-5620
▁essence	-5621
▁fashion	-5622
▁halfway	-5623
▁lightly	-5624
▁soldier	-5625
ification	-5626
▁Remember	-5627
▁delicate	-5628
▁solution	-5629
▁atmosphere	-5630
Le	-5631
cus	-5632
rue	-5633
uts	-5634
▁eb	-5635
even	-5636
heem	-5637
orld	-5638
uits	-5639
▁Nik	-5640
▁Rep	-5641
▁Stu	-5642
▁mel	-5643
▁rom	-5644
▁ske	-5645
▁unm	-5646
inion	-5647
▁Dist	-5648
▁Tell	-5649
▁Walk	-5650
▁cere	-5651
▁enth	-5652
▁godd	-5653
▁sell	-5654
▁slip	-5655
▁Bruno	-5656
▁Tyler	-5657
▁birds	-5658
▁envir	-5659
▁flood	-5660
▁movie	-5661
▁stole	-5662
▁towel	-5663
▁Slowly	-5664
▁assess	-5665
▁chairs	-5666
▁create	-5667
▁mortal	-5668
▁sacrif	-5669
▁steady	-5670
▁switch	-5671
▁waving	-5672
ervation	-5673
▁assured	-5674
▁charged	-5675
▁foreign	-5676
▁initial	-5677
▁quarter	-5678
▁rubbing	-5679
▁convince	-5680
▁quarters	-5681
▁advantage	-5682
▁shattered	-5683
▁forgetting	-5684
▁succession	-5685
An	-5686
do	-5687
Hmm	-5688
Wow	-5689
aze	-5690
▁OK	-5691
▁cy	-5692
▁fu	-5693
Some	-5694
iest	-5695
ilty	-5696
kins	-5697
oday	-5698
orge	-5699
rant	-5700
▁Jim	-5701
▁jun	-5702
▁row	-5703
▁sof	-5704
ashes	-5705
enced	-5706
hetic	-5707
pired	-5708
rowed	-5709
shirt	-5710
▁Beth	-5711
▁Carr	-5712
▁Colt	-5713
▁Drew	-5714
▁Love	-5715
▁Rudi	-5716
▁choc	-5717
▁dogs	-5718
▁dull	-5719
▁gall	-5720
▁obsc	-5721
▁stub	-5722
▁Maxim	-5723
▁Right	-5724
▁Water	-5725
▁Would	-5726
▁adult	-5727
▁bunch	-5728
▁heels	-5729
▁loyal	-5730
▁rules	-5731
▁surve	-5732
▁Raheem	-5733
▁encour	-5734
▁houses	-5735
▁ladder	-5736
▁levels	-5737
▁packed	-5738
▁parano	-5739
▁Service	-5740
▁beating	-5741
▁crashed	-5742
▁crawled	-5743
▁emerged	-5744
▁regular	-5745
▁sensing	-5746
▁visible	-5747
▁corridor	-5748
▁commanded	-5749
▁contained	-5750
▁instantly	-5751
▁individual	-5752
▁environment	-5753
SB	-5754
né	-5755
000	-5756
ana	-5757
▁El	-5758
▁oh	-5759
auld	-5760
born	-5761
gest	-5762
loyd	-5763
oger	-5764
thur	-5765
wood	-5766
▁Day	-5767
▁pad	-5768
▁san	-5769
...."	-5770
acity	-5771
eness	-5772
ients	-5773
inese	-5774
▁Each	-5775
▁Good	-5776
▁Omar	-5777
▁ling	-5778
▁plun	-5779
▁purs	-5780
▁sake	-5781
▁site	-5782
▁symb	-5783
▁tank	-5784
▁worn	-5785
idency	-5786
▁belly	-5787
▁cruel	-5788
▁entry	-5789
▁grate	-5790
▁grief	-5791
▁lined	-5792
▁panic	-5793
▁snake	-5794
arently	-5795
hension	-5796
looking	-5797
pective	-5798
▁Conrad	-5799
▁Kevlan	-5800
▁Russia	-5801
▁Thanks	-5802
▁amazed	-5803
▁guilty	-5804
▁purple	-5805
▁regret	-5806
▁tapped	-5807
▁Hamelin	-5808
▁Looking	-5809
▁farther	-5810
▁glances	-5811
▁grunted	-5812
▁reasons	-5813
▁reduced	-5814
▁smirked	-5815
▁weapons	-5816
▁appropri	-5817
▁entering	-5818
▁pondered	-5819
▁sounding	-5820
clamations	-5821
▁convinced	-5822
▁emergency	-5823
▁slightest	-5824
▁revelation	-5825
TE	-5826
Wh	-5827
See	-5828
ams	-5829
ixt	-5830
oop	-5831
oph	-5832
ott	-5833
ppy	-5834
reg	-5835
was	-5836
▁ju	-5837
..._	-5838
anys	-5839
eron	-5840
ette	-5841
hole	-5842
mate	-5843
▁App	-5844
▁Cle	-5845
▁Emb	-5846
▁Mor	-5847
▁pee	-5848
▁psy	-5849
▁raw	-5850
▁sin	-5851
ector	-5852
helle	-5853
kered	-5854
otted	-5855
ville	-5856
▁Hill	-5857
▁belt	-5858
▁betr	-5859
▁dial	-5860
▁earn	-5861
▁elab	-5862
▁frag	-5863
▁gang	-5864
▁inex	-5865
▁merc	-5866
atives	-5867
▁Chang	-5868
▁Lloyd	-5869
▁armed	-5870
▁benef	-5871
▁keeps	-5872
▁labor	-5873
▁liter	-5874
▁pregn	-5875
▁sched	-5876
▁seats	-5877
▁shimm	-5878
▁skirt	-5879
▁wrote	-5880
imately	-5881
▁Jerome	-5882
▁Spirit	-5883
▁deadly	-5884
▁design	-5885
▁encoun	-5886
▁oxygen	-5887
▁rescue	-5888
▁resemb	-5889
▁scarce	-5890
▁scient	-5891
▁sooner	-5892
▁stares	-5893
▁victim	-5894
▁Chinese	-5895
▁Karinna	-5896
▁doctors	-5897
▁drifted	-5898
▁exasper	-5899
▁exposed	-5900
▁kissing	-5901
▁patient	-5902
▁Michelle	-5903
▁directed	-5904
▁distract	-5905
▁horrible	-5906
▁maintain	-5907
▁spending	-5908
▁squinted	-5909
▁concluded	-5910
▁exception	-5911
▁hesitation	-5912
',	-5913
OK	-5914
OR	-5915
Sir	-5916
hod	-5917
ium	-5918
oci	-5919
▁Fe	-5920
▁Sw	-5921
****	-5922
adow	-5923
rily	-5924
umps	-5925
uper	-5926
▁caf	-5927
▁sar	-5928
▁tie	-5929
▁tra	-5930
erous	-5931
ooped	-5932
▁Brit	-5933
▁Gent	-5934
▁bolt	-5935
▁cave	-5936
▁ease	-5937
▁ramp	-5938
icient	-5939
▁Great	-5940
▁Jonah	-5941
▁cheer	-5942
▁crash	-5943
▁games	-5944
▁glare	-5945
▁glory	-5946
▁motor	-5947
▁nurse	-5948
▁spite	-5949
▁toler	-5950
▁Nobody	-5951
▁Palace	-5952
▁agents	-5953
▁boring	-5954
▁gazing	-5955
▁meadow	-5956
▁perple	-5957
▁rested	-5958
▁useful	-5959
auldanys	-5960
▁anxious	-5961
▁breathe	-5962
▁efforts	-5963
▁impress	-5964
▁parties	-5965
something	-5966
▁Whatever	-5967
▁cleaning	-5968
▁exchange	-5969
▁glancing	-5970
▁narrowed	-5971
▁signific	-5972
▁specific	-5973
▁violence	-5974
▁amusement	-5975
▁continent	-5976
▁shuddered	-5977
▁frightened	-5978
▁physically	-5979
▁terrifying	-5980
▁embarrassed	-5981
▁consequences	-5982
.,	-5983
Me	-5984
des	-5985
pes	-5986
five	-5987
ompl	-5988
ptic	-5989
ston	-5990
tery	-5991
▁Ind	-5992
▁McC	-5993
▁San	-5994
▁kit	-5995
▁mic	-5996
▁Fors	-5997
▁Land	-5998
▁Mond	-5999
▁lied	-6000
▁rich	-6001
▁sofa	-6002
itated	-6003
▁Blood	-6004
▁Court	-6005
▁Table	-6006
▁agony	-6007
▁airpl	-6008
▁boots	-6009
▁fault	-6010
▁filth	-6011
▁motiv	-6012
▁owner	-6013
▁raced	-6014
▁shame	-6015
▁steep	-6016
▁trash	-6017
itation	-6018
▁Africa	-6019
▁Oracle	-6020
▁Pierce	-6021
▁bridge	-6022
▁curled	-6023
▁disbel	-6024
▁excuse	-6025
▁formed	-6026
▁garden	-6027
▁kitten	-6028
▁polite	-6029
▁strike	-6030
▁suffer	-6031
▁tunnel	-6032
▁vidmat	-6033
ashwords	-6034
▁Forsyth	-6035
▁airport	-6036
▁assault	-6037
▁central	-6038
▁fighter	-6039
▁nearest	-6040
▁newspap	-6041
▁trained	-6042
▁widened	-6043
Gabrielle	-6044
▁exploded	-6045
▁somewhat	-6046
▁stronger	-6047
▁survival	-6048
▁transfer	-6049
▁universe	-6050
▁collapsed	-6051
▁uncertain	-6052
▁Meraladian	-6053
▁vegetation	-6054
▁unconscious	-6055
▁constitutional	-6056
Ne	-6057
bur	-6058
ggy	-6059
hem	-6060
idy	-6061
lei	-6062
bert	-6063
bria	-6064
ford	-6065
host	-6066
ints	-6067
▁cir	-6068
▁mal	-6069
▁map	-6070
owing	-6071
▁Dave	-6072
▁cars	-6073
▁hugs	-6074
▁stab	-6075
lished	-6076
▁bowed	-6077
▁gloom	-6078
▁illum	-6079
▁shows	-6080
▁swung	-6081
▁trial	-6082
▁backed	-6083
▁belief	-6084
▁hollow	-6085
▁perman	-6086
▁pistol	-6087
▁thrown	-6088
entially	-6089
▁achieve	-6090
▁aggress	-6091
▁annoyed	-6092
▁destiny	-6093
▁glimpse	-6094
▁placing	-6095
▁sniffed	-6096
▁spotted	-6097
▁tickets	-6098
▁website	-6099
ibilities	-6100
▁Pentagon	-6101
▁Trisanda	-6102
▁judgment	-6103
▁murmured	-6104
▁witnessed	-6105
▁inevitable	-6106
▁instructed	-6107
▁television	-6108
.'"	-6109
ese	-6110
opy	-6111
rol	-6112
uge	-6113
▁_-	-6114
▁cu	-6115
▁bew	-6116
▁egg	-6117
asket	-6118
enger	-6119
ensed	-6120
known	-6121
lying	-6122
umble	-6123
▁Erin	-6124
▁exec	-6125
▁lung	-6126
▁magn	-6127
▁mild	-6128
▁pizz	-6129
▁unle	-6130
▁urge	-6131
pelled	-6132
ulated	-6133
▁Marla	-6134
▁Nikol	-6135
▁angel	-6136
▁bones	-6137
▁contr	-6138
▁discl	-6139
▁elbow	-6140
▁pages	-6141
▁sport	-6142
▁trait	-6143
mission	-6144
▁Marcus	-6145
▁Shalei	-6146
▁adjust	-6147
▁arched	-6148
▁assure	-6149
▁credit	-6150
▁insane	-6151
▁insist	-6152
▁points	-6153
▁temper	-6154
▁tender	-6155
▁warned	-6156
▁waters	-6157
▁Cambria	-6158
▁barrier	-6159
▁becomes	-6160
▁besides	-6161
▁foolish	-6162
▁greeted	-6163
▁results	-6164
▁sliding	-6165
▁airplane	-6166
▁humanity	-6167
▁Cauldanys	-6168
▁Christmas	-6169
▁Sometimes	-6170
▁intensity	-6171
▁conclusion	-6172
▁struggling	-6173
IN	-6174
:30	-6175
had	-6176
ops	-6177
ram	-6178
▁hi	-6179
▁ya	-6180
Nyet	-6181
Will	-6182
bout	-6183
▁fet	-6184
▁hid	-6185
hings	-6186
iders	-6187
inist	-6188
irled	-6189
neath	-6190
orney	-6191
place	-6192
there	-6193
▁Cape	-6194
▁Eden	-6195
▁Four	-6196
▁Mary	-6197
▁Nice	-6198
▁Prot	-6199
▁appl	-6200
▁brut	-6201
▁clen	-6202
▁lies	-6203
▁obst	-6204
▁sexy	-6205
Sounds	-6206
Zinovy	-6207
▁alien	-6208
▁coast	-6209
▁decor	-6210
▁disci	-6211
▁falls	-6212
▁instr	-6213
▁palms	-6214
▁pilot	-6215
▁actual	-6216
▁client	-6217
▁demons	-6218
▁discon	-6219
▁dishes	-6220
▁fierce	-6221
▁hatred	-6222
▁liquid	-6223
▁safely	-6224
▁sexual	-6225
▁unlike	-6226
inations	-6227
▁averted	-6228
▁council	-6229
▁flowing	-6230
▁bothered	-6231
▁catching	-6232
▁darkened	-6233
▁offering	-6234
▁pounding	-6235
▁authority	-6236
▁bothering	-6237
▁canisters	-6238
▁chocolate	-6239
▁creatures	-6240
▁cautiously	-6241
▁realization	-6242
eve	-6243
gin	-6244
iya	-6245
▁Bu	-6246
....	-6247
Fuck	-6248
asty	-6249
igid	-6250
otch	-6251
uted	-6252
▁ded	-6253
▁fol	-6254
▁rab	-6255
▁sip	-6256
Would	-6257
aidar	-6258
etter	-6259
kador	-6260
tical	-6261
▁crap	-6262
▁gain	-6263
▁jeal	-6264
▁mane	-6265
▁plat	-6266
▁soci	-6267
▁tail	-6268
▁ting	-6269
▁Roger	-6270
▁finds	-6271
▁frequ	-6272
▁humor	-6273
▁influ	-6274
▁tense	-6275
▁Bobber	-6276
▁Monday	-6277
▁combat	-6278
▁highly	-6279
▁proved	-6280
▁remove	-6281
▁seated	-6282
▁social	-6283
▁stress	-6284
▁cleaned	-6285
▁closest	-6286
▁digging	-6287
▁eastern	-6288
▁elected	-6289
▁eternal	-6290
▁exhaled	-6291
▁hitting	-6292
▁letters	-6293
▁retired	-6294
▁uttered	-6295
▁western	-6296
▁flashing	-6297
▁function	-6298
▁ignoring	-6299
▁learning	-6300
▁traveled	-6301
▁literally	-6302
▁violently	-6303
▁continuing	-6304
▁disappointed	-6305
▁responsibility	-6306
Da	-6307
Gen	-6308
cks	-6309
ros	-6310
Only	-6311
anna	-6312
esty	-6313
rage	-6314
then	-6315
▁201	-6316
▁Int	-6317
▁ank	-6318
▁tax	-6319
amped	-6320
azing	-6321
inent	-6322
rench	-6323
unate	-6324
while	-6325
▁Anna	-6326
▁Dale	-6327
▁curt	-6328
▁edha	-6329
▁flag	-6330
▁fled	-6331
▁huff	-6332
▁meat	-6333
▁mock	-6334
▁musc	-6335
▁tact	-6336
▁Never	-6337
▁Which	-6338
▁cloth	-6339
▁confl	-6340
▁creep	-6341
▁curse	-6342
▁minds	-6343
▁rocks	-6344
▁swore	-6345
▁Arthur	-6346
▁Shirai	-6347
▁Within	-6348
▁drinks	-6349
▁enthus	-6350
▁fabric	-6351
▁issued	-6352
▁neighb	-6353
▁pursed	-6354
▁slowed	-6355
▁spider	-6356
▁accompl	-6357
▁anxiety	-6358
▁channel	-6359
▁connect	-6360
▁inspect	-6361
▁kidding	-6362
▁offices	-6363
▁slumped	-6364
▁treated	-6365
▁upright	-6366
▁yelling	-6367
▁exercise	-6368
▁landscape	-6369
▁stiffened	-6370
▁Chancellor	-6371
▁collective	-6372
▁conference	-6373
▁appropriate	-6374
▁interjected	-6375
▁remembering	-6376
▁Proclamations	-6377
TY	-6378
oh	-6379
ta	-6380
za	-6381
boy	-6382
gol	-6383
hol	-6384
tig	-6385
Give	-6386
hold	-6387
iser	-6388
just	-6389
vert	-6390
▁Oth	-6391
▁THE	-6392
▁bab	-6393
▁bin	-6394
▁lid	-6395
▁sod	-6396
▁unb	-6397
lands	-6398
olded	-6399
ption	-6400
▁Arab	-6401
▁Carl	-6402
▁Many	-6403
▁boot	-6404
▁damp	-6405
▁dorm	-6406
▁eyed	-6407
▁flaw	-6408
▁fury	-6409
▁intr	-6410
▁pipe	-6411
▁trad	-6412
▁vide	-6413
▁vile	-6414
Listen	-6415
acious	-6416
▁Judge	-6417
▁beard	-6418
▁cases	-6419
▁conqu	-6420
▁fired	-6421
▁spine	-6422
▁France	-6423
▁Haidar	-6424
▁frozen	-6425
▁jerked	-6426
▁latest	-6427
▁marble	-6428
▁mechan	-6429
▁pillow	-6430
▁sorrow	-6431
▁strate	-6432
▁supper	-6433
atically	-6434
▁constru	-6435
▁cutting	-6436
▁erupted	-6437
▁existed	-6438
▁giggled	-6439
▁invited	-6440
▁jealous	-6441
▁madness	-6442
▁posture	-6443
▁puzzled	-6444
▁resolve	-6445
▁stirred	-6446
▁unknown	-6447
▁annoying	-6448
▁slamming	-6449
▁exchanged	-6450
▁impressed	-6451
▁realizing	-6452
▁Department	-6453
▁Smashwords	-6454
▁frustrated	-6455
▁mysterious	-6456
▁momentarily	-6457
▁nonetheless	-6458
▁occasionally	-6459
-1	-6460
RE	-6461
?'_	-6462
Kee	-6463
Our	-6464
oos	-6465
ris	-6466
▁30	-6467
▁Up	-6468
aken	-6469
gniz	-6470
mond	-6471
pled	-6472
▁Eve	-6473
▁Gos	-6474
▁Mil	-6475
▁cab	-6476
▁cro	-6477
▁ing	-6478
▁jew	-6479
▁mob	-6480
▁nap	-6481
▁reb	-6482
Keefe	-6483
bable	-6484
raway	-6485
▁Word	-6486
▁dump	-6487
▁junk	-6488
▁plac	-6489
inking	-6490
lected	-6491
omatic	-6492
unched	-6493
▁Linda	-6494
▁aloud	-6495
▁inscr	-6496
▁match	-6497
▁swing	-6498
▁unset	-6499
ctually	-6500
isingly	-6501
odiment	-6502
▁Othgol	-6503
▁Sprawl	-6504
▁assign	-6505
▁bewild	-6506
▁burden	-6507
▁career	-6508
▁closet	-6509
▁device	-6510
▁driven	-6511
▁flames	-6512
▁method	-6513
▁popped	-6514
▁prosec	-6515
▁shoved	-6516
▁tables	-6517
▁theory	-6518
▁winced	-6519
▁wisdom	-6520
▁demonst	-6521
▁forearm	-6522
▁journal	-6523
antically	-6524
▁activity	-6525
▁brothers	-6526
▁citizens	-6527
▁distinct	-6528
▁driveway	-6529
▁furrowed	-6530
▁honestly	-6531
▁patience	-6532
▁precious	-6533
▁searched	-6534
▁separate	-6535
▁touching	-6536
▁apologize	-6537
▁structure	-6538
▁compassion	-6539
▁threatened	-6540
▁underneath	-6541
▁vulnerable	-6542
▁development	-6543
sp	-6544
arn	-6545
ige	-6546
lly	-6547
met	-6548
rem	-6549
esis	-6550
oked	-6551
real	-6552
salm	-6553
ummy	-6554
urre	-6555
▁Dis	-6556
▁Hon	-6557
▁huh	-6558
▁sho	-6559
ardon	-6560
conom	-6561
iable	-6562
isite	-6563
uated	-6564
▁None	-6565
▁Rome	-6566
▁dang	-6567
▁fren	-6568
▁guns	-6569
▁lone	-6570
▁rent	-6571
▁surm	-6572
▁turb	-6573
aptain	-6574
urance	-6575
velope	-6576
▁About	-6577
▁Charl	-6578
▁China	-6579
▁Today	-6580
▁based	-6581
▁cance	-6582
▁dimin	-6583
▁fancy	-6584
▁ghost	-6585
▁manif	-6586
▁mixed	-6587
▁moves	-6588
▁nerve	-6589
▁roads	-6590
▁slide	-6591
▁spare	-6592
▁tough	-6593
assador	-6594
▁Forces	-6595
▁Sherry	-6596
▁accent	-6597
▁altern	-6598
▁bellow	-6599
▁colour	-6600
▁crisis	-6601
▁devast	-6602
▁eleven	-6603
▁extent	-6604
▁lawyer	-6605
▁noises	-6606
▁Johnson	-6607
▁anguish	-6608
▁chicken	-6609
▁crystal	-6610
▁effects	-6611
▁hunting	-6612
▁lifting	-6613
▁peering	-6614
▁receive	-6615
▁trailed	-6616
▁conflict	-6617
▁envelope	-6618
▁grateful	-6619
▁knocking	-6620
▁multiple	-6621
▁recalled	-6622
▁teaching	-6623
▁visiting	-6624
▁encounter	-6625
▁entertain	-6626
▁excellent	-6627
▁hopefully	-6628
▁interview	-6629
▁recovered	-6630
▁satisfied	-6631
▁accompanied	-6632
▁frantically	-6633
▁neighborhood	-6634
Ag	-6635
amm	-6636
ded	-6637
iqu	-6638
lim	-6639
phy	-6640
rap	-6641
see	-6642
▁od	-6643
Char	-6644
Stop	-6645
aval	-6646
avis	-6647
dain	-6648
gend	-6649
year	-6650
▁agg	-6651
▁gul	-6652
andom	-6653
antum	-6654
bbing	-6655
ooked	-6656
usive	-6657
veled	-6658
▁Acts	-6659
▁Aunt	-6660
▁Dire	-6661
▁Flor	-6662
▁Hall	-6663
▁Room	-6664
▁Shar	-6665
▁carn	-6666
▁garb	-6667
▁lawn	-6668
▁menu	-6669
▁vand	-6670
▁whip	-6671
▁Corps	-6672
▁Psalm	-6673
▁equal	-6674
▁false	-6675
▁files	-6676
▁fluid	-6677
▁knelt	-6678
▁limbs	-6679
▁logic	-6680
▁maint	-6681
▁mercy	-6682
▁oddly	-6683
▁scars	-6684
iculous	-6685
▁Almost	-6686
▁econom	-6687
▁humili	-6688
▁ladies	-6689
▁market	-6690
▁saving	-6691
▁signed	-6692
▁subtle	-6693
▁tracks	-6694
▁Through	-6695
▁William	-6696
▁disdain	-6697
▁fraught	-6698
▁options	-6699
▁visited	-6700
▁casually	-6701
▁contempt	-6702
▁manifest	-6703
▁tourists	-6704
▁weakness	-6705
▁abilities	-6706
▁boyfriend	-6707
▁centuries	-6708
▁correctly	-6709
▁finishing	-6710
▁gradually	-6711
▁oblivious	-6712
▁directions	-6713
▁profession	-6714
▁headquarters	-6715
PS	-6716
avy	-6717
▁Ak	-6718
▁En	-6719
▁Im	-6720
Ivan	-6721
bles	-6722
fire	-6723
osal	-6724
▁1:1	-6725
▁Sel	-6726
▁awe	-6727
acles	-6728
ccles	-6729
phone	-6730
which	-6731
▁Icon	-6732
▁asce	-6733
▁deck	-6734
▁fulf	-6735
▁noon	-6736
▁qual	-6737
▁twin	-6738
▁wors	-6739
▁writ	-6740
ansing	-6741
cclese	-6742
uality	-6743
unting	-6744
▁accur	-6745
▁crime	-6746
▁eaten	-6747
▁hills	-6748
▁ignor	-6749
▁likes	-6750
▁lungs	-6751
▁media	-6752
▁noted	-6753
▁penet	-6754
▁pulse	-6755
▁refer	-6756
▁skull	-6757
▁spraw	-6758
▁value	-6759
▁Mother	-6760
▁casual	-6761
▁defeat	-6762
▁fusion	-6763
▁strode	-6764
▁tempor	-6765
▁Austral	-6766
▁Redmond	-6767
▁Richard	-6768
▁Somehow	-6769
▁cracked	-6770
▁goodbye	-6771
▁replace	-6772
▁District	-6773
▁backyard	-6774
▁critical	-6775
▁describe	-6776
▁dropping	-6777
▁grabbing	-6778
▁handsome	-6779
▁hovering	-6780
▁incisive	-6781
▁rational	-6782
▁sandwich	-6783
▁developed	-6784
▁happiness	-6785
▁secretary	-6786
▁colleagues	-6787
▁discomfort	-6788
▁disturbing	-6789
▁reflection	-6790
▁anticipation	-6791
20	-6792
AR	-6793
ez	-6794
hh	-6795
can	-6796
osh	-6797
oul	-6798
rim	-6799
uke	-6800
wed	-6801
Like	-6802
acon	-6803
inde	-6804
uite	-6805
when	-6806
▁Amb	-6807
▁Rel	-6808
▁Top	-6809
▁thy	-6810
▁tub	-6811
attle	-6812
erald	-6813
gered	-6814
isher	-6815
istry	-6816
▁Cass	-6817
▁Conn	-6818
▁Olds	-6819
▁Over	-6820
▁Pand	-6821
▁Stol	-6822
▁bomb	-6823
▁bunk	-6824
▁bush	-6825
▁clan	-6826
▁inch	-6827
▁isol	-6828
▁kitt	-6829
▁mant	-6830
▁prec	-6831
▁rail	-6832
▁rude	-6833
▁uses	-6834
erring	-6835
irling	-6836
▁aston	-6837
▁frank	-6838
▁mused	-6839
▁pizza	-6840
▁revol	-6841
▁split	-6842
▁uncon	-6843
iveness	-6844
outhern	-6845
▁Jewish	-6846
▁basket	-6847
▁cogniz	-6848
▁compet	-6849
▁ending	-6850
▁extend	-6851
▁nerves	-6852
▁pissed	-6853
▁repeat	-6854
▁surviv	-6855
▁wealth	-6856
▁whined	-6857
▁wrists	-6858
cription	-6859
▁British	-6860
▁Ucclese	-6861
▁alright	-6862
▁angrily	-6863
▁attacks	-6864
▁changes	-6865
▁confron	-6866
▁dealing	-6867
▁evident	-6868
▁example	-6869
▁failure	-6870
▁flipped	-6871
▁healthy	-6872
▁insight	-6873
▁partner	-6874
▁sharing	-6875
▁smoking	-6876
▁society	-6877
▁Anderson	-6878
▁Farraway	-6879
▁Governor	-6880
▁eternity	-6881
▁greatest	-6882
▁magazine	-6883
▁muscular	-6884
▁piercing	-6885
▁pressing	-6886
▁property	-6887
▁reverber	-6888
▁scarcely	-6889
▁spinning	-6890
▁studying	-6891
▁newspaper	-6892
▁scrambled	-6893
▁presidency	-6894
Un	-6895
tr	-6896
aia	-6897
bal	-6898
box	-6899
elp	-6900
has	-6901
yes	-6902
Even	-6903
TEEN	-6904
arse	-6905
berg	-6906
cies	-6907
hand	-6908
mail	-6909
pack	-6910
post	-6911
riot	-6912
some	-6913
ulty	-6914
with	-6915
▁Big	-6916
▁Mas	-6917
▁Zar	-6918
▁arc	-6919
▁boo	-6920
▁kil	-6921
...?"	-6922
arian	-6923
armed	-6924
aware	-6925
ician	-6926
▁Time	-6927
▁cher	-6928
▁clar	-6929
▁irre	-6930
▁lust	-6931
▁symp	-6932
▁unst	-6933
isions	-6934
tigrew	-6935
▁analy	-6936
▁bread	-6937
▁cards	-6938
▁cared	-6939
▁cough	-6940
▁drugs	-6941
▁fists	-6942
▁flame	-6943
▁mines	-6944
▁newly	-6945
▁novel	-6946
▁psych	-6947
▁purse	-6948
▁realm	-6949
▁suitc	-6950
▁tendr	-6951
▁tries	-6952
▁venom	-6953
indeiya	-6954
nyhndah	-6955
ressing	-6956
▁Center	-6957
▁Sharon	-6958
▁cousin	-6959
▁darker	-6960
▁decent	-6961
▁dismay	-6962
▁laying	-6963
▁lesson	-6964
▁rights	-6965
▁Cassidy	-6966
▁Pandora	-6967
▁biggest	-6968
▁cooking	-6969
▁corrupt	-6970
▁equally	-6971
▁garbage	-6972
▁prepare	-6973
▁raising	-6974
▁reaches	-6975
▁Director	-6976
▁blackber	-6977
▁midnight	-6978
▁paranoia	-6979
▁soothing	-6980
▁wretched	-6981
▁Pettigrew	-6982
▁disbelief	-6983
▁expensive	-6984
▁sacrifice	-6985
▁comforting	-6986
▁containment	-6987
▁inscrutable	-6988
▁Unfortunately	-6989
wr	-6990
.."	-6991
Ale	-6992
cyk	-6993
eps	-6994
rov	-6995
tes	-6996
yan	-6997
▁22	-6998
▁Ed	-6999
▁—"	-7000
Fine	-7001
Kira	-7002
alls	-7003
bery	-7004
icop	-7005
inci	-7006
ores	-7007
ulus	-7008
▁Cal	-7009
▁May	-7010
▁Sil	-7011
▁Yay	-7012
▁aid	-7013
▁nin	-7014
▁oil	-7015
▁rhy	-7016
▁tex	-7017
ilted	-7018
iring	-7019
▁Gaia	-7020
▁Holy	-7021
▁ages	-7022
▁cash	-7023
▁gasp	-7024
▁hood	-7025
▁maid	-7026
▁myth	-7027
▁para	-7028
▁rule	-7029
▁spir	-7030
imeter	-7031
ixture	-7032
rating	-7033
upreme	-7034
▁Black	-7035
▁Later	-7036
▁Stolz	-7037
▁Under	-7038
▁advan	-7039
▁bench	-7040
▁cream	-7041
▁crept	-7042
▁dared	-7043
▁drift	-7044
▁edges	-7045
▁ineff	-7046
▁price	-7047
▁swell	-7048
icating	-7049
▁Melman	-7050
▁Shades	-7051
▁Zarcyk	-7052
▁advent	-7053
▁awaken	-7054
▁branch	-7055
▁carpet	-7056
▁cocked	-7057
▁discer	-7058
▁dollar	-7059
▁huffed	-7060
▁racing	-7061
▁random	-7062
▁sheets	-7063
▁skills	-7064
▁slaves	-7065
▁taller	-7066
▁trucks	-7067
▁classes	-7068
▁confess	-7069
▁forgive	-7070
▁healing	-7071
▁pockets	-7072
▁resumed	-7073
▁clutched	-7074
▁motioned	-7075
▁northern	-7076
▁pregnant	-7077
▁performed	-7078
▁reception	-7079
▁reflected	-7080
▁suspicion	-7081
▁swallowed	-7082
▁Government	-7083
▁controlled	-7084
▁imagination	-7085
▁perspective	-7086
▁photographs	-7087
▁thoughtfully	-7088
dy	-7089
ari	-7090
thm	-7091
Jack	-7092
Kate	-7093
apor	-7094
inks	-7095
ogue	-7096
reek	-7097
▁Mus	-7098
▁fer	-7099
▁pra	-7100
▁shr	-7101
▁shy	-7102
About	-7103
craft	-7104
uffed	-7105
▁Fair	-7106
▁Fort	-7107
▁anch	-7108
▁bang	-7109
▁bark	-7110
▁comr	-7111
▁dude	-7112
▁heed	-7113
▁milk	-7114
▁oath	-7115
▁padd	-7116
▁page	-7117
▁pall	-7118
▁prud	-7119
▁reck	-7120
▁shed	-7121
▁sust	-7122
▁tide	-7123
▁warn	-7124
ective	-7125
everal	-7126
mitted	-7127
orious	-7128
▁Allan	-7129
▁Dream	-7130
▁Lance	-7131
▁areas	-7132
▁balls	-7133
▁bills	-7134
▁cries	-7135
▁dwell	-7136
▁groan	-7137
▁leapt	-7138
▁lifet	-7139
▁limit	-7140
▁marry	-7141
▁rings	-7142
▁scowl	-7143
▁shown	-7144
▁stops	-7145
osition	-7146
▁Wilber	-7147
▁beings	-7148
▁calmed	-7149
▁filthy	-7150
▁legend	-7151
▁muscle	-7152
▁palace	-7153
▁paraly	-7154
▁rarely	-7155
▁remote	-7156
▁savage	-7157
▁sevent	-7158
▁valley	-7159
▁Neither	-7160
▁Sheriff	-7161
▁Supreme	-7162
▁abandon	-7163
▁carrier	-7164
▁crowded	-7165
▁deliver	-7166
▁emerald	-7167
▁grounds	-7168
▁helicop	-7169
▁hovered	-7170
▁intoned	-7171
▁outrage	-7172
▁pattern	-7173
▁plunged	-7174
▁replies	-7175
▁sadness	-7176
▁sharply	-7177
▁snarled	-7178
▁snorted	-7179
▁stuffed	-7180
▁useless	-7181
▁audience	-7182
▁avoiding	-7183
▁bleeding	-7184
▁captured	-7185
▁comprehe	-7186
▁creation	-7187
▁deserted	-7188
▁district	-7189
▁luminous	-7190
▁produced	-7191
▁stepping	-7192
▁twisting	-7193
▁passenger	-7194
▁perceived	-7195
▁revealing	-7196
▁surrender	-7197
▁virulence	-7198
▁Apparently	-7199
▁aggressive	-7200
▁assistance	-7201
▁attractive	-7202
▁conviction	-7203
▁department	-7204
▁incredible	-7205
▁resistance	-7206
▁shimmering	-7207
▁Wilberforce	-7208
▁frightening	-7209
▁observation	-7210
▁practically	-7211
▁Presidential	-7212
▁surprisingly	-7213
:2	-7214
En	-7215
ki	-7216
ym	-7217
het	-7218
hor	-7219
▁Ms	-7220
cons	-7221
hord	-7222
icks	-7223
iner	-7224
odka	-7225
sole	-7226
zard	-7227
▁Its	-7228
▁Pal	-7229
▁Res	-7230
▁cub	-7231
▁cul	-7232
▁rav	-7233
▁tea	-7234
cohol	-7235
esome	-7236
every	-7237
upert	-7238
ureau	-7239
▁Back	-7240
▁Fore	-7241
▁Last	-7242
▁Life	-7243
▁cage	-7244
▁chef	-7245
▁clue	-7246
▁deaf	-7247
▁flee	-7248
▁grat	-7249
▁load	-7250
▁moss	-7251
agging	-7252
cience	-7253
elcome	-7254
ndered	-7255
ulsive	-7256
usions	-7257
▁Armed	-7258
▁Diane	-7259
▁abbey	-7260
▁drank	-7261
▁eased	-7262
▁ebony	-7263
▁froze	-7264
▁grove	-7265
▁leads	-7266
▁rapid	-7267
▁shuff	-7268
▁stead	-7269
▁stool	-7270
▁surge	-7271
▁video	-7272
▁Church	-7273
▁During	-7274
▁Gospel	-7275
▁Things	-7276
▁bleach	-7277
▁commer	-7278
▁dagger	-7279
▁groups	-7280
▁larger	-7281
▁sucked	-7282
▁tucked	-7283
▁underw	-7284
▁winked	-7285
hordrian	-7286
ifically	-7287
▁Special	-7288
▁bearing	-7289
▁corners	-7290
▁endless	-7291
▁envelop	-7292
▁exhaust	-7293
▁flicked	-7294
▁glowing	-7295
▁holiday	-7296
▁monitor	-7297
▁opinion	-7298
▁pouring	-7299
▁shudder	-7300
▁trusted	-7301
▁unaware	-7302
▁absorbed	-7303
▁adjusted	-7304
▁clenched	-7305
▁prompted	-7306
▁retorted	-7307
▁standard	-7308
▁whispers	-7309
▁amazement	-7310
▁briefcase	-7311
▁cognizant	-7312
▁connected	-7313
▁described	-7314
▁potential	-7315
▁prisoners	-7316
▁transform	-7317
▁virtually	-7318
▁university	-7319
▁assassination	-7320
ES	-7321
ado	-7322
bot	-7323
hya	-7324
law	-7325
oug	-7326
seh	-7327
ENTY	-7328
lace	-7329
mill	-7330
olen	-7331
pire	-7332
uary	-7333
ucks	-7334
▁GPS	-7335
▁Rac	-7336
▁bem	-7337
▁cad	-7338
▁dub	-7339
▁icy	-7340
▁lun	-7341
▁mug	-7342
▁net	-7343
▁rag	-7344
▁rot	-7345
actly	-7346
mates	-7347
ollow	-7348
virus	-7349
▁blew	-7350
▁chem	-7351
▁code	-7352
▁cush	-7353
▁data	-7354
▁fake	-7355
▁neat	-7356
▁soda	-7357
▁span	-7358
▁sque	-7359
▁toes	-7360
alling	-7361
enance	-7362
haired	-7363
pended	-7364
▁Aslan	-7365
▁Brand	-7366
▁Lands	-7367
▁acted	-7368
▁awful	-7369
▁blunt	-7370
▁brave	-7371
▁crest	-7372
▁fears	-7373
▁holes	-7374
▁lands	-7375
▁maneu	-7376
▁medic	-7377
▁nails	-7378
▁proof	-7379
▁recon	-7380
▁scree	-7381
▁style	-7382
▁trigg	-7383
▁trunk	-7384
▁whist	-7385
andahya	-7386
ickered	-7387
▁Rachel	-7388
▁Romans	-7389
▁Rupert	-7390
▁Second	-7391
▁TWENTY	-7392
▁Twenty	-7393
▁associ	-7394
▁ensure	-7395
▁flower	-7396
▁freely	-7397
▁impact	-7398
▁intrig	-7399
▁inward	-7400
▁recomm	-7401
▁refuse	-7402
▁rhythm	-7403
▁savior	-7404
▁senior	-7405
▁severe	-7406
▁speaks	-7407
▁strict	-7408
▁symbol	-7409
▁throws	-7410
▁transl	-7411
▁triump	-7412
▁tugged	-7413
ountered	-7414
▁Turning	-7415
▁amongst	-7416
▁article	-7417
▁benefit	-7418
▁circled	-7419
▁funeral	-7420
▁mixture	-7421
▁mumbled	-7422
▁notices	-7423
▁pleaded	-7424
▁reports	-7425
▁resurre	-7426
▁returns	-7427
▁routine	-7428
▁spiders	-7429
▁victory	-7430
conscious	-7431
▁compared	-7432
▁electron	-7433
▁extraord	-7434
▁floating	-7435
▁forwards	-7436
▁identity	-7437
▁inherent	-7438
▁prisoner	-7439
▁radiated	-7440
▁sentence	-7441
▁sickness	-7442
▁stubborn	-7443
▁tendrils	-7444
▁Australia	-7445
▁clutching	-7446
▁container	-7447
▁discussed	-7448
▁protected	-7449
▁salvation	-7450
▁Ambassador	-7451
▁Waterfront	-7452
▁thoughtful	-7453
▁encountered	-7454
Am	-7455
bly	-7456
equ	-7457
isy	-7458
rah	-7459
uce	-7460
why	-7461
With	-7462
Yuri	-7463
ancy	-7464
▁Cad	-7465
▁Tok	-7466
▁ais	-7467
▁aur	-7468
▁gal	-7469
▁mix	-7470
▁nan	-7471
▁owe	-7472
▁ram	-7473
avrov	-7474
chair	-7475
cling	-7476
ittee	-7477
stand	-7478
▁Miss	-7479
▁Nept	-7480
▁Ryan	-7481
▁Terr	-7482
▁ador	-7483
▁bend	-7484
▁boat	-7485
▁bord	-7486
▁crad	-7487
▁dise	-7488
▁lean	-7489
▁rust	-7490
▁ster	-7491
▁tran	-7492
athing	-7493
taking	-7494
▁Bible	-7495
▁Blake	-7496
▁Steve	-7497
▁boxes	-7498
▁crude	-7499
▁dusty	-7500
▁kidna	-7501
▁lover	-7502
▁loves	-7503
▁monst	-7504
▁sheer	-7505
▁slack	-7506
▁swarm	-7507
▁topic	-7508
Alright	-7509
Denysia	-7510
Jackson	-7511
cension	-7512
eration	-7513
issance	-7514
▁Surely	-7515
▁brings	-7516
▁danced	-7517
▁drawer	-7518
▁indiff	-7519
▁lately	-7520
▁prayer	-7521
▁rabbit	-7522
▁rasped	-7523
▁reward	-7524
▁stolen	-7525
▁tasted	-7526
▁voiced	-7527
▁warily	-7528
▁wiping	-7529
▁wounds	-7530
ignation	-7531
▁Genesis	-7532
▁Koreans	-7533
▁Neptune	-7534
▁Seattle	-7535
▁Several	-7536
▁deserve	-7537
▁forcing	-7538
▁goddess	-7539
▁injured	-7540
▁panting	-7541
▁singing	-7542
▁slapped	-7543
▁testing	-7544
Something	-7545
▁Mountain	-7546
▁ambition	-7547
▁departed	-7548
▁dressing	-7549
▁incredul	-7550
▁murdered	-7551
▁practice	-7552
▁prophecy	-7553
▁shopping	-7554
▁southern	-7555
▁visitors	-7556
▁Ghordrian	-7557
▁elaborate	-7558
▁influence	-7559
▁introduce	-7560
▁presented	-7561
▁retreated	-7562
▁spectacle	-7563
▁survivors	-7564
▁assessment	-7565
▁characters	-7566
▁comprehend	-7567
▁sufficient	-7568
▁satisfaction	-7569
▁specifically	-7570
▁communication	-7571
-_	-7572
rs	-7573
vy	-7574
alp	-7575
don	-7576
fit	-7577
rav	-7578
two	-7579
▁Te	-7580
alem	-7581
cked	-7582
vard	-7583
your	-7584
zins	-7585
▁Att	-7586
▁Eur	-7587
▁Hum	-7588
▁fog	-7589
▁maj	-7590
▁mes	-7591
▁tet	-7592
First	-7593
These	-7594
ceded	-7595
orter	-7596
riage	-7597
utral	-7598
▁core	-7599
▁impe	-7600
▁nipp	-7601
▁plea	-7602
▁pron	-7603
▁rous	-7604
▁ruin	-7605
eteria	-7606
inding	-7607
itches	-7608
usalem	-7609
zinski	-7610
▁Korea	-7611
▁Mavis	-7612
▁Parks	-7613
▁Staff	-7614
▁Uncle	-7615
▁argue	-7616
▁camps	-7617
▁cells	-7618
▁chase	-7619
▁cliff	-7620
▁dazed	-7621
▁dense	-7622
▁diver	-7623
▁drama	-7624
▁effic	-7625
▁glist	-7626
▁joint	-7627
▁kinds	-7628
▁manip	-7629
▁manor	-7630
▁oblig	-7631
▁scrut	-7632
▁silly	-7633
▁title	-7634
▁uncle	-7635
▁vodka	-7636
▁youth	-7637
▁Albert	-7638
▁Farley	-7639
▁butter	-7640
▁calmly	-7641
▁conven	-7642
▁defens	-7643
▁hugged	-7644
▁hyster	-7645
▁interp	-7646
▁proced	-7647
▁season	-7648
▁seized	-7649
▁signal	-7650
▁smells	-7651
▁swords	-7652
▁visual	-7653
▁Captain	-7654
▁Regulus	-7655
▁alcohol	-7656
▁caution	-7657
▁console	-7658
▁conster	-7659
▁curtain	-7660
▁disturb	-7661
▁fiction	-7662
▁hurting	-7663
▁kilomet	-7664
▁kingdom	-7665
▁million	-7666
▁panties	-7667
▁percept	-7668
▁popular	-7669
▁recover	-7670
▁spilled	-7671
▁Gentiles	-7672
▁Kindeiya	-7673
▁Nandahya	-7674
▁Northern	-7675
▁bellowed	-7676
▁climbing	-7677
▁document	-7678
▁exciting	-7679
▁occupied	-7680
▁resigned	-7681
▁waitress	-7682
▁Jerusalem	-7683
▁Rudzinski	-7684
▁cafeteria	-7685
▁elsewhere	-7686
▁explosion	-7687
▁miserable	-7688
▁succeeded	-7689
▁territory	-7690
▁acceptance	-7691
▁confronted	-7692
▁flickering	-7693
▁introduced	-7694
▁acknowledge	-7695
▁consternation	-7696
▁investigation	-7697
?'	-7698
Ch	-7699
Pe	-7700
***	-7701
anc	-7702
dig	-7703
esy	-7704
oil	-7705
sey	-7706
sky	-7707
who	-7708
xim	-7709
▁Ac	-7710
▁nu	-7711
,000	-7712
agic	-7713
etic	-7714
igor	-7715
oran	-7716
otes	-7717
shit	-7718
▁Det	-7719
▁Gab	-7720
▁Job	-7721
▁Sus	-7722
▁cis	-7723
▁dug	-7724
▁gau	-7725
▁que	-7726
,..."	-7727
Jesus	-7728
Still	-7729
ester	-7730
inged	-7731
lance	-7732
orium	-7733
riger	-7734
vered	-7735
▁Hell	-7736
▁Yeah	-7737
▁acts	-7738
▁arch	-7739
▁boun	-7740
▁dair	-7741
▁dish	-7742
▁sank	-7743
▁stag	-7744
▁tool	-7745
▁trap	-7746
Myrhia	-7747
wealth	-7748
▁Grand	-7749
▁angle	-7750
▁appet	-7751
▁audit	-7752
▁dealt	-7753
▁grunt	-7754
▁illeg	-7755
▁ledge	-7756
▁shelf	-7757
▁smirk	-7758
▁squir	-7759
▁veins	-7760
brother	-7761
lighted	-7762
quisite	-7763
▁Flower	-7764
▁French	-7765
▁Sergei	-7766
▁bodygu	-7767
▁depend	-7768
▁firing	-7769
▁hauled	-7770
▁loaded	-7771
▁ordeal	-7772
▁overse	-7773
▁plants	-7774
▁prompt	-7775
▁shakes	-7776
▁sleeve	-7777
▁ticket	-7778
▁virgin	-7779
▁wildly	-7780
▁Bedouin	-7781
▁Senator	-7782
▁cistern	-7783
▁coughed	-7784
▁discipl	-7785
▁drawers	-7786
▁immense	-7787
▁needing	-7788
▁neutral	-7789
▁related	-7790
▁ringing	-7791
▁screams	-7792
▁serving	-7793
▁whining	-7794
▁arrested	-7795
▁backpack	-7796
▁included	-7797
▁mattress	-7798
▁messages	-7799
▁national	-7800
▁refriger	-7801
▁restless	-7802
▁stirring	-7803
▁committed	-7804
▁completed	-7805
▁contacted	-7806
▁disconcer	-7807
▁establish	-7808
▁followers	-7809
▁harrowing	-7810
▁lightning	-7811
▁reference	-7812
▁referring	-7813
▁staircase	-7814
▁collecting	-7815
▁impressive	-7816
▁laboratory	-7817
▁protecting	-7818
▁suggestion	-7819
▁authorities	-7820
▁personality	-7821
bv	-7822
bre	-7823
ius	-7824
nat	-7825
oid	-7826
umn	-7827
▁UK	-7828
▁bi	-7829
cest	-7830
cuse	-7831
iece	-7832
ifts	-7833
ilos	-7834
rick	-7835
riek	-7836
unte	-7837
utor	-7838
vsky	-7839
▁Bad	-7840
▁Ken	-7841
▁Run	-7842
▁gam	-7843
▁lur	-7844
▁mas	-7845
▁pig	-7846
▁swo	-7847
▁tan	-7848
▁wol	-7849
Denni	-7850
asive	-7851
asury	-7852
iforn	-7853
verse	-7854
▁Anya	-7855
▁Coll	-7856
▁Date	-7857
▁Dick	-7858
▁Does	-7859
▁Gins	-7860
▁Jane	-7861
▁Okay	-7862
▁Take	-7863
▁chim	-7864
▁crou	-7865
▁dece	-7866
▁dipl	-7867
▁goss	-7868
▁keys	-7869
▁muff	-7870
▁nods	-7871
▁puls	-7872
▁rode	-7873
▁sale	-7874
▁scru	-7875
▁slob	-7876
▁sped	-7877
▁stor	-7878
▁teen	-7879
iments	-7880
istent	-7881
▁Crest	-7882
▁Tears	-7883
▁admon	-7884
▁aimed	-7885
▁bliss	-7886
▁brick	-7887
▁dairy	-7888
▁gorge	-7889
▁leash	-7890
▁noisy	-7891
▁pitch	-7892
▁scout	-7893
▁shrub	-7894
▁skill	-7895
▁stark	-7896
▁twins	-7897
General	-7898
anwhile	-7899
idation	-7900
▁Gharra	-7901
▁Justin	-7902
▁Lavrov	-7903
▁Psalms	-7904
▁Seeing	-7905
▁active	-7906
▁adding	-7907
▁darted	-7908
▁endure	-7909
▁fields	-7910
▁flared	-7911
▁flatly	-7912
▁floors	-7913
▁hunger	-7914
▁issues	-7915
▁mantle	-7916
▁mercen	-7917
▁moaned	-7918
▁perpet	-7919
▁philos	-7920
▁relent	-7921
▁resour	-7922
▁sardon	-7923
▁teased	-7924
▁transf	-7925
▁upward	-7926
onwealth	-7927
▁	-7928
e	-7929
t	-7930
a	-7931
o	-7932
n	-7933
i	-7934
h	-7935
s	-7936
r	-7937
d	-7938
l	-7939
u	-7940
c	-7941
m	-7942
g	-7943
w	-7944
y	-7945
.	-7946
f	-7947
p	-7948
b	-7949
,	-7950
k	-7951
"	-7952
v	-7953
I	-7954
'	-7955
T	-7956
S	-7957
H	-7958
A	-7959
W	-7960
?	-7961
M	-7962
x	-7963
C	-7964
D	-7965
j	-7966
B	-7967
Y	-7968
N	-7969
q	-7970
z	-7971
J	-7972
P	-7973
L	-7974
O	-7975
-	-7976
_	-7977
G	-7978
E	-7979
R	-7980
K	-7981
F	-7982
!	-7983
U	-7984
Z	-7985
*	-7986
—	-7987
;	-7988
1	-7989
:	-7990
V	-7991
0	-7992
2	-7993
#	-7994
3	-7995
é	-7996
