{
  "version": "1.0",
  "truncation": null,
  "padding": null,
  "added_tokens": [],
  "normalizer": {
    "type": "NFKC"
  },
  "pre_tokenizer": {
    "type": "ByteLevel",
    "add_prefix_space": true,
    "trim_offsets": true,
    "use_regex": true
  },
  "post_processor": null,
  "decoder": {
    "type": "ByteLevel",
    "add_prefix_space": true,
    "trim_offsets": true,
    "use_regex": true
  },
  "model": {
    "type": "BPE",
    "dropout": null,
    "unk_token": null,
    "continuing_subword_prefix": null,
    "end_of_word_suffix": null,
    "fuse_unk": false,
    "byte_fallback": false,
    "ignore_merges": false,
    "vocab": {
      "!": 0,
      "\"": 1,
      "#": 2,
      "$": 3,
      "%": 4,
      "&": 5,
      "'": 6,
      "(": 7,
      ")": 8,
      "*": 9,
      "+": 10,
      ",": 11,
      "-": 12,
      ".": 13,
      "/": 14,
      "0": 15,
      "1": 16,
      "2": 17,
      "3": 18,
      "4": 19,
      "5": 20,
      "6": 21,
      "7": 22,
      "8": 23,
      "9": 24,
      ":": 25,
      ";": 26,
      "<": 27,
      "=": 28,
      ">": 29,
      "?": 30,
      "@": 31,
      "A": 32,
      "B": 33,
      "C": 34,
      "D": 35,
      "E": 36,
      "F": 37,
      "G": 38,
      "H": 39,
      "I": 40,
      "J": 41,
      "K": 42,
      "L": 43,
      "M": 44,
      "N": 45,
      "O": 46,
      "P": 47,
      "Q": 48,
      "R": 49,
      "S": 50,
      "T": 51,
      "U": 52,
      "V": 53,
      "W": 54,
      "X": 55,
      "Y": 56,
      "Z": 57,
      "[": 58,
      "\\": 59,
      "]": 60,
      "_": 61,
      "`": 62,
      "a": 63,
      "b": 64,
      "c": 65,
      "d": 66,
      "e": 67,
      "f": 68,
      "g": 69,
      "h": 70,
      "i": 71,
      "j": 72,
      "k": 73,
      "l": 74,
      "m": 75,
      "n": 76,
      "o": 77,
      "p": 78,
      "q": 79,
      "r": 80,
      "s": 81,
      "t": 82,
      "u": 83,
      "v": 84,
      "w": 85,
      "x": 86,
      "y": 87,
      "z": 88,
      "¡": 89,
      "¢": 90,
      "§": 91,
      "¨": 92,
      "©": 93,
      "ª": 94,
      "«": 95,
      "¯": 96,
      "±": 97,
      "º": 98,
      "½": 99,
      "¾": 100,
      "Â": 101,
      "Ã": 102,
      "Å": 103,
      "Ë": 104,
      "â": 105,
      "Ġ": 106,
      "Ģ": 107,
      "ī": 108,
      "ĭ": 109,
      "Į": 110,
      "ĵ": 111,
      "Ķ": 112,
      "ĺ": 113,
      "ł": 114,
      "Ń": 115,
      "Ġt": 116,
      "he": 117,
      "Ġa": 118,
      "in": 119,
      "Ġs": 120,
      "Ġw": 121,
      "Ġthe": 122,
      "re": 123,
      "ou": 124,
      "ed": 125,
      "Ġo": 126,
      "nd": 127,
      "ha": 128,
      "Ġb": 129,
      "er": 130,
      "ing": 131,
      "Ġto": 132,
      "Ġc": 133,
      "Ġf": 134,
      "is": 135,
      "it": 136,
      "en": 137,
      "Ġm": 138,
      "on": 139,
      "Ġd": 140,
      "Ġhe": 141,
      "Ġand": 142,
      "ll": 143,
      "or": 144,
      "Ġp": 145,
      "Ġl": 146,
      "Ġh": 147,
      "Ġ\"": 148,
      "Ġof": 149,
      "an": 150,
      "ĠI": 151,
      "as": 152,
      "es": 153,
      "Ġin": 154,
      "ar": 155,
      "at": 156,
      "Ġg": 157,
      "Ġha": 158,
      "Ġn": 159,
      "om": 160,
      "hat": 161,
      "Ġbe": 162,
      "ow": 163,
      "le": 164,
      "id": 165,
      "Ġe": 166,
      "Ġy": 167,
      "ot": 168,
      "ve": 169,
      "ly": 170,
      "ac": 171,
      "Ġth": 172,
      "Ġyou": 173,
      "gh": 174,
      "ic": 175,
      "st": 176,
      "Ġwas": 177,
      "ld": 178,
      ".\"": 179,
      "im": 180,
      "et": 181,
      "Ġthat": 182,
      "Ġre": 183,
      "Ġher": 184,
      "ĠT": 185,
      "Ġon": 186,
      "Ġu": 187,
      "ay": 188,
      "Ġst": 189,
      "al": 190,
      "ent": 191,
      "se": 192,
      "ut": 193,
      "Ġit": 194,
      "Ġhis": 195,
      "ir": 196,
      "ĠS": 197,
      "ion": 198,
      "ver": 199,
      "ĠH": 200,
      "'s": 201,
      "oo": 202,
      "ad": 203,
      "Ġwe": 204,
      "ĠA": 205,
      "out": 206,
      "Ġas": 207,
      "ght": 208,
      "ith": 209,
      "Ġr": 210,
      "Ġfor": 211,
      "Ġwith": 212,
      "ould": 213,
      "..": 214,
      "ur": 215,
      "ke": 216,
      "ĠThe": 217,
      "Ġshe": 218,
      "Ġhad": 219,
      "Ġat": 220,
      "am": 221,
      "Ġan": 222,
      "Ġis": 223,
      "all": 224,
      "'t": 225,
      "Ġme": 226,
      "ĠHe": 227,
      "ight": 228,
      "ce": 229,
      "ill": 230,
      "ĠM": 231,
      "ro": 232,
      "Ġk": 233,
      "Ġfr": 234,
      "Ġnot": 235,
      "red": 236,
      "her": 237,
      "Ġse": 238,
      "if": 239,
      "il": 240,
      "Ġhim": 241,
      "Ġwh": 242,
      "ch": 243,
      "Ġsa": 244,
      "ct": 245,
      "Ġdo": 246,
      "ter": 247,
      "pp": 248,
      "?\"": 249,
      "ain": 250,
      "ack": 251,
      "Ġup": 252,
      "ore": 253,
      "Ġhave": 254,
      "Ġne": 255,
      "ĠC": 256,
      "Ġbut": 257,
      "ook": 258,
      "ust": 259,
      "ome": 260,
      "Ġsh": 261,
      "ĠW": 262,
      "Ġout": 263,
      "Ġthis": 264,
      "rou": 265,
      "ant": 266,
      "Ġmy": 267,
      "ĠB": 268,
      "ri": 269,
      ",\"": 270,
      "Ġde": 271,
      "Ġj": 272,
      "Ġso": 273,
      "ĠD": 274,
      "Ġkn": 275,
      "us": 276,
      "Ġcon": 277,
      "Ġfrom": 278,
      "Ġli": 279,
      "Ġint": 280,
      "ind": 281,
      "Ġsaid": 282,
      "and": 283,
      "Ġab": 284,
      "ge": 285,
      "hing": 286,
      "ess": 287,
      "ĠShe": 288,
      "Ġsu": 289,
      "Ġfe": 290,
      "one": 291,
      "qu": 292,
      "ab": 293,
      "pe": 294,
      "ck": 295,
      "ation": 296,
      "Ġgo": 297,
      "Ġthey": 298,
      "...": 299,
      "our": 300,
      "ate": 301,
      "Ġwould": 302,
      "Ġle": 303,
      "Ġex": 304,
      "Ġare": 305,
      "Ġal": 306,
      "Ġall": 307,
      "os": 308,
      "Ġv": 309,
      "art": 310,
      "Ġwhe": 311,
      "ie": 312,
      "ally": 313,
      "ood": 314,
      "ard": 315,
      "ul": 316,
      "hed": 317,
      "un": 318,
      "res": 319,
      "Ġlook": 320,
      "Ġback": 321,
      "Ġcould": 322,
      "Ġwere": 323,
      "ak": 324,
      "ĠJ": 325,
      "own": 326,
      "Ġinto": 327,
      "Ġtr": 328,
      "ide": 329,
      "est": 330,
      "ist": 331,
      "ast": 332,
      "Ġwhat": 333,
      "um": 334,
      "ers": 335,
      "ace": 336,
      "Ġwor": 337,
      "han": 338,
      "ĠP": 339,
      "Ġno": 340,
      "Ġdid": 341,
      "ĠL": 342,
      "em": 343,
      "Ġlike": 344,
      "Ġthem": 345,
      "ig": 346,
      "Ġbeen": 347,
      "ick": 348,
      "ol": 349,
      "Ġcom": 350,
      "Ġby": 351,
      "Ġag": 352,
      "Ġknow": 353,
      "ous": 354,
      "au": 355,
      "Ġabout": 356,
      "ell": 357,
      "Ġpl": 358,
      "Ġone": 359,
      "Ġcl": 360,
      "Ġun": 361,
      "ive": 362,
      "ven": 363,
      "Ġjust": 364,
      "Ġor": 365,
      "el": 366,
      "ĠG": 367,
      "very": 368,
      "Ġcan": 369,
      "Ġget": 370,
      "ra": 371,
      "ĠN": 372,
      "way": 373,
      "ong": 374,
      "op": 375,
      "Ġyour": 376,
      "ep": 377,
      "Ġwill": 378,
      "You": 379,
      "Ġtim": 380,
      "ink": 381,
      "Ġover": 382,
      "Ġif": 383,
      "ice": 384,
      "ov": 385,
      "ĠK": 386,
      "ĠIt": 387,
      "Ġthere": 388,
      "ake": 389,
      "are": 390,
      "round": 391,
      "Ġsp": 392,
      "ort": 393,
      "lf": 394,
      "Ġqu": 395,
      "pt": 396,
      "ry": 397,
      "urn": 398,
      "ked": 399,
      "Ġoff": 400,
      "Ġbl": 401,
      "Ġany": 402,
      "Ġsm": 403,
      "ame": 404,
      "Ġman": 405,
      "ity": 406,
      "ĠR": 407,
      "Ġdown": 408,
      "Ġsome": 409,
      "Ġpro": 410,
      "od": 411,
      "ĠO": 412,
      "Ġwho": 413,
      "Ġtheir": 414,
      "Ġtime": 415,
      "ther": 416,
      "ound": 417,
      "Ġwhen": 418,
      "ĠE": 419,
      "Ġthou": 420,
      "Ġro": 421,
      "Ġey": 422,
      "Ġhand": 423,
      "Ġus": 424,
      "Ġwant": 425,
      "Ġfl": 426,
      "Ġthen": 427,
      "ag": 428,
      "'m": 429,
      "Ġen": 430,
      "pl": 431,
      "ost": 432,
      "Ġtoo": 433,
      "ure": 434,
      "ond": 435,
      "ull": 436,
      "ile": 437,
      "Ġgr": 438,
      "Ġnow": 439,
      "ered": 440,
      "fore": 441,
      "ff": 442,
      "Ġagain": 443,
      "Ġhead": 444,
      "Ġsee": 445,
      "nt": 446,
      "ĠF": 447,
      "ite": 448,
      "Ġtw": 449,
      "ine": 450,
      "Ġother": 451,
      "itt": 452,
      "ass": 453,
      "Ġsay": 454,
      "dd": 455,
      "th": 456,
      "Ġsl": 457,
      "self": 458,
      "Ġar": 459,
      "Ġ_": 460,
      "Ġdis": 461,
      "led": 462,
      "ment": 463,
      "Ġbefore": 464,
      "Ġgoing": 465,
      "Ġaround": 466,
      "Ġmore": 467,
      "'d": 468,
      "ose": 469,
      "Ġthink": 470,
      "hi": 471,
      "av": 472,
      "reat": 473,
      "ect": 474,
      "Ġeyes": 475,
      "Ġim": 476,
      "Ġdon": 477,
      "alk": 478,
      "Ġcont": 479,
      "other": 480,
      "Ġhere": 481,
      "âĢ": 482,
      "ove": 483,
      "ĠIs": 484,
      "Ġbr": 485,
      "fter": 486,
      "ress": 487,
      "ble": 488,
      "ru": 489,
      "ies": 490,
      "able": 491,
      "omet": 492,
      "Ġam": 493,
      "Ġway": 494,
      "Ġsc": 495,
      "nder": 496,
      "Ġturn": 497,
      "ward": 498,
      "ich": 499,
      "ear": 500,
      "'re": 501,
      "act": 502,
      "rough": 503,
      "Ġonly": 504,
      "ious": 505,
      "ft": 506,
      "iz": 507,
      "ĠWe": 508,
      "Ġlooked": 509,
      "pped": 510,
      "ĠZ": 511,
      "ĠThey": 512,
      "Ġthrough": 513,
      "Ġhas": 514,
      "Ġbec": 515,
      "Ġpe": 516,
      "ave": 517,
      "Ġwat": 518,
      "Ġeven": 519,
      "ire": 520,
      "ĠAr": 521,
      "Ġright": 522,
      "'ll": 523,
      "Ġthan": 524,
      "Ġco": 525,
      "Ġneed": 526,
      "ap": 527,
      "ud": 528,
      "ied": 529,
      "Ġdidn": 530,
      "ance": 531,
      "Ġthought": 532,
      "Ġgl": 533,
      "ence": 534,
      "ovy": 535,
      "inovy": 536,
      "Ġevery": 537,
      "Ġhow": 538,
      "ated": 539,
      "cl": 540,
      "omething": 541,
      "Ġac": 542,
      "ree": 543,
      "ĠZinovy": 544,
      "Ġwhich": 545,
      "wn": 546,
      "oy": 547,
      "Ġmom": 548,
      "ted": 549,
      "Ġtwo": 550,
      "Ġour": 551,
      "ne": 552,
      "âĢĶ": 553,
      "Ġgu": 554,
      "Ġunder": 555,
      "Ġday": 556,
      "ark": 557,
      "Ġshould": 558,
      "ber": 559,
      "hen": 560,
      "Ġlong": 561,
      "ting": 562,
      "ened": 563,
      "len": 564,
      "ach": 565,
      "ue": 566,
      "iv": 567,
      "ps": 568,
      "Ġrem": 569,
      "Ġface": 570,
      "ning": 571,
      "Ġthing": 572,
      "Ġsha": 573,
      "Ġdoor": 574,
      "ock": 575,
      "ĠU": 576,
      "Ġapp": 577,
      "age": 578,
      "Ġstill": 579,
      "Ġres": 580,
      "Ġfir": 581,
      "Ġaway": 582,
      "ade": 583,
      "Ġsomething": 584,
      "ew": 585,
      "thing": 586,
      "lena": 587,
      "oc": 588,
      "Ġem": 589,
      "ared": 590,
      "Ġpr": 591,
      "ough": 592,
      "Ġgot": 593,
      "ause": 594,
      "ail": 595,
      "his": 596,
      "Ġafter": 597,
      "uck": 598,
      "Ġmu": 599,
      "Ġwhere": 600,
      "Ġlet": 601,
      "ai": 602,
      "Ġatt": 603,
      "'ve": 604,
      "ĠIslena": 605,
      "ian": 606,
      "ĠIn": 607,
      "Ġfirst": 608,
      "Ġho": 609,
      "ple": 610,
      "Ġop": 611,
      "Ġcall": 612,
      "lt": 613,
      "Ġpre": 614,
      "Ġgood": 615,
      "ss": 616,
      "Ġcha": 617,
      "ople": 618,
      "Ġwell": 619,
      "Ġstart": 620,
      "Ġasked": 621,
      "ched": 622,
      "Ġke": 623,
      "Ġroom": 624,
      "here": 625,
      "Ġmuch": 626,
      "ĠY": 627,
      "Ġwork": 628,
      "oin": 629,
      "ĠYou": 630,
      "ions": 631,
      "Ġsw": 632,
      "ged": 633,
      "te": 634,
      "Ġsur": 635,
      "ath": 636,
      "orm": 637,
      "side": 638,
      "Ġcome": 639,
      "Ġfeel": 640,
      "ĠBut": 641,
      "ittle": 642,
      "ather": 643,
      "ary": 644,
      "Ġpeople": 645,
      "ady": 646,
      "Ġhapp": 647,
      "Ġch": 648,
      "Ġwom": 649,
      "!\"": 650,
      "Ġlittle": 651,
      "ced": 652,
      "Ġbot": 653,
      "Ġpart": 654,
      "ase": 655,
      "Ġturned": 656,
      "Ġte": 657,
      "ouse": 658,
      "ving": 659,
      "Ġtell": 660,
      "Ġbeg": 661,
      "Ġnever": 662,
      "aking": 663,
      "ens": 664,
      "ident": 665,
      "ody": 666,
      "What": 667,
      "Ġbet": 668,
      "Ġdes": 669,
      "Ġmoment": 670,
      "Ġlif": 671,
      "Ġvo": 672,
      "Ġspe": 673,
      "Ġper": 674,
      "Ġmake": 675,
      "ere": 676,
      "per": 677,
      "Ġvery": 678,
      "Ġfo": 679,
      "ont": 680,
      "ub": 681,
      "Ġseem": 682,
      "row": 683,
      "ved": 684,
      "Ġknew": 685,
      "Ġmade": 686,
      "Ġtake": 687,
      "oss": 688,
      "hia": 689,
      "Ġtoward": 690,
      "Ġreal": 691,
      "ign": 692,
      "ish": 693,
      "ira": 694,
      "Ġche": 695,
      "Ġph": 696,
      "Ġleft": 697,
      "ying": 698,
      "Ġcou": 699,
      "Ġfind": 700,
      "Ġhar": 701,
      "Ġfin": 702,
      "Ġown": 703,
      "ans": 704,
      "ty": 705,
      "son": 706,
      "ise": 707,
      "ĠKira": 708,
      "ng": 709,
      "pect": 710,
      "ful": 711,
      "Ġact": 712,
      "ob": 713,
      "iss": 714,
      "so": 715,
      "ait": 716,
      "Ġnight": 717,
      "Ġbecause": 718,
      "xt": 719,
      "Ġarm": 720,
      "Ġwent": 721,
      "ĠMy": 722,
      "ci": 723,
      "Ġwhile": 724,
      "Ġent": 725,
      "Ġcar": 726,
      "Ġmind": 727,
      "Ġ'": 728,
      "Ġvoice": 729,
      "ling": 730,
      "Ġcame": 731,
      "Ġfelt": 732,
      "Ġsure": 733,
      "ĠAs": 734,
      "ross": 735,
      "Ġbeing": 736,
      "ord": 737,
      "Ġtook": 738,
      "az": 739,
      "co": 740,
      "ĠAnd": 741,
      "ually": 742,
      "Ġnew": 743,
      "ower": 744,
      "It": 745,
      "The": 746,
      "ears": 747,
      "ĠHis": 748,
      "ness": 749,
      "Ġits": 750,
      "ried": 751,
      "be": 752,
      "ang": 753,
      "Ġlast": 754,
      "Ġplace": 755,
      "Ġsec": 756,
      "Ġcle": 757,
      "Ġret": 758,
      "get": 759,
      "ating": 760,
      "Ġunt": 761,
      "Ġtalk": 762,
      "Ġend": 763,
      "Ġanother": 764,
      "end": 765,
      "ily": 766,
      "...\"": 767,
      "Ġreally": 768,
      "Ġbel": 769,
      "Ġmight": 770,
      "ĠSt": 771,
      "Ġfew": 772,
      "Ġfound": 773,
      "Ġpull": 774,
      "Ġhel": 775,
      "Ġput": 776,
      "ense": 777,
      "igh": 778,
      "less": 779,
      "rew": 780,
      "iff": 781,
      "Ġsaw": 782,
      "Ġad": 783,
      "ori": 784,
      "Ġlight": 785,
      "ĠThis": 786,
      "ip": 787,
      "ĠThat": 788,
      "Ġwoman": 789,
      "med": 790,
      "Ġthough": 791,
      "hind": 792,
      "ĠThere": 793,
      "Ġhands": 794,
      "Ġmust": 795,
      "llow": 796,
      "Ġdec": 797,
      "Ġwalk": 798,
      "ool": 799,
      "ane": 800,
      "hy": 801,
      "Ġbehind": 802,
      "dded": 803,
      "Ġstr": 804,
      "Ġboth": 805,
      "ner": 806,
      "ks": 807,
      "Ġcomp": 808,
      "ible": 809,
      "air": 810,
      "ale": 811,
      "We": 812,
      "ames": 813,
      "hes": 814,
      "Ġwasn": 815,
      "Ġev": 816,
      "ever": 817,
      "Ġwr": 818,
      "Ġimp": 819,
      "ual": 820,
      "Ġmay": 821,
      "aring": 822,
      "Ġass": 823,
      "ory": 824,
      "Ġrel": 825,
      "ah": 826,
      "Ġ*": 827,
      "Ġside": 828,
      "Ġchan": 829,
      "Ġlife": 830,
      "Ġbu": 831,
      "Ġlooking": 832,
      "irl": 833,
      "Ġbook": 834,
      "ĠAn": 835,
      "Ġob": 836,
      "Ġnext": 837,
      "Ġwait": 838,
      "Ġel": 839,
      "Ġhimself": 840,
      "Ġenough": 841,
      "Ġsmall": 842,
      "Ġrest": 843,
      "Ġtold": 844,
      "ĠWhen": 845,
      "ways": 846,
      "Ġconf": 847,
      "Ġuntil": 848,
      "Ġcr": 849,
      "Ġrepl": 850,
      "ict": 851,
      "ĠIf": 852,
      "Ġword": 853,
      "Ġmin": 854,
      "Ġsmil": 855,
      "Ġser": 856,
      "Ġkeep": 857,
      "Ġset": 858,
      "ering": 859,
      "ret": 860,
      "used": 861,
      "Ġbody": 862,
      "Ġdoes": 863,
      "gg": 864,
      "Ġquick": 865,
      "Ġbed": 866,
      "van": 867,
      "we": 868,
      "Ġwar": 869,
      "Ġcour": 870,
      "Ġmov": 871,
      "ical": 872,
      "Ġsays": 873,
      "Ġhard": 874,
      "les": 875,
      "Ġhelp": 876,
      "ons": 877,
      "iend": 878,
      "Ġ1": 879,
      "Ġlau": 880,
      "ater": 881,
      "Ġfriend": 882,
      "ee": 883,
      "ching": 884,
      "ned": 885,
      "Ġanything": 886,
      "Ġold": 887,
      "Ġgirl": 888,
      "erson": 889,
      "ably": 890,
      "mer": 891,
      "ince": 892,
      "Ġhome": 893,
      "ately": 894,
      "Ġsk": 895,
      "Ġcontin": 896,
      "arly": 897,
      "Ġalso": 898,
      "ert": 899,
      "Ġthose": 900,
      "ently": 901,
      "Ġsat": 902,
      "ĠV": 903,
      "Ġinst": 904,
      "Ġclos": 905,
      "Ġpoin": 906,
      "ĠThen": 907,
      "err": 908,
      "ully": 909,
      "ition": 910,
      "na": 911,
      "ors": 912,
      "resident": 913,
      "iver": 914,
      "ren": 915,
      "Ġworld": 916,
      "Ġagainst": 917,
      "Ġwater": 918,
      "Ġunderst": 919,
      "orio": 920,
      "Ġthings": 921,
      "ild": 922,
      "Ġdr": 923,
      "ised": 924,
      "Ġdark": 925,
      "ations": 926,
      "ys": 927,
      "No": 928,
      "day": 929,
      "oke": 930,
      "Ġmost": 931,
      "Ġinv": 932,
      "That": 933,
      "to": 934,
      "Ġhouse": 935,
      "Ġalways": 936,
      "Ġstood": 937,
      "ĠPresident": 938,
      "Ġnothing": 939,
      "Ġwanted": 940,
      "Ġboy": 941,
      "ĠLorio": 942,
      "Ġopen": 943,
      "Ġaw": 944,
      "Ġquest": 945,
      "Ġpass": 946,
      "Ġcomm": 947,
      "Ġbelie": 948,
      "most": 949,
      "Ġread": 950,
      "ves": 951,
      "Ġbreat": 952,
      "ained": 953,
      "Ġsil": 954,
      "Ġeach": 955,
      "Yes": 956,
      "ĠIvan": 957,
      "alked": 958,
      "Ġsound": 959,
      "Ġthese": 960,
      "Ġfollow": 961,
      "og": 962,
      "cess": 963,
      "rhia": 964,
      "ank": 965,
      "Ġwithout": 966,
      "Ġdist": 967,
      "Ġwhy": 968,
      "Ġheard": 969,
      "ĠJames": 970,
      "Ġmor": 971,
      "ars": 972,
      "Ġexp": 973,
      "ĠAl": 974,
      "ĠBr": 975,
      "Ġsame": 976,
      "ents": 977,
      "Ġseemed": 978,
      "Ġfront": 979,
      "ĠWhat": 980,
      "Ġcur": 981,
      "Ġstand": 982,
      "Ġhu": 983,
      "Ġonce": 984,
      "sw": 985,
      "Ġacross": 986,
      "Ġphone": 987,
      "Ġsmiled": 988,
      "rist": 989,
      "Ġrun": 990,
      "Ġthree": 991,
      "ĠAll": 992,
      "Ġnodded": 993,
      "ĠMyrhia": 994,
      "Ġreplied": 995,
      "Ġminut": 996,
      "ached": 997,
      "Ġair": 998,
      "Ġinf": 999,
      "ĠSo": 1000,
      "ready": 1001,
      "ĠAle": 1002,
      "Ġansw": 1003,
      "bed": 1004,
      "cept": 1005,
      "har": 1006,
      "Ġbegan": 1007,
      "ction": 1008,
      "Ġsle": 1009,
      "outh": 1010,
      "Ġmean": 1011,
      "ized": 1012,
      "Ġbre": 1013,
      "Ġdeep": 1014,
      "ĠUgh": 1015,
      "ia": 1016,
      "ony": 1017,
      "Ġever": 1018,
      "Ġherself": 1019,
      "ĠDav": 1020,
      "oor": 1021,
      "Ġsit": 1022,
      "Ġyears": 1023,
      "Ġcouldn": 1024,
      "Ġwind": 1025,
      "Ġresp": 1026,
      "Ġwond": 1027,
      "ream": 1028,
      "Ġsoon": 1029,
      "ec": 1030,
      "ĠGod": 1031,
      "Ġreturn": 1032,
      "ix": 1033,
      "Ġsupp": 1034,
      "Ġexpl": 1035,
      "ier": 1036,
      "pr": 1037,
      "Ġalmost": 1038,
      "Ġalready": 1039,
      "Ġcare": 1040,
      "iet": 1041,
      "Ġsn": 1042,
      "Ġblood": 1043,
      "oud": 1044,
      "He": 1045,
      "Ġbit": 1046,
      "ention": 1047,
      "aught": 1048,
      "ial": 1049,
      "Ġmeet": 1050,
      "ings": 1051,
      "Ġsto": 1052,
      "Ġfeet": 1053,
      "Ġgive": 1054,
      "ĠHer": 1055,
      "aw": 1056,
      "ĠKate": 1057,
      "ĠDavid": 1058,
      "Ġbo": 1059,
      "Ġhour": 1060,
      "amp": 1061,
      "Ġelse": 1062,
      "ib": 1063,
      "ished": 1064,
      "ult": 1065,
      "Ġmat": 1066,
      "Ġask": 1067,
      "Ġposs": 1068,
      "ired": 1069,
      "Ġdiff": 1070,
      "Ġvis": 1071,
      "Ġstarted": 1072,
      "Ġdone": 1073,
      "ided": 1074,
      "chie": 1075,
      "hu": 1076,
      "Ġdisc": 1077,
      "ĠArm": 1078,
      "Ġmorning": 1079,
      "Ġchi": 1080,
      "Ġhair": 1081,
      "Ġdoing": 1082,
      "Ġlove": 1083,
      "Ġkill": 1084,
      "Ġtrying": 1085,
      "Ġste": 1086,
      "ĠNow": 1087,
      "ued": 1088,
      "aced": 1089,
      "Ġshow": 1090,
      "Ġslow": 1091,
      "the": 1092,
      "up": 1093,
      "Ġfar": 1094,
      "Ġpower": 1095,
      "Ġrep": 1096,
      "ek": 1097,
      "Ġhum": 1098,
      "ĠMr": 1099,
      "ax": 1100,
      "ef": 1101,
      "Ġcor": 1102,
      "Ġcourse": 1103,
      "Ġalong": 1104,
      "Ġmen": 1105,
      "Ġhold": 1106,
      "Ġdire": 1107,
      "Ġeverything": 1108,
      "ening": 1109,
      "ces": 1110,
      "Ġsmile": 1111,
      "iously": 1112,
      "Ġple": 1113,
      "Well": 1114,
      "andy": 1115,
      "Ġgreat": 1116,
      "Ġdef": 1117,
      "ount": 1118,
      "Ġinc": 1119,
      "Ġmany": 1120,
      "ured": 1121,
      "Ġca": 1122,
      "Ġupon": 1123,
      "Ġbig": 1124,
      "umb": 1125,
      "Ġclose": 1126,
      "Ġbetter": 1127,
      "eral": 1128,
      "Ġpick": 1129,
      "Ġremem": 1130,
      "ric": 1131,
      "Ġsim": 1132,
      "Ġrec": 1133,
      "ither": 1134,
      "Ġpain": 1135,
      "Ġinter": 1136,
      "Ġsince": 1137,
      "Ġplan": 1138,
      "Ġsuch": 1139,
      "ĠOne": 1140,
      "ĠDavidson": 1141,
      "kay": 1142,
      "Ġdra": 1143,
      "Ġgetting": 1144,
      "fully": 1145,
      "irit": 1146,
      "aihu": 1147,
      "ni": 1148,
      "ĠJer": 1149,
      "Ġcoming": 1150,
      "Ġunderstand": 1151,
      "Ġsecond": 1152,
      "Ġblack": 1153,
      "Ġmove": 1154,
      "inda": 1155,
      "vers": 1156,
      "mb": 1157,
      "pping": 1158,
      "Ġchild": 1159,
      "Ġhear": 1160,
      "Ġperson": 1161,
      "nce": 1162,
      "ash": 1163,
      "Ġins": 1164,
      "Ġgave": 1165,
      "Ġpres": 1166,
      "Ġcons": 1167,
      "Ġleast": 1168,
      "Ġpulled": 1169,
      "Ġonto": 1170,
      "Ġcalled": 1171,
      "Ġdro": 1172,
      "vel": 1173,
      "Oh": 1174,
      "Ġlater": 1175,
      "Ġref": 1176,
      "uth": 1177,
      "Ġtre": 1178,
      "Ġpur": 1179,
      "Ġgone": 1180,
      "Ġname": 1181,
      "Ġacc": 1182,
      "Ġquickly": 1183,
      "ertain": 1184,
      "Ġdri": 1185,
      "ween": 1186,
      "Ġwalked": 1187,
      "Ġpus": 1188,
      "Ġfam": 1189,
      "Ġwall": 1190,
      "ĠMandy": 1191,
      "gether": 1192,
      "Ġlot": 1193,
      "ĠAd": 1194,
      "Ġothers": 1195,
      "aden": 1196,
      "Ġbetween": 1197,
      "Ġord": 1198,
      "Ġdays": 1199,
      "Ġyet": 1200,
      "itting": 1201,
      "And": 1202,
      "Ġsch": 1203,
      "Ġbus": 1204,
      "Ġleave": 1205,
      "ped": 1206,
      "Ġinside": 1207,
      "ike": 1208,
      "pter": 1209,
      "Ġeye": 1210,
      "Ġtowards": 1211,
      "mit": 1212,
      "ĠAfter": 1213,
      "Ġseen": 1214,
      "Ġreg": 1215,
      "Ġtak": 1216,
      "ger": 1217,
      "Ġmet": 1218,
      "bably": 1219,
      "uri": 1220,
      "Ġmon": 1221,
      "Ġstay": 1222,
      "Ġfloor": 1223,
      "Ġfore": 1224,
      "ically": 1225,
      "Ġfinally": 1226,
      "Ġheld": 1227,
      "dden": 1228,
      "Ġplay": 1229,
      "part": 1230,
      "reet": 1231,
      "eared": 1232,
      "Ġsomeone": 1233,
      "So": 1234,
      "oe": 1235,
      "Ġgaz": 1236,
      "ĠHow": 1237,
      "Ġhope": 1238,
      "Ġpoint": 1239,
      "br": 1240,
      "Ġoutside": 1241,
      "Ġpast": 1242,
      "ason": 1243,
      "Ġbelieve": 1244,
      "Ġfall": 1245,
      "ĠDor": 1246,
      "uss": 1247,
      "**": 1248,
      "Ġtogether": 1249,
      "Ġcat": 1250,
      "Ġcomple": 1251,
      "aux": 1252,
      "arent": 1253,
      "tle": 1254,
      "Ġspirit": 1255,
      "Ġtable": 1256,
      "Ġheart": 1257,
      "room": 1258,
      "ĠCh": 1259,
      "Ġmouth": 1260,
      "ĠWh": 1261,
      "Ġcoll": 1262,
      "Ġra": 1263,
      "Ġground": 1264,
      "Ġdem": 1265,
      "Ġquiet": 1266,
      "Ġkind": 1267,
      "ined": 1268,
      "Ġexpect": 1269,
      "ĠArchie": 1270,
      "Ġsleep": 1271,
      "Ġes": 1272,
      "Ġwords": 1273,
      "Ġeas": 1274,
      "Ġminutes": 1275,
      "Ġfact": 1276,
      "irt": 1277,
      "Ġprot": 1278,
      "Ġtried": 1279,
      "Ġmother": 1280,
      "Ġyoung": 1281,
      "Ġhappened": 1282,
      "ĠDoraux": 1283,
      "aut": 1284,
      "Ġuse": 1285,
      "ĠGen": 1286,
      "ĠNo": 1287,
      "Ġsurpr": 1288,
      "Ġschool": 1289,
      "Ġable": 1290,
      "Ġexc": 1291,
      "Ġused": 1292,
      "Ġquestion": 1293,
      "ĠLu": 1294,
      "ins": 1295,
      "ject": 1296,
      "reen": 1297,
      "Ġdet": 1298,
      "Ġarms": 1299,
      "ien": 1300,
      "Ġwithin": 1301,
      "Ġdead": 1302,
      "ĠYuri": 1303,
      "Ġstopped": 1304,
      "Ġide": 1305,
      "Ġshook": 1306,
      "king": 1307,
      "ara": 1308,
      "ited": 1309,
      "Ġwatched": 1310,
      "ĠArminda": 1311,
      "ters": 1312,
      "Ġbreath": 1313,
      "empt": 1314,
      "ung": 1315,
      "idd": 1316,
      "Ġallow": 1317,
      "ten": 1318,
      "Ġ2": 1319,
      "Ġprobably": 1320,
      "Ġmoved": 1321,
      "How": 1322,
      "Ġlist": 1323,
      "ates": 1324,
      "Ġcheck": 1325,
      "Ġran": 1326,
      "Ġdel": 1327,
      "Ġcut": 1328,
      "Ġhigh": 1329,
      "eah": 1330,
      "Ã©": 1331,
      "But": 1332,
      "Ġsense": 1333,
      "Ġhalf": 1334,
      "Ġhor": 1335,
      "Ġlead": 1336,
      "where": 1337,
      "ery": 1338,
      "Ġreached": 1339,
      "ility": 1340,
      "Ġsoft": 1341,
      "ĠJerhia": 1342,
      "kse": 1343,
      "Ġind": 1344,
      "ksei": 1345,
      "Ġsub": 1346,
      "Ġstop": 1347,
      "uring": 1348,
      "Ġfing": 1349,
      "haps": 1350,
      "medi": 1351,
      "ĠFor": 1352,
      "Ġcontinued": 1353,
      "ead": 1354,
      "Ġsign": 1355,
      "ĠCar": 1356,
      "Ġfather": 1357,
      "ize": 1358,
      "cc": 1359,
      "gged": 1360,
      "ressed": 1361,
      "blem": 1362,
      "Ġfur": 1363,
      "Ġbuild": 1364,
      "ĠAleksei": 1365,
      "Ġnear": 1366,
      "Ġdiffere": 1367,
      "aren": 1368,
      "Ġwhite": 1369,
      "Ġgrab": 1370,
      "tered": 1371,
      "ĠAt": 1372,
      "Ġglan": 1373,
      "cy": 1374,
      "itch": 1375,
      "uff": 1376,
      "Ġtaking": 1377,
      "ĠWith": 1378,
      "ton": 1379,
      "Ġwindow": 1380,
      "ĠâĢ": 1381,
      "Ġstud": 1382,
      "Ġproblem": 1383,
      "ĠâĢĵ": 1384,
      "Ġimmedi": 1385,
      "Ġremember": 1386,
      "ĠTony": 1387,
      "ĠBraden": 1388,
      "ny": 1389,
      "Ġsqu": 1390,
      "ĠAdam": 1391,
      "Ġdoesn": 1392,
      "fort": 1393,
      "Ġbest": 1394,
      "ristan": 1395,
      "Ġcertain": 1396,
      "Ġbar": 1397,
      "Ġred": 1398,
      "ĠDane": 1399,
      "Ġtalking": 1400,
      "Ġtri": 1401,
      "oter": 1402,
      "Ġslight": 1403,
      "Ġguess": 1404,
      "Ġear": 1405,
      "ĠTh": 1406,
      "Ġsudden": 1407,
      "Ġreason": 1408,
      "Ġconc": 1409,
      "Ġbeaut": 1410,
      "Ġed": 1411,
      "Ġbad": 1412,
      "ĠTristan": 1413,
      "ression": 1414,
      "erest": 1415,
      "Ġslowly": 1416,
      "Ġcount": 1417,
      "Ġready": 1418,
      "ĠCaren": 1419,
      "Ġeff": 1420,
      "ĠSco": 1421,
      "alm": 1422,
      "ĠJack": 1423,
      "ĠLuke": 1424,
      "oney": 1425,
      "Ġfull": 1426,
      "osed": 1427,
      "iced": 1428,
      "Ġsens": 1429,
      "ĠJo": 1430,
      "Ġcontro": 1431,
      "Ġfood": 1432,
      "Ġopened": 1433,
      "Ġchar": 1434,
      "Ġpar": 1435,
      "Ġsaf": 1436,
      "Ġsun": 1437,
      "overed": 1438,
      "Ġlost": 1439,
      "Ġwon": 1440,
      "ĠNe": 1441,
      "ĠUn": 1442,
      "lan": 1443,
      "otion": 1444,
      "Ġele": 1445,
      "Ġago": 1446,
      "Ġneeded": 1447,
      "Ġspoke": 1448,
      "ĠFr": 1449,
      "Ġpol": 1450,
      "gs": 1451,
      "Ġsitting": 1452,
      "Ġbro": 1453,
      "Ġtop": 1454,
      "vis": 1455,
      "erg": 1456,
      "aned": 1457,
      "ĠNot": 1458,
      "Ġfeeling": 1459,
      "head": 1460,
      "Ġquite": 1461,
      "Ġidea": 1462,
      "ĠScooter": 1463,
      "not": 1464,
      "Ġactually": 1465,
      "Ġlar": 1466,
      "Ġland": 1467,
      "hapter": 1468,
      "ĠLe": 1469,
      "Ġ(": 1470,
      "Ġcity": 1471,
      "This": 1472,
      "Ġfight": 1473,
      "ĠCon": 1474,
      "Ġ.": 1475,
      "Ġfour": 1476,
      "Ġlooks": 1477,
      "Ġoffice": 1478,
      "Ġinterest": 1479,
      "app": 1480,
      "aged": 1481,
      "Ġguy": 1482,
      "Ġmaking": 1483,
      "Why": 1484,
      "Ġtoday": 1485,
      "Ġcomplete": 1486,
      "als": 1487,
      "erv": 1488,
      "orry": 1489,
      "Ġeither": 1490,
      "Ġdeath": 1491,
      "anor": 1492,
      "ster": 1493,
      "Ġbreak": 1494,
      "Ġhadn": 1495,
      "clud": 1496,
      "Ġmatter": 1497,
      "Ġarri": 1498,
      "oun": 1499,
      "Ġext": 1500,
      "##": 1501,
      "Ġfire": 1502,
      "Ġpat": 1503,
      "rief": 1504,
      "Ġeveryone": 1505,
      "ĠSec": 1506,
      "Ġmiss": 1507,
      "aving": 1508,
      "Ġappro": 1509,
      "Ġdecided": 1510,
      "Ġwhis": 1511,
      "ghed": 1512,
      "hal": 1513,
      "veral": 1514,
      "Ġshort": 1515,
      "Ġdifferent": 1516,
      "Ġbur": 1517,
      "Ġpos": 1518,
      "Ġhaving": 1519,
      "man": 1520,
      "Ġloc": 1521,
      "ants": 1522,
      "Ġimmediately": 1523,
      "Ġthinking": 1524,
      "Ġhours": 1525,
      "Ġunc": 1526,
      "Ġbecome": 1527,
      "Ġgaze": 1528,
      "Yeah": 1529,
      "by": 1530,
      "iven": 1531,
      "ken": 1532,
      "ĠBar": 1533,
      "enry": 1534,
      "Ġhur": 1535,
      "ased": 1536,
      "ĠDen": 1537,
      "If": 1538,
      "ures": 1539,
      "Ġsy": 1540,
      "Ġstra": 1541,
      "Ġalone": 1542,
      "Ġshad": 1543,
      "ĠMar": 1544,
      "Ġshoulder": 1545,
      "Ġappeared": 1546,
      "Ġsou": 1547,
      "Ġfive": 1548,
      "Ġwouldn": 1549,
      "Ġapart": 1550,
      "ĠSam": 1551,
      "Ġfamily": 1552,
      "night": 1553,
      "oon": 1554,
      "Ġdou": 1555,
      "aybe": 1556,
      "ĠCam": 1557,
      "errick": 1558,
      "Ġcouple": 1559,
      "Ġforward": 1560,
      "Ġtry": 1561,
      "rupt": 1562,
      "Ġchair": 1563,
      "Ġtaken": 1564,
      "Ġfig": 1565,
      "itc": 1566,
      "Ġform": 1567,
      "ĠDmit": 1568,
      "cing": 1569,
      "tern": 1570,
      "Ġsitu": 1571,
      "Ġdirect": 1572,
      "era": 1573,
      "Ġdam": 1574,
      "Do": 1575,
      "inch": 1576,
      "ĠHenry": 1577,
      "Ġanyone": 1578,
      "Ġinvol": 1579,
      "ative": 1580,
      "ĠPoe": 1581,
      "endaihu": 1582,
      "mor": 1583,
      "Ġjob": 1584,
      "unch": 1585,
      "ĠDerrick": 1586,
      "ĠJust": 1587,
      "Ġlarge": 1588,
      "iness": 1589,
      "Ġfill": 1590,
      "Ġmil": 1591,
      "antly": 1592,
      "ular": 1593,
      "Ġpa": 1594,
      "Ġlay": 1595,
      "ution": 1596,
      "Ġseveral": 1597,
      "Ġcontrol": 1598,
      "gn": 1599,
      "ply": 1600,
      "Ġenc": 1601,
      "anger": 1602,
      "Ġwound": 1603,
      "Ġmar": 1604,
      "Ġhall": 1605,
      "land": 1606,
      "read": 1607,
      "iew": 1608,
      "Ġwhole": 1609,
      "airs": 1610,
      "ĠBe": 1611,
      "Ġbring": 1612,
      "Ġentire": 1613,
      "Ġanswer": 1614,
      "Ġglanced": 1615,
      "aces": 1616,
      "yge": 1617,
      "ygeanor": 1618,
      "ging": 1619,
      "Ġbegin": 1620,
      "Ġperf": 1621,
      "Ġprotect": 1622,
      "its": 1623,
      "Ġwaiting": 1624,
      "Ġten": 1625,
      "Ġstep": 1626,
      "Ġmyself": 1627,
      "Ġlaughed": 1628,
      "ĠJackson": 1629,
      "ĠMendaihu": 1630,
      "Ġoffic": 1631,
      "Ġwomen": 1632,
      "ĠDmitri": 1633,
      "Ġtou": 1634,
      "Ġattempt": 1635,
      "aleb": 1636,
      "Ġfriends": 1637,
      "ime": 1638,
      "Ġstreet": 1639,
      "rought": 1640,
      "Ġlaugh": 1641,
      "ipped": 1642,
      "ract": 1643,
      "ingly": 1644,
      "Ġattack": 1645,
      "Ġbes": 1646,
      "Ġrather": 1647,
      "mm": 1648,
      "ts": 1649,
      "Ġcent": 1650,
      "Ġhell": 1651,
      "Ġreco": 1652,
      "Ġstru": 1653,
      "Ġinform": 1654,
      "Ġve": 1655,
      "lled": 1656,
      "ange": 1657,
      "Ġhuman": 1658,
      "Ġkiss": 1659,
      "ocked": 1660,
      "Ġver": 1661,
      "omm": 1662,
      "Ġfrown": 1663,
      "oth": 1664,
      "iding": 1665,
      "Ġclosed": 1666,
      "Ġcra": 1667,
      "Ġfuck": 1668,
      "sed": 1669,
      "ities": 1670,
      "Ġdest": 1671,
      "ĠArt": 1672,
      "Ġattention": 1673,
      "ĠGr": 1674,
      "Ġimag": 1675,
      "Ġpret": 1676,
      "Ġwrong": 1677,
      "inchon": 1678,
      "Ġcase": 1679,
      "Ġfree": 1680,
      "ĠSara": 1681,
      "ĠChapter": 1682,
      "Ġnat": 1683,
      "Ġspeak": 1684,
      "Ġevent": 1685,
      "Ġsent": 1686,
      "erm": 1687,
      "Ġ\"...": 1688,
      "sel": 1689,
      "ird": 1690,
      "ief": 1691,
      "ards": 1692,
      "ump": 1693,
      "Ġtimes": 1694,
      "Ġfollowed": 1695,
      "Ġsituation": 1696,
      "ho": 1697,
      "ern": 1698,
      "Ġfun": 1699,
      "Ġmus": 1700,
      "ĠSygeanor": 1701,
      "Ġswe": 1702,
      "Ġhot": 1703,
      "ides": 1704,
      "ĠPinchon": 1705,
      "Ġbuilding": 1706,
      "enty": 1707,
      "Ġstanding": 1708,
      "Ġpossible": 1709,
      "Ġsuddenly": 1710,
      "Ġdrink": 1711,
      "Ġprom": 1712,
      "ailed": 1713,
      "There": 1714,
      "ape": 1715,
      "Ġcross": 1716,
      "irc": 1717,
      "ĠCaleb": 1718,
      "ene": 1719,
      "Ġexper": 1720,
      "Ġsaying": 1721,
      "Ġpri": 1722,
      "Ġfell": 1723,
      "ĠRub": 1724,
      "Ġbrought": 1725,
      "Ġcreat": 1726,
      "Ġworking": 1727,
      "Ġexpression": 1728,
      "halÃ©": 1729,
      "ience": 1730,
      "Ġbrief": 1731,
      "ĠOn": 1732,
      "They": 1733,
      "She": 1734,
      "body": 1735,
      "hn": 1736,
      "Ġarea": 1737,
      "Ġgrow": 1738,
      "Ġsoul": 1739,
      "Is": 1740,
      "Ġrealized": 1741,
      "reed": 1742,
      "Ġocc": 1743,
      "Ġshru": 1744,
      "inai": 1745,
      "Ġsix": 1746,
      "ĠAJ": 1747,
      "Ġjoin": 1748,
      "joy": 1749,
      "Ġtrans": 1750,
      "umas": 1751,
      "Ġglass": 1752,
      "Ġparty": 1753,
      "Ġwarm": 1754,
      "Ġpretty": 1755,
      "ient": 1756,
      "Ġrequ": 1757,
      "isted": 1758,
      "Ġfoot": 1759,
      "Ġcold": 1760,
      "Ġgrou": 1761,
      "ife": 1762,
      "Ġlips": 1763,
      "Ġsilence": 1764,
      "Ġkid": 1765,
      "aining": 1766,
      "Ġcol": 1767,
      "iving": 1768,
      "me": 1769,
      "Ġdisapp": 1770,
      "Ġwatching": 1771,
      "Ġobv": 1772,
      "Ġcommand": 1773,
      "ines": 1774,
      "Ġcamp": 1775,
      "ister": 1776,
      "Ġnoticed": 1777,
      "ific": 1778,
      "ield": 1779,
      "Ġrespond": 1780,
      "Ġadd": 1781,
      "Ġopp": 1782,
      "ĠCl": 1783,
      "ĠArinai": 1784,
      "Ġcaught": 1785,
      "Ġhop": 1786,
      "Ġconst": 1787,
      "Ġenerg": 1788,
      "00": 1789,
      "akes": 1790,
      "Ġsho": 1791,
      "ĠOh": 1792,
      "Ġbecame": 1793,
      "Ġsimply": 1794,
      "Ġesc": 1795,
      "ute": 1796,
      "aby": 1797,
      "Ġtrue": 1798,
      "Ġdesp": 1799,
      "Ġmess": 1800,
      "Ġloud": 1801,
      "Ġseat": 1802,
      "oved": 1803,
      "Ġblue": 1804,
      "Ġsorry": 1805,
      "Ġgiven": 1806,
      "Ġwatch": 1807,
      "Ġchest": 1808,
      "gar": 1809,
      "Ġgen": 1810,
      "ush": 1811,
      "gr": 1812,
      "._": 1813,
      "Ġaff": 1814,
      "Ġokay": 1815,
      "Ġparent": 1816,
      "Ġless": 1817,
      "ĠDo": 1818,
      "Ġkept": 1819,
      "Ġdoub": 1820,
      "Ġmoney": 1821,
      "ĠNehalÃ©": 1822,
      "Ġang": 1823,
      "Ġfear": 1824,
      "aves": 1825,
      "Ġtight": 1826,
      "ets": 1827,
      "Ġshot": 1828,
      "ude": 1829,
      "ĠMet": 1830,
      "Ġliving": 1831,
      "Ġenjoy": 1832,
      "Ġgrin": 1833,
      "cial": 1834,
      "Ġmaybe": 1835,
      "Ġwonder": 1836,
      "ex": 1837,
      "Ġsus": 1838,
      "Ġpap": 1839,
      "Ġline": 1840,
      "Ġlive": 1841,
      "Ġclass": 1842,
      "Ġbrother": 1843,
      "ĠArtumas": 1844,
      "ison": 1845,
      "Ġdin": 1846,
      "Not": 1847,
      "Ġwood": 1848,
      "Ġcre": 1849,
      "iful": 1850,
      "Ġchange": 1851,
      "ĠGeneral": 1852,
      "Ġsort": 1853,
      "llen": 1854,
      "Ġabove": 1855,
      "ĠSecret": 1856,
      "ored": 1857,
      "Ġheav": 1858,
      "Ġeat": 1859,
      "ĠMax": 1860,
      "Ġroad": 1861,
      "Ġhappy": 1862,
      "umber": 1863,
      "ĠEric": 1864,
      "Ġthoughts": 1865,
      "Ġlonger": 1866,
      "Ġpushed": 1867,
      "Than": 1868,
      "orn": 1869,
      "Ġstory": 1870,
      "Ġclear": 1871,
      "ggest": 1872,
      "how": 1873,
      "light": 1874,
      "Ġtruth": 1875,
      "ĠHouse": 1876,
      "adi": 1877,
      "ĠMore": 1878,
      "Ġexact": 1879,
      "orth": 1880,
      "Ġreturned": 1881,
      "itchen": 1882,
      "Ġinclud": 1883,
      "Ġsuggest": 1884,
      "clock": 1885,
      "Ġtown": 1886,
      "Ġduring": 1887,
      "irty": 1888,
      "Ġkitchen": 1889,
      "Ġstraight": 1890,
      "use": 1891,
      "Ġnice": 1892,
      "ĠMitch": 1893,
      "ĠBill": 1894,
      "Ġcloser": 1895,
      "Ġslightly": 1896,
      "Ġmis": 1897,
      "Ġlate": 1898,
      "ĠJohn": 1899,
      "ĠMetoc": 1900,
      "Ġled": 1901,
      "ĠWhy": 1902,
      "though": 1903,
      "Ġcompan": 1904,
      "Ġparents": 1905,
      "ĠMetocan": 1906,
      "arth": 1907,
      "Ġsafe": 1908,
      "bing": 1909,
      "cri": 1910,
      "Ġmain": 1911,
      "Ġgro": 1912,
      "vern": 1913,
      "ues": 1914,
      "arch": 1915,
      "Ġneck": 1916,
      "Ġlear": 1917,
      "Ġheaded": 1918,
      "Ġtrees": 1919,
      "old": 1920,
      "Ġ...": 1921,
      "Ġtruck": 1922,
      "Ġbright": 1923,
      "Ġgroup": 1924,
      "aim": 1925,
      "ches": 1926,
      "sh": 1927,
      "ĠSu": 1928,
      "Ġpicked": 1929,
      "Ġwalking": 1930,
      "Ġenergy": 1931,
      "but": 1932,
      "Ġfine": 1933,
      "Ġprep": 1934,
      "Ġbooks": 1935,
      "Ġshut": 1936,
      "Ġfingers": 1937,
      "ze": 1938,
      "Ġdad": 1939,
      "Ġabs": 1940,
      "ected": 1941,
      "ĠDenni": 1942,
      "selves": 1943,
      "Ġterr": 1944,
      "Ġlab": 1945,
      "ator": 1946,
      "Ġann": 1947,
      "ement": 1948,
      "Ġdemand": 1949,
      "ias": 1950,
      "Ġav": 1951,
      "Ġsick": 1952,
      "Ġstrong": 1953,
      "Ġmonth": 1954,
      "Ġcompletely": 1955,
      "Ġbeside": 1956,
      "du": 1957,
      "ashed": 1958,
      "Ġsex": 1959,
      "usion": 1960,
      "Ġteam": 1961,
      "ĠCarter": 1962,
      "Ġshadow": 1963,
      "ments": 1964,
      "vent": 1965,
      "ination": 1966,
      "nding": 1967,
      "lease": 1968,
      "Ġdeal": 1969,
      "pered": 1970,
      "ĠEven": 1971,
      "Ġcond": 1972,
      "Ġprov": 1973,
      "Ġbare": 1974,
      "Ġpay": 1975,
      "ĠTo": 1976,
      "Don": 1977,
      "Ġ3": 1978,
      "Ġwee": 1979,
      "Ġtrust": 1980,
      "My": 1981,
      "ham": 1982,
      "Ġradi": 1983,
      "Ġconvers": 1984,
      "Ġnews": 1985,
      "ior": 1986,
      "Ġcry": 1987,
      "ified": 1988,
      "Ġcoff": 1989,
      "Ġign": 1990,
      "Ġhung": 1991,
      "Ġshout": 1992,
      "Ġguys": 1993,
      "Ġpassed": 1994,
      "inally": 1995,
      "Ġnumber": 1996,
      "Ġyes": 1997,
      "ĠMat": 1998,
      "ĠChar": 1999,
      "ĠDar": 2000,
      "Ġview": 2001,
      "Ġvisit": 2002,
      "la": 2003,
      "Ġstate": 2004,
      "Ġscream": 2005,
      "Ġmeeting": 2006,
      "aff": 2007,
      "Ġdanger": 2008,
      "ians": 2009,
      "Ġsurv": 2010,
      ",_": 2011,
      "ming": 2012,
      "ĠâĢĶ": 2013,
      "Ġsig": 2014,
      "ask": 2015,
      "Ġsol": 2016,
      "Ġraised": 2017,
      "Ġbag": 2018,
      "eth": 2019,
      "ains": 2020,
      "Ġhit": 2021,
      "Ġanyway": 2022,
      "nded": 2023,
      "ĠSome": 2024,
      "Ġriver": 2025,
      "ĠBer": 2026,
      "Ġsuff": 2027,
      "Ġleaving": 2028,
      "meric": 2029,
      "Ġir": 2030,
      "Ġmeant": 2031,
      "ection": 2032,
      "Ġstared": 2033,
      "ift": 2034,
      "Ġinstead": 2035,
      "Ġfurther": 2036,
      "Ġposition": 2037,
      "Ġbaby": 2038,
      "Ġlo": 2039,
      "Ġthr": 2040,
      "ices": 2041,
      "hip": 2042,
      "Ġstepped": 2043,
      "ĠAmeric": 2044,
      "Ġclot": 2045,
      "Ġyourself": 2046,
      "Ġrock": 2047,
      "ĠInos": 2048,
      "Ġholding": 2049,
      "off": 2050,
      "Ġcrow": 2051,
      "Ġreact": 2052,
      "Ġisn": 2053,
      "ĠRuss": 2054,
      "Ġbeautiful": 2055,
      "ider": 2056,
      "ives": 2057,
      "Ġreading": 2058,
      "Ġchildren": 2059,
      "Ġsuc": 2060,
      "Ġfinished": 2061,
      "Ġobs": 2062,
      "Okay": 2063,
      "Ġbat": 2064,
      "Ġaccept": 2065,
      "ived": 2066,
      "lic": 2067,
      "Ġtree": 2068,
      "Ġsight": 2069,
      "ĠLight": 2070,
      "Ġhappen": 2071,
      "Ġdesk": 2072,
      "nik": 2073,
      "Ġorder": 2074,
      "Ġedge": 2075,
      "Ġtonight": 2076,
      "Ġlow": 2077,
      "ctor": 2078,
      "'_": 2079,
      "Ġtor": 2080,
      "ĠEvery": 2081,
      "ĠElan": 2082,
      "Ġmoving": 2083,
      "Ġla": 2084,
      "ushed": 2085,
      "oned": 2086,
      "Let": 2087,
      "hnik": 2088,
      "arvis": 2089,
      "cted": 2090,
      "unt": 2091,
      "Ġworry": 2092,
      "ively": 2093,
      "ĠCol": 2094,
      "Ġboys": 2095,
      "Ġrunning": 2096,
      "Ġsighed": 2097,
      "Ġtears": 2098,
      "Ġpo": 2099,
      "Ġskin": 2100,
      "Ġson": 2101,
      "Ġlim": 2102,
      "Ġconv": 2103,
      "Ġcho": 2104,
      "Ġdraw": 2105,
      "Ġquietly": 2106,
      "Ġapartment": 2107,
      "clay": 2108,
      "Ġcirc": 2109,
      "Ġpict": 2110,
      "Ġstore": 2111,
      "Ġperhaps": 2112,
      "Ġthreat": 2113,
      "ĠWell": 2114,
      "Ġgrass": 2115,
      "ĠChrist": 2116,
      "ously": 2117,
      "Ġsurprised": 2118,
      "iddle": 2119,
      "cious": 2120,
      "ph": 2121,
      "aster": 2122,
      "imes": 2123,
      "Ġweek": 2124,
      "Ġforg": 2125,
      "ĠPro": 2126,
      "Ġfrowned": 2127,
      "Ġtomor": 2128,
      "ili": 2129,
      "ĠJarvis": 2130,
      "Ġexactly": 2131,
      "Ġtomorrow": 2132,
      "onse": 2133,
      "Ġyear": 2134,
      "Ġcannot": 2135,
      "Ġpartic": 2136,
      "Ġregard": 2137,
      "ev": 2138,
      "yond": 2139,
      "Ġahead": 2140,
      "Ġdev": 2141,
      "cially": 2142,
      "Ġwhispered": 2143,
      "ndred": 2144,
      "Ġcalm": 2145,
      "Ġdream": 2146,
      "Ġchance": 2147,
      "Ġsky": 2148,
      "Ġgrabbed": 2149,
      "ĠBarclay": 2150,
      "Ġconversation": 2151,
      "tled": 2152,
      "Ġhang": 2153,
      "Ġearly": 2154,
      "Ġthro": 2155,
      "ĠFinally": 2156,
      "ails": 2157,
      "Ġdoubt": 2158,
      "Ġcoffee": 2159,
      "Ġrub": 2160,
      "Ġgets": 2161,
      "ĠIshnik": 2162,
      "Ġsoftly": 2163,
      "Ġ-": 2164,
      "Ġbath": 2165,
      "Ġmount": 2166,
      "urity": 2167,
      "Ġreport": 2168,
      "aj": 2169,
      "bs": 2170,
      "Ġnearly": 2171,
      "Ġknown": 2172,
      "ĠPer": 2173,
      "Ġpresence": 2174,
      "well": 2175,
      "Ġyell": 2176,
      "acy": 2177,
      "Ġcomfort": 2178,
      "Ġspot": 2179,
      "Ġphys": 2180,
      "Ġdirection": 2181,
      "Ġrecogn": 2182,
      "ĠSecretary": 2183,
      "Ġaf": 2184,
      "Ġhon": 2185,
      "Ġgreen": 2186,
      "Ġcontact": 2187,
      "Ġresponse": 2188,
      "Where": 2189,
      "tic": 2190,
      "Ġfast": 2191,
      "Ġgently": 2192,
      "Ġleaned": 2193,
      "Ġ**": 2194,
      "ĠGrace": 2195,
      "ĠBerry": 2196,
      "Good": 2197,
      "ought": 2198,
      "ising": 2199,
      "itary": 2200,
      "acing": 2201,
      "Ġwondered": 2202,
      "Ġallowed": 2203,
      "inger": 2204,
      "Ġanim": 2205,
      "Ġwants": 2206,
      "Ġempt": 2207,
      "naihu": 2208,
      "Ġgra": 2209,
      "Ġmeans": 2210,
      "ĠShenaihu": 2211,
      "ists": 2212,
      "Ġclim": 2213,
      "Ġclean": 2214,
      "Are": 2215,
      "Ġfoc": 2216,
      "Ġforce": 2217,
      "Ġmem": 2218,
      "icked": 2219,
      "Ġcomes": 2220,
      "raid": 2221,
      "Ġflat": 2222,
      "Ġshar": 2223,
      "Ġdistance": 2224,
      "Ġtrou": 2225,
      "Ġwish": 2226,
      "iting": 2227,
      "urd": 2228,
      "Ġevening": 2229,
      "pose": 2230,
      "aching": 2231,
      "olog": 2232,
      "Ġguard": 2233,
      "Ġhundred": 2234,
      "Ġcrowd": 2235,
      "Ġadded": 2236,
      "Ġbeyond": 2237,
      "ley": 2238,
      "ĠMaybe": 2239,
      "Ġfilled": 2240,
      "Ġgas": 2241,
      "Ġknowing": 2242,
      "Ġoffered": 2243,
      "ope": 2244,
      "Ġgiving": 2245,
      "Ġplaced": 2246,
      "Ġseeing": 2247,
      "Ġadm": 2248,
      "Ġble": 2249,
      "ĠMom": 2250,
      "ĠMur": 2251,
      "Ġalive": 2252,
      "osp": 2253,
      "een": 2254,
      "Ġpie": 2255,
      "ĠRe": 2256,
      "Ġseems": 2257,
      "Ġimport": 2258,
      "Ġincluding": 2259,
      "ips": 2260,
      "Ġsing": 2261,
      "Ġmed": 2262,
      "Ġmakes": 2263,
      "Ġpair": 2264,
      "Ġhaven": 2265,
      "Ġshoulders": 2266,
      "Ġpaused": 2267,
      "Ġnorm": 2268,
      "Ġcorner": 2269,
      "ER": 2270,
      "Ġtest": 2271,
      "ĠSpe": 2272,
      "Ġdoll": 2273,
      "Ġlegs": 2274,
      "Ġworked": 2275,
      "ĠEm": 2276,
      "Ġplease": 2277,
      "anne": 2278,
      "ĠRed": 2279,
      "Ġclearly": 2280,
      "ĠAny": 2281,
      "ĠVera": 2282,
      "uthor": 2283,
      "ey": 2284,
      "ral": 2285,
      "Ġ##": 2286,
      "Ġsister": 2287,
      "Ġstuff": 2288,
      "agren": 2289,
      "Ġcover": 2290,
      "Ġdrive": 2291,
      "Ġexpected": 2292,
      "Ġdinner": 2293,
      "Ġodd": 2294,
      "pecially": 2295,
      "ĠJan": 2296,
      "Ġinformation": 2297,
      "Ġshrugged": 2298,
      "ole": 2299,
      "hered": 2300,
      "esh": 2301,
      "Ġgun": 2302,
      "Ġearth": 2303,
      "Ġstaring": 2304,
      "ceed": 2305,
      "ĠNick": 2306,
      "Ġperfect": 2307,
      "Ġafraid": 2308,
      "rent": 2309,
      "itual": 2310,
      "Ġhy": 2311,
      "Ġcountry": 2312,
      "Ġpaper": 2313,
      "ĠDon": 2314,
      "Ġknows": 2315,
      "Ġeasy": 2316,
      "zy": 2317,
      "ital": 2318,
      "Ġwhatever": 2319,
      "ney": 2320,
      "ĠMorena": 2321,
      "ls": 2322,
      "ĠQ": 2323,
      "ones": 2324,
      "Ġreach": 2325,
      "Ġspr": 2326,
      "Ġtot": 2327,
      "Ġmag": 2328,
      "lling": 2329,
      "unk": 2330,
      "Ġwalks": 2331,
      "ĠMuragren": 2332,
      "book": 2333,
      "ler": 2334,
      "ency": 2335,
      "Ġprocess": 2336,
      "Ġflow": 2337,
      "Ġtwenty": 2338,
      "itted": 2339,
      "ĠCharles": 2340,
      "Ġpath": 2341,
      "Ġmere": 2342,
      "noon": 2343,
      "stem": 2344,
      "ĠMill": 2345,
      "Ġsmell": 2346,
      "Ġsurround": 2347,
      "Ġsecret": 2348,
      "that": 2349,
      "Ġsir": 2350,
      "onro": 2351,
      "Ġvi": 2352,
      "aked": 2353,
      "Ġshall": 2354,
      "ormias": 2355,
      "Ġkilled": 2356,
      "Ġdropped": 2357,
      "Ġcertainly": 2358,
      "ĠLeanne": 2359,
      "right": 2360,
      "Ġburn": 2361,
      "Ġpark": 2362,
      "oming": 2363,
      "Ġthrow": 2364,
      "Ġmanaged": 2365,
      "Ġpeace": 2366,
      "Ġsupposed": 2367,
      "ĠSir": 2368,
      "ural": 2369,
      "Ġcloud": 2370,
      "Ġemotion": 2371,
      "Ġbox": 2372,
      "Ġsystem": 2373,
      "Ġdespite": 2374,
      "Ġmiddle": 2375,
      "Ġthick": 2376,
      "Ġanger": 2377,
      "Ġnotice": 2378,
      "rig": 2379,
      "Ġremind": 2380,
      "Ġeventually": 2381,
      "ĠClay": 2382,
      "Ġut": 2383,
      "ĠAg": 2384,
      "Ġasks": 2385,
      "Ġminute": 2386,
      "Come": 2387,
      "ork": 2388,
      "aded": 2389,
      "Ġsomewhere": 2390,
      "Ġturning": 2391,
      "Ġbusiness": 2392,
      "tress": 2393,
      "iny": 2394,
      "Ġtone": 2395,
      "Ġpack": 2396,
      "ashing": 2397,
      "ĠOr": 2398,
      "Ġpointed": 2399,
      "onroe": 2400,
      "aled": 2401,
      "Ġritual": 2402,
      "Ġleg": 2403,
      "Ġhuge": 2404,
      "umbled": 2405,
      "Ġarrived": 2406,
      "iance": 2407,
      "oa": 2408,
      "idence": 2409,
      "ĠComm": 2410,
      "Ġjour": 2411,
      "Ġtrave": 2412,
      "Ġfigure": 2413,
      "ĠRuby": 2414,
      "ĠDarien": 2415,
      "ĠMiller": 2416,
      "ĠClayton": 2417,
      "Ġreve": 2418,
      "osa": 2419,
      "Ġafternoon": 2420,
      "Ġdiscuss": 2421,
      "lier": 2422,
      "port": 2423,
      "Ġdie": 2424,
      "ories": 2425,
      "Ġpost": 2426,
      "Ġlunch": 2427,
      "Ġnation": 2428,
      "Ġshirt": 2429,
      "ander": 2430,
      "umped": 2431,
      "iber": 2432,
      "Ġtem": 2433,
      "Ġwide": 2434,
      "Ġmad": 2435,
      "Ġdied": 2436,
      "oring": 2437,
      "ĠAm": 2438,
      "ĠDian": 2439,
      "ĠLet": 2440,
      "ometimes": 2441,
      "Ġaware": 2442,
      "Hey": 2443,
      "Ġbow": 2444,
      "ulas": 2445,
      "aker": 2446,
      "Ġcarry": 2447,
      "Ġstrange": 2448,
      "Ġquestions": 2449,
      "omp": 2450,
      "Ġeight": 2451,
      "Ġequ": 2452,
      "Ġstone": 2453,
      "ĠSormias": 2454,
      "Ġglance": 2455,
      "Ġcovered": 2456,
      "Ġpock": 2457,
      "Ġuns": 2458,
      "Ġtelling": 2459,
      "ibly": 2460,
      "Ġsurprise": 2461,
      "Ġempty": 2462,
      "ds": 2463,
      "Ġcap": 2464,
      "Ġself": 2465,
      "Ġprof": 2466,
      "ĠOnce": 2467,
      "Ġeffect": 2468,
      "ug": 2469,
      "int": 2470,
      "inite": 2471,
      "Ġcrew": 2472,
      "ĠMonroe": 2473,
      "ilt": 2474,
      "Ġamaz": 2475,
      "Ġappear": 2476,
      "Ġcoun": 2477,
      "Ġunderstood": 2478,
      "Ġanswered": 2479,
      "Ġthroat": 2480,
      "Then": 2481,
      "ration": 2482,
      "Ġtall": 2483,
      "Ġauthor": 2484,
      "ĠTw": 2485,
      "ills": 2486,
      "using": 2487,
      "ume": 2488,
      "ekoa": 2489,
      "Ġbeginning": 2490,
      "Ġitself": 2491,
      "Ġweak": 2492,
      "Ġsand": 2493,
      "ĠBy": 2494,
      "Ġeng": 2495,
      "Ġbathroom": 2496,
      "zz": 2497,
      "Ġ,": 2498,
      "Ġfut": 2499,
      "itution": 2500,
      "Ġding": 2501,
      "Ġvan": 2502,
      "ĠKekoa": 2503,
      "Ġgrim": 2504,
      "Ġglad": 2505,
      "Ġpersonal": 2506,
      "Ġpresent": 2507,
      "Ġbarely": 2508,
      "AP": 2509,
      "Ġce": 2510,
      "amed": 2511,
      "Ġnote": 2512,
      "iling": 2513,
      "Ġweeks": 2514,
      "Ġgri": 2515,
      "ĠMark": 2516,
      "Ġdecl": 2517,
      "abin": 2518,
      "itten": 2519,
      "ĠAlso": 2520,
      "ĠCamulas": 2521,
      "Ġobviously": 2522,
      "Ġsal": 2523,
      "Ġmot": 2524,
      "Ġgest": 2525,
      "Ġforth": 2526,
      "Ġmilitary": 2527,
      "vernment": 2528,
      "now": 2529,
      "ots": 2530,
      "Ġthemselves": 2531,
      "Ġevil": 2532,
      "ĠMaroc": 2533,
      "Ġstrugg": 2534,
      "Just": 2535,
      "uc": 2536,
      "Ġill": 2537,
      "Ġexcept": 2538,
      "Ġremained": 2539,
      "ivers": 2540,
      "Ġpleas": 2541,
      "Ġdingo": 2542,
      "Ġcell": 2543,
      "Ġoften": 2544,
      "Ġflesh": 2545,
      "Ġdamn": 2546,
      "Ġtouch": 2547,
      "ĠHigh": 2548,
      "ĠPh": 2549,
      "ages": 2550,
      "Ġdecide": 2551,
      "Ġtakes": 2552,
      "Ġmine": 2553,
      "Ġmass": 2554,
      "Ġpress": 2555,
      "Ġpub": 2556,
      "oose": 2557,
      "urch": 2558,
      "Ġdog": 2559,
      "ĠGe": 2560,
      "Ġwaited": 2561,
      "aughter": 2562,
      "velop": 2563,
      "Ġpurpose": 2564,
      "Ġcenter": 2565,
      "arm": 2566,
      "ics": 2567,
      "add": 2568,
      "ĠNew": 2569,
      "Ġrose": 2570,
      "ĠInst": 2571,
      "Ġavo": 2572,
      "eal": 2573,
      "ires": 2574,
      "kes": 2575,
      "lor": 2576,
      "Ġlaw": 2577,
      "Ġmoments": 2578,
      "pected": 2579,
      "Ġinvolving": 2580,
      "Ġheavy": 2581,
      "vice": 2582,
      "itude": 2583,
      "oof": 2584,
      "Ġforget": 2585,
      "ĠEmer": 2586,
      "Ġentered": 2587,
      "Ġpulling": 2588,
      "Ġawak": 2589,
      "Ġdiffic": 2590,
      "Ġhorr": 2591,
      "Ġearlier": 2592,
      "Ġfa": 2593,
      "Ġmention": 2594,
      "alth": 2595,
      "rible": 2596,
      "rews": 2597,
      "Ġexplain": 2598,
      "ĠWhite": 2599,
      "Ġhurt": 2600,
      "cil": 2601,
      "come": 2602,
      "like": 2603,
      "udd": 2604,
      "els": 2605,
      "Ġsounds": 2606,
      "Ġpriv": 2607,
      "ĠEmian": 2608,
      "ges": 2609,
      "Ġwin": 2610,
      "Ġstre": 2611,
      "ĠCity": 2612,
      "Ġalthough": 2613,
      "Ġdrove": 2614,
      "Ġmonths": 2615,
      "ishing": 2616,
      "Ġking": 2617,
      "ĠRosa": 2618,
      "Ġrolled": 2619,
      "Ġchanged": 2620,
      "Ġnature": 2621,
      "house": 2622,
      "Ġty": 2623,
      "reme": 2624,
      "Ġfif": 2625,
      "Ġlit": 2626,
      "acle": 2627,
      "acred": 2628,
      "ĠMars": 2629,
      "ĠWinger": 2630,
      "ĠDra": 2631,
      "ĠJess": 2632,
      "ĠKai": 2633,
      "more": 2634,
      "sit": 2635,
      "Ġhesit": 2636,
      "Ġespecially": 2637,
      "Ġdirectly": 2638,
      "Ġclothes": 2639,
      "Ġ###": 2640,
      "Ġstri": 2641,
      "Ġarg": 2642,
      "ĠStill": 2643,
      "ĠConall": 2644,
      "Ġverse": 2645,
      "Ġimportant": 2646,
      "rect": 2647,
      "Ġcop": 2648,
      "Ġfil": 2649,
      "Ġagreed": 2650,
      "Ġusing": 2651,
      "Ġdisp": 2652,
      "Ġemb": 2653,
      "Ġteeth": 2654,
      "Ġsettled": 2655,
      "Ġdarkness": 2656,
      "inct": 2657,
      "eter": 2658,
      "Ġlevel": 2659,
      "Ġclaim": 2660,
      "Ġscr": 2661,
      "Ġbeauty": 2662,
      "Who": 2663,
      "den": 2664,
      "Ġmist": 2665,
      "ote": 2666,
      "Ġthirty": 2667,
      "Ġrece": 2668,
      "onel": 2669,
      "Ġsilent": 2670,
      "Ġforest": 2671,
      "ĠWho": 2672,
      "ajor": 2673,
      "bered": 2674,
      "ism": 2675,
      "Ġlives": 2676,
      "Ġfinal": 2677,
      "ĠMrs": 2678,
      "Ġviol": 2679,
      "Did": 2680,
      "line": 2681,
      "uit": 2682,
      "word": 2683,
      "ĠCH": 2684,
      "ĠGl": 2685,
      "Ġhowever": 2686,
      "Ġlifted": 2687,
      "ĠHowever": 2688,
      "St": 2689,
      "Ġmid": 2690,
      "Ġmir": 2691,
      "ĠNat": 2692,
      "Ġthank": 2693,
      "ground": 2694,
      "Ġforced": 2695,
      "usted": 2696,
      "ries": 2697,
      "Ġspec": 2698,
      "ended": 2699,
      "Ġfucking": 2700,
      "TER": 2701,
      "what": 2702,
      "Ġbase": 2703,
      "Ġeating": 2704,
      "ety": 2705,
      "Ġgoes": 2706,
      "Ġunf": 2707,
      "ept": 2708,
      "Ġemail": 2709,
      "bit": 2710,
      "my": 2711,
      "Ġ4": 2712,
      "Ġfav": 2713,
      "Ġluck": 2714,
      "Ġstro": 2715,
      "Ġstup": 2716,
      "ades": 2717,
      "Ġweap": 2718,
      "Ġris": 2719,
      "Ġcompl": 2720,
      "Ġarr": 2721,
      "Ġrelax": 2722,
      "Ġkeeping": 2723,
      "Ġpolice": 2724,
      "Ġenchan": 2725,
      "Ġwra": 2726,
      "rest": 2727,
      "Ġtow": 2728,
      "ĠHeb": 2729,
      "Ġoper": 2730,
      "Ġsteps": 2731,
      "Ġwild": 2732,
      "Ġcool": 2733,
      "Ġfield": 2734,
      "ision": 2735,
      "Ġnerv": 2736,
      "Ġur": 2737,
      "Ġstation": 2738,
      "Ġstairs": 2739,
      "Ġwearing": 2740,
      "Ġseven": 2741,
      "Ġdoctor": 2742,
      "ĠBen": 2743,
      "elt": 2744,
      "Ġenem": 2745,
      "Ġimm": 2746,
      "Ġpicture": 2747,
      "Ġtent": 2748,
      "Ġwave": 2749,
      "Ġstret": 2750,
      "Ġtru": 2751,
      "Ġsomehow": 2752,
      "Ġsimple": 2753,
      "Thank": 2754,
      "Ġsold": 2755,
      "ĠDan": 2756,
      "Ġabrupt": 2757,
      "Ġcock": 2758,
      "ension": 2759,
      "Ġphot": 2760,
      "Ġcontinue": 2761,
      "Ġeyeb": 2762,
      "iliar": 2763,
      "APTER": 2764,
      "ĠCHAPTER": 2765,
      "In": 2766,
      "ees": 2767,
      "Ġfly": 2768,
      "asp": 2769,
      "Ġund": 2770,
      "Ġintense": 2771,
      "Ġserious": 2772,
      "Ġdestro": 2773,
      "ĠHebrews": 2774,
      "Of": 2775,
      "rate": 2776,
      "Ġdressed": 2777,
      "Ġstom": 2778,
      "ifted": 2779,
      "Ġagree": 2780,
      "Ġremain": 2781,
      "Ġsecurity": 2782,
      "Ġcolle": 2783,
      "Ġsuccess": 2784,
      "ĠDiana": 2785,
      "initely": 2786,
      "cise": 2787,
      "eed": 2788,
      "Ġloved": 2789,
      "Ġgame": 2790,
      "ĠTre": 2791,
      "entle": 2792,
      "ĠWeb": 2793,
      "sidered": 2794,
      "Ġbedroom": 2795,
      "mbers": 2796,
      ".'": 2797,
      "bo": 2798,
      "Ġ#": 2799,
      "ĠTom": 2800,
      "ayed": 2801,
      "ĠBl": 2802,
      "Ġdep": 2803,
      "Ġsuck": 2804,
      "Ġexha": 2805,
      "Ġhoping": 2806,
      "Ġshoot": 2807,
      "cript": 2808,
      "As": 2809,
      "Ġfle": 2810,
      "Ġmotion": 2811,
      "Ġnar": 2812,
      "Ġthrew": 2813,
      "Ġones": 2814,
      "Ġring": 2815,
      "ila": 2816,
      "unity": 2817,
      "Ġspace": 2818,
      "Ġconsider": 2819,
      "Ġoppos": 2820,
      "Ġphysical": 2821,
      "Ġeyebrow": 2822,
      "Ġbother": 2823,
      "Ġchat": 2824,
      "Ġdress": 2825,
      "Ġrele": 2826,
      "Ġiss": 2827,
      "tering": 2828,
      "ixed": 2829,
      "Ġeffort": 2830,
      "ĠSpeaker": 2831,
      "Ġcru": 2832,
      "Ġgar": 2833,
      "Ġnecess": 2834,
      "Ġconsidered": 2835,
      "une": 2836,
      "Ġtrack": 2837,
      "Ġprev": 2838,
      "ĠYour": 2839,
      "teen": 2840,
      "Ġaction": 2841,
      "Ġimposs": 2842,
      "Ġcrack": 2843,
      "Ġforgot": 2844,
      "Ġdifficult": 2845,
      "ĠWebster": 2846,
      "aur": 2847,
      "cha": 2848,
      "Ġtill": 2849,
      "Ġtalked": 2850,
      "Ġinqu": 2851,
      "Ġrese": 2852,
      "ooking": 2853,
      "astic": 2854,
      "olute": 2855,
      "Ġappre": 2856,
      "Ġseries": 2857,
      "ĠAlex": 2858,
      "Ġpowerful": 2859,
      "Ġpocket": 2860,
      "Ġstupid": 2861,
      "aven": 2862,
      "fast": 2863,
      "Ġtired": 2864,
      "Ġcas": 2865,
      "Ġfac": 2866,
      "ĠSon": 2867,
      "Ġshock": 2868,
      "uls": 2869,
      "Ġorg": 2870,
      "Ġoffer": 2871,
      "Ġturns": 2872,
      "Ġseconds": 2873,
      "Ġfinger": 2874,
      "Ġsingle": 2875,
      "ĠGeoff": 2876,
      "AD": 2877,
      "apped": 2878,
      "erved": 2879,
      "Ġdrew": 2880,
      "Ġbeat": 2881,
      "Ġstick": 2882,
      "aling": 2883,
      "Ġjud": 2884,
      "Ġsmo": 2885,
      "Ġneeds": 2886,
      "ĠFrank": 2887,
      "ĠJanoss": 2888,
      "bor": 2889,
      "for": 2890,
      "you": 2891,
      "ina": 2892,
      "esus": 2893,
      "atic": 2894,
      "cles": 2895,
      "Ġkey": 2896,
      "Ġcarefully": 2897,
      "Ġpossess": 2898,
      "Ġvision": 2899,
      "Ġenchantress": 2900,
      "ald": 2901,
      "nie": 2902,
      "Ġterm": 2903,
      "Ġball": 2904,
      "Ġcast": 2905,
      "Ġpu": 2906,
      "stairs": 2907,
      "ĠTr": 2908,
      "ĠSp": 2909,
      "ands": 2910,
      "Ġaren": 2911,
      "Ġapparent": 2912,
      "Ġbott": 2913,
      "oken": 2914,
      "ront": 2915,
      "Ġter": 2916,
      "Ġthin": 2917,
      "lder": 2918,
      "irth": 2919,
      "Ġrap": 2920,
      "Ġsurf": 2921,
      "Ġconfused": 2922,
      "Ġstudied": 2923,
      "Ġlaughing": 2924,
      "Ġcompany": 2925,
      "Ġpiece": 2926,
      "con": 2927,
      "ipp": 2928,
      "ĠTheir": 2929,
      "Ġconn": 2930,
      "Ġsuper": 2931,
      "resh": 2932,
      "Ġblink": 2933,
      "Ġgray": 2934,
      "Ġstarting": 2935,
      "Ġentr": 2936,
      "Ġcomput": 2937,
      "Ġescape": 2938,
      "Ġmerely": 2939,
      "Now": 2940,
      "Your": 2941,
      "Ġap": 2942,
      "inal": 2943,
      "Ġopt": 2944,
      "Ġcause": 2945,
      "umed": 2946,
      "Ġreality": 2947,
      "Ġevents": 2948,
      "Ġdeterm": 2949,
      "Ġelect": 2950,
      "eneath": 2951,
      "Ġtrouble": 2952,
      "ospital": 2953,
      "Ġfuture": 2954,
      "Ġdate": 2955,
      "Ġlog": 2956,
      "Ġstories": 2957,
      "Ġgovernment": 2958,
      "orted": 2959,
      "Ġrealize": 2960,
      "Ġplaying": 2961,
      "Ġmessage": 2962,
      "ĠSha": 2963,
      "ĠSacred": 2964,
      "Ġwhether": 2965,
      "Ġcatch": 2966,
      "Ġnormal": 2967,
      "ining": 2968,
      "Ġbound": 2969,
      "Ġdust": 2970,
      "Ġgentle": 2971,
      "Ġnone": 2972,
      "Ġbell": 2973,
      "ĠDad": 2974,
      "Ġblock": 2975,
      "Ġslam": 2976,
      "izing": 2977,
      "Ġinstru": 2978,
      "ĠAlliance": 2979,
      "yed": 2980,
      "Ġage": 2981,
      "ichar": 2982,
      "ĠSomething": 2983,
      "Ġrain": 2984,
      "Ġsend": 2985,
      "ĠChan": 2986,
      "Ġgold": 2987,
      "Ġshaking": 2988,
      "Ġremembered": 2989,
      "Ġwalls": 2990,
      "Ġconcern": 2991,
      "racted": 2992,
      "Ġident": 2993,
      "aning": 2994,
      "ĠSen": 2995,
      "Ġmembers": 2996,
      "ĠDid": 2997,
      "Ġnose": 2998,
      "elle": 2999,
      "Ġhandle": 3000,
      "ilet": 3001,
      "ecause": 3002,
      "Ġspiritual": 3003,
      "Ġproblems": 3004,
      "Ġdemanded": 3005,
      "Ġparticular": 3006,
      "imon": 3007,
      "Ġdevelop": 3008,
      "arehouse": 3009,
      "Ġquar": 3010,
      "ĠRichar": 3011,
      "Ġdoors": 3012,
      "Ġchapter": 3013,
      "ĠAshan": 3014,
      "Ġfamiliar": 3015,
      "Ġparas": 3016,
      "Ġexperience": 3017,
      "Ġreaction": 3018,
      "ĠRussian": 3019,
      "Ġnarrow": 3020,
      "Ġcam": 3021,
      "Ġfully": 3022,
      "Ġgather": 3023,
      "Ġrepe": 3024,
      "riend": 3025,
      "osing": 3026,
      "Ġprop": 3027,
      "ledge": 3028,
      "Ġimage": 3029,
      "Ġsleeping": 3030,
      "ounced": 3031,
      "Ġshouted": 3032,
      "iant": 3033,
      "rated": 3034,
      "Ġsam": 3035,
      "erve": 3036,
      "asion": 3037,
      "urred": 3038,
      "Ġange": 3039,
      "ĠHend": 3040,
      "Ġchurch": 3041,
      "Ġbelow": 3042,
      "Ġconfir": 3043,
      "Ġinstant": 3044,
      "Ġexcited": 3045,
      "Ġburst": 3046,
      "Ġstreng": 3047,
      "Ġstomach": 3048,
      "Can": 3049,
      "Ġwit": 3050,
      "Ġisland": 3051,
      "cean": 3052,
      "abri": 3053,
      "ivered": 3054,
      "Ġheading": 3055,
      "Ġdism": 3056,
      "Ġbusy": 3057,
      "Ġeasily": 3058,
      "Ġbroke": 3059,
      "Ġangry": 3060,
      "Ġprepared": 3061,
      "Ġmemory": 3062,
      "Ġtruly": 3063,
      "pic": 3064,
      "zed": 3065,
      "Ġsour": 3066,
      "Ġwife": 3067,
      "Ġbeneath": 3068,
      "eng": 3069,
      "Ġdiv": 3070,
      "Ġaside": 3071,
      "Ġlibr": 3072,
      "Ġspent": 3073,
      "Ġblank": 3074,
      "Ġanymore": 3075,
      "ode": 3076,
      "oint": 3077,
      "lessly": 3078,
      "ĠArmy": 3079,
      "Ġmusic": 3080,
      "ĠColonel": 3081,
      "Ġhonest": 3082,
      "aul": 3083,
      "ipping": 3084,
      "arr": 3085,
      "Ġnorth": 3086,
      "Ġthous": 3087,
      "que": 3088,
      "Ġspread": 3089,
      "Ġbottle": 3090,
      "Ġdisappeared": 3091,
      "Ġchoice": 3092,
      "ĠPhil": 3093,
      "ĠHenderson": 3094,
      "aac": 3095,
      "nel": 3096,
      "Ġtoilet": 3097,
      "Ġfit": 3098,
      "Ġmer": 3099,
      "Ġdru": 3100,
      "atus": 3101,
      "ĠSh": 3102,
      "ury": 3103,
      "Ġsearch": 3104,
      "oods": 3105,
      "Ġtrail": 3106,
      "ĠEllen": 3107,
      "Ġshare": 3108,
      "Ġsweet": 3109,
      "ky": 3110,
      "Ġbas": 3111,
      "Ġmut": 3112,
      "ĠThan": 3113,
      "illian": 3114,
      "ĠMic": 3115,
      "Ġvamp": 3116,
      "Ġplaces": 3117,
      "Ġsword": 3118,
      "Ġlights": 3119,
      "ibility": 3120,
      "Ġresponded": 3121,
      "Ġshadows": 3122,
      "Ġdangerous": 3123,
      "Ġlaid": 3124,
      "Ġcomputer": 3125,
      "gress": 3126,
      "und": 3127,
      "Ġfate": 3128,
      "Ġlack": 3129,
      "ances": 3130,
      "ented": 3131,
      "Ġhist": 3132,
      "Ġrid": 3133,
      "Ġshit": 3134,
      "ĠBob": 3135,
      "Ġworried": 3136,
      "Ġdesper": 3137,
      "brid": 3138,
      "Ġcreature": 3139,
      "Ġabruptly": 3140,
      "val": 3141,
      "zen": 3142,
      "Ġsad": 3143,
      "Ġbod": 3144,
      "Ġhospital": 3145,
      "aint": 3146,
      "raw": 3147,
      "Ġcalling": 3148,
      "obi": 3149,
      "Ġfollowing": 3150,
      "\\_": 3151,
      "bled": 3152,
      "Ġ5": 3153,
      "Ġtong": 3154,
      "Ġhate": 3155,
      "Ġthird": 3156,
      "ĠTed": 3157,
      "ĠAnt": 3158,
      "Ġdepart": 3159,
      "Ġrespons": 3160,
      "Ġbroad": 3161,
      "Ġannoy": 3162,
      "ĠDanie": 3163,
      "Ġimpossible": 3164,
      "abrielle": 3165,
      "de": 3166,
      "oom": 3167,
      "sing": 3168,
      "ule": 3169,
      "Ġsometimes": 3170,
      "Ġfresh": 3171,
      "Ġdaughter": 3172,
      "leep": 3173,
      "ĠCan": 3174,
      "ando": 3175,
      "Ġweren": 3176,
      "ĠGo": 3177,
      "Ġbrow": 3178,
      "Ġwondering": 3179,
      "Ġsnow": 3180,
      "Ġpen": 3181,
      "Ġpan": 3182,
      "Ġlose": 3183,
      "cho": 3184,
      "Ġlived": 3185,
      "ruce": 3186,
      "Ġspecial": 3187,
      "Ġsounded": 3188,
      "Ġexplained": 3189,
      "Ġfalling": 3190,
      "Ġfigured": 3191,
      "ĠOnly": 3192,
      "Ġjourney": 3193,
      "Ġpublic": 3194,
      "sy": 3195,
      "uine": 3196,
      "Ġpers": 3197,
      "ĠTV": 3198,
      "ĠSimon": 3199,
      "Ġround": 3200,
      "roud": 3201,
      "Ġworth": 3202,
      "Ġadj": 3203,
      "oria": 3204,
      "Ġcollect": 3205,
      "Ġpolit": 3206,
      "Ġapproached": 3207,
      "Ġinvolved": 3208,
      "Ġentrance": 3209,
      "EN": 3210,
      "uct": 3211,
      "Ġwoke": 3212,
      "Ġbal": 3213,
      "any": 3214,
      "Ġbeer": 3215,
      "Ġears": 3216,
      "ĠAre": 3217,
      "Ġrat": 3218,
      "ument": 3219,
      "Ġgotten": 3220,
      "Ġfinish": 3221,
      "Ġdefinitely": 3222,
      "Ġhorse": 3223,
      "set": 3224,
      "Ġtast": 3225,
      "Ġfrust": 3226,
      "Ġsear": 3227,
      "Ġtroo": 3228,
      "ĠGillian": 3229,
      "Ġspl": 3230,
      "Ġusually": 3231,
      "ĠIsaac": 3232,
      "Ġhappening": 3233,
      "Ġrelief": 3234,
      "Ġasking": 3235,
      "Ġdiscovered": 3236,
      "Ġchecked": 3237,
      "Ġcrossed": 3238,
      "Thanks": 3239,
      "ĠPerhaps": 3240,
      "Ġstrength": 3241,
      "gak": 3242,
      "lgak": 3243,
      "ron": 3244,
      "Ġbirth": 3245,
      "ises": 3246,
      "iled": 3247,
      "ĠBry": 3248,
      "essor": 3249,
      "aved": 3250,
      "Ġresult": 3251,
      "Ġspect": 3252,
      "Ġhallway": 3253,
      "Ġsuggested": 3254,
      "lish": 3255,
      "nath": 3256,
      "Ġsna": 3257,
      "Ġpun": 3258,
      "vere": 3259,
      "illed": 3260,
      "terday": 3261,
      "ĠLike": 3262,
      "Ġprodu": 3263,
      "ĠOff": 3264,
      "Ġbrain": 3265,
      "Ġbuy": 3266,
      "Ġolder": 3267,
      "Ġbreathing": 3268,
      "Ġcorrect": 3269,
      "ĠAgain": 3270,
      "nathreen": 3271,
      "Look": 3272,
      "Maybe": 3273,
      "hel": 3274,
      "Ġsigh": 3275,
      "Ġhence": 3276,
      "Ġpot": 3277,
      "omfort": 3278,
      "Ġsave": 3279,
      "Ġknock": 3280,
      "ĠKay": 3281,
      "Ġfirm": 3282,
      "ĠYates": 3283,
      "Ġtext": 3284,
      "Ġbreakfast": 3285,
      "ĠBefore": 3286,
      "Ġimagine": 3287,
      "Ġobvious": 3288,
      "When": 3289,
      "Ġocean": 3290,
      "Ġfaces": 3291,
      "Ġpure": 3292,
      "ĠAw": 3293,
      "pper": 3294,
      "ĠWhere": 3295,
      "Ġknees": 3296,
      "Ġaband": 3297,
      "ĠOf": 3298,
      "Ġharm": 3299,
      "ĠAlgar": 3300,
      "Ġinterrupt": 3301,
      "Ġrefle": 3302,
      "Ġ20": 3303,
      "Ġtrip": 3304,
      "Ġextreme": 3305,
      "gram": 3306,
      "Ġlearn": 3307,
      "Ġwitness": 3308,
      "Ġlibrary": 3309,
      "Ġtongue": 3310,
      "ĠBryan": 3311,
      "Ġheat": 3312,
      "Ġinn": 3313,
      "Ġrev": 3314,
      "irst": 3315,
      "ĠAb": 3316,
      "Ġplans": 3317,
      "Ġwilling": 3318,
      "Ġblind": 3319,
      "Ġtells": 3320,
      "Ġspeaking": 3321,
      "Ġended": 3322,
      "Ġcapt": 3323,
      "Ġmovement": 3324,
      "Ġextra": 3325,
      "ĠInstead": 3326,
      "ball": 3327,
      "fer": 3328,
      "Ġz": 3329,
      "Ġaud": 3330,
      "Ġcig": 3331,
      "Ġdim": 3332,
      "Ġleng": 3333,
      "Ġhide": 3334,
      "iment": 3335,
      "Ġstorm": 3336,
      "Ġshop": 3337,
      "ĠBruce": 3338,
      "ĠSheila": 3339,
      "Ġleather": 3340,
      "Ġworse": 3341,
      "ĠRose": 3342,
      "Ġcontain": 3343,
      "Ġamb": 3344,
      "Ġclearing": 3345,
      "Ġgirls": 3346,
      "Ġnecessary": 3347,
      "--": 3348,
      "ially": 3349,
      "Ġer": 3350,
      "Ġast": 3351,
      "Ġwarehouse": 3352,
      "Ġmo": 3353,
      "Ġlock": 3354,
      "arily": 3355,
      "Ġcaused": 3356,
      "Ġdriving": 3357,
      "Ġlisten": 3358,
      "Ġlocal": 3359,
      "Ġparasite": 3360,
      "ĠAnton": 3361,
      "Sure": 3362,
      "Ġtick": 3363,
      "Ġcard": 3364,
      "itive": 3365,
      "Ġmark": 3366,
      "ĠLiz": 3367,
      "Ġusual": 3368,
      "Ġchuck": 3369,
      "ĠStan": 3370,
      "Ġdrop": 3371,
      "Ġnatural": 3372,
      "Ġlength": 3373,
      "Re": 3374,
      "ĠCole": 3375,
      "Ġliked": 3376,
      "Ġsum": 3377,
      "Ġwhose": 3378,
      "ĠAnando": 3379,
      "Ġ11": 3380,
      "Ġbroken": 3381,
      "Ġmiles": 3382,
      "mma": 3383,
      "ĠRuben": 3384,
      "ĠAmerican": 3385,
      "Ġterrible": 3386,
      "cent": 3387,
      "dom": 3388,
      "iot": 3389,
      "uous": 3390,
      "inated": 3391,
      "Ġwip": 3392,
      "Ġbull": 3393,
      "Ġcup": 3394,
      "otions": 3395,
      "cell": 3396,
      "Ġexte": 3397,
      "ĠNorth": 3398,
      "Ġflo": 3399,
      "Ġrecall": 3400,
      "idden": 3401,
      "ĠLeo": 3402,
      "Ġexperien": 3403,
      "Ġgener": 3404,
      "Ġutter": 3405,
      "Ġbodies": 3406,
      "NAD": 3407,
      "she": 3408,
      "ndah": 3409,
      "Ġda": 3410,
      "Ġlying": 3411,
      "aylor": 3412,
      "adir": 3413,
      "ĠWoods": 3414,
      "ĠJesus": 3415,
      "olgar": 3416,
      "Ġblow": 3417,
      "Ġgrasp": 3418,
      "Ġdisco": 3419,
      "aped": 3420,
      "ontane": 3421,
      "igned": 3422,
      "Ġbreast": 3423,
      "Ġdemon": 3424,
      "Ġsubject": 3425,
      "Ġhanging": 3426,
      "ĠDaniel": 3427,
      "Ġtreat": 3428,
      "Ġcried": 3429,
      "isf": 3430,
      "Ġdut": 3431,
      "Ġnon": 3432,
      "Ġbeha": 3433,
      "ilities": 3434,
      "Ġwhom": 3435,
      "cting": 3436,
      "Ġvar": 3437,
      "ĠPr": 3438,
      "ĠLord": 3439,
      "ĠGolgar": 3440,
      "Ġproper": 3441,
      "Ġflash": 3442,
      "Ġletting": 3443,
      "Ġorders": 3444,
      "Ġsquee": 3445,
      "Ġpromise": 3446,
      "Ġhoped": 3447,
      "Ġfocus": 3448,
      "Ġbottom": 3449,
      "?_": 3450,
      "Ġheaven": 3451,
      "Ġhun": 3452,
      "Ġhers": 3453,
      "Ġwel": 3454,
      "Ġanx": 3455,
      "Ġneg": 3456,
      "ational": 3457,
      "Ġexam": 3458,
      "ortic": 3459,
      "Ġamong": 3460,
      "Ġglow": 3461,
      "ensive": 3462,
      "Ġdecision": 3463,
      "ĠVict": 3464,
      "Ġcurrent": 3465,
      "Ġpushing": 3466,
      "Ġabsolute": 3467,
      "cle": 3468,
      "fessor": 3469,
      "Ġwine": 3470,
      "Ġdig": 3471,
      "Ġpow": 3472,
      "Ġpet": 3473,
      "ĠMike": 3474,
      "ellig": 3475,
      "Ġemotions": 3476,
      "ĠYnathreen": 3477,
      "Ġcouch": 3478,
      "Ġdriver": 3479,
      "Ġfallen": 3480,
      "Ġstudents": 3481,
      "Ġofficers": 3482,
      "Ġrequest": 3483,
      "Ġcolor": 3484,
      "Ġorgan": 3485,
      "Mr": 3486,
      "Ġwa": 3487,
      "oured": 3488,
      "Ġbank": 3489,
      "Ġmurd": 3490,
      "Ġlap": 3491,
      "Ġasleep": 3492,
      "ĠMont": 3493,
      "rodu": 3494,
      "ĠWill": 3495,
      "Ġvill": 3496,
      "aston": 3497,
      "Ġbrown": 3498,
      "Ġdesce": 3499,
      "Ġrelations": 3500,
      "Ġserve": 3501,
      "ogra": 3502,
      "Ġinterested": 3503,
      "Ġentirely": 3504,
      "Ġlocked": 3505,
      "aric": 3506,
      "athered": 3507,
      "Ġgle": 3508,
      "Ġhat": 3509,
      "Ġelder": 3510,
      "ĠSe": 3511,
      "ament": 3512,
      "Ġleaves": 3513,
      "ĠKobi": 3514,
      "Ġqueen": 3515,
      "ague": 3516,
      "Ġpract": 3517,
      "Ġobl": 3518,
      "Ġspirits": 3519,
      "Ġlistening": 3520,
      "ĠAdams": 3521,
      "ĠMathis": 3522,
      "Ġclimbed": 3523,
      "Ġsharp": 3524,
      "ĠTwo": 3525,
      "Ġfavor": 3526,
      "Ġopposite": 3527,
      "inted": 3528,
      "Ġgrew": 3529,
      "ĠHar": 3530,
      "ĠCoun": 3531,
      "ulous": 3532,
      "olon": 3533,
      "ĠEmma": 3534,
      "Ġactions": 3535,
      "Ġsilently": 3536,
      "thew": 3537,
      "Ġreply": 3538,
      "Ġordered": 3539,
      "Ġcharac": 3540,
      "Ġtotally": 3541,
      "Ġcounter": 3542,
      "Ġavoid": 3543,
      "ĠPhilip": 3544,
      "ĠMathisen": 3545,
      "com": 3546,
      "Ġorig": 3547,
      "Ġfro": 3548,
      "idly": 3549,
      "iday": 3550,
      "acher": 3551,
      "ĠTaylor": 3552,
      "ifying": 3553,
      "Ġshower": 3554,
      "aret": 3555,
      "ĠFontane": 3556,
      "ĠUlgak": 3557,
      "Ġ***": 3558,
      "Ġcute": 3559,
      "Ġwindows": 3560,
      "ĠGlaston": 3561,
      "Ġweapon": 3562,
      "Ġhistory": 3563,
      "_.": 3564,
      "cer": 3565,
      "vation": 3566,
      "Ġdry": 3567,
      "iles": 3568,
      "Ġjumped": 3569,
      "Ġvol": 3570,
      "Ġblond": 3571,
      "Ġdispl": 3572,
      "Ġprison": 3573,
      "Ġcarried": 3574,
      "Ġrestaur": 3575,
      "iction": 3576,
      "gging": 3577,
      "Ġhybrid": 3578,
      "Ġstuck": 3579,
      "vering": 3580,
      "hern": 3581,
      "Ġsees": 3582,
      "ustom": 3583,
      "anted": 3584,
      "Ġscene": 3585,
      "ĠAnge": 3586,
      "Ġbitch": 3587,
      "Ġinteresting": 3588,
      "Ġtouched": 3589,
      "ĠMatthew": 3590,
      "Ġreminded": 3591,
      "ĠCommander": 3592,
      "under": 3593,
      "vor": 3594,
      "work": 3595,
      "Ġbra": 3596,
      "itement": 3597,
      "leg": 3598,
      "Ġstaff": 3599,
      "ĠThese": 3600,
      "ples": 3601,
      "Ġgrand": 3602,
      "Ġshared": 3603,
      "Ġfunny": 3604,
      "ĠProfessor": 3605,
      "Ah": 3606,
      "ech": 3607,
      "ping": 3608,
      "uh": 3609,
      "Ġtoss": 3610,
      "Ġpressed": 3611,
      "Ġant": 3612,
      "ils": 3613,
      "Ġneigh": 3614,
      "Ġbran": 3615,
      "erence": 3616,
      "Ġofficer": 3617,
      "Ġgrowing": 3618,
      "Ġyesterday": 3619,
      "abinet": 3620,
      "wise": 3621,
      "Ġtiny": 3622,
      "Ġment": 3623,
      "ĠSolon": 3624,
      "ĠDe": 3625,
      "Ġability": 3626,
      "Ġvac": 3627,
      "Ġcomb": 3628,
      "Ġprogram": 3629,
      "Ġdisg": 3630,
      "Ġstarts": 3631,
      "Ġservice": 3632,
      "Ġexcitement": 3633,
      "Ġnearby": 3634,
      "Ġperform": 3635,
      "Ġcrazy": 3636,
      "Ġaddress": 3637,
      "Please": 3638,
      "che": 3639,
      "ding": 3640,
      "Ġ7": 3641,
      "Ġben": 3642,
      "Ġfre": 3643,
      "Ġmajor": 3644,
      "Ġstun": 3645,
      "Ġlikely": 3646,
      "ryss": 3647,
      "Ġhole": 3648,
      "Ġspeed": 3649,
      "Ġdrawn": 3650,
      "Ġinsisted": 3651,
      "Ġconscious": 3652,
      "Ġpush": 3653,
      "Ġplayed": 3654,
      "Ġattempted": 3655,
      "Ġsweat": 3656,
      "Ġkids": 3657,
      "Ġopport": 3658,
      "ĠBilly": 3659,
      "Ġforgotten": 3660,
      "Ġappreci": 3661,
      "lin": 3662,
      "Ġtour": 3663,
      "Ġwaved": 3664,
      "Ġbird": 3665,
      "Ġpor": 3666,
      "Ġpalm": 3667,
      "Ġhus": 3668,
      "arked": 3669,
      "Ġgathered": 3670,
      "sequ": 3671,
      "Ġsheep": 3672,
      "ĠHere": 3673,
      "Ġmyst": 3674,
      "Ġsuit": 3675,
      "igg": 3676,
      "wards": 3677,
      "ivil": 3678,
      "Ġwritten": 3679,
      "Ġsmiling": 3680,
      "Ġcourt": 3681,
      "Ġcharge": 3682,
      "Sh": 3683,
      "Th": 3684,
      "lo": 3685,
      "wan": 3686,
      "Ġwaves": 3687,
      "Ġcost": 3688,
      "Ġfat": 3689,
      "icate": 3690,
      "anda": 3691,
      "ĠPark": 3692,
      "Ġune": 3693,
      "ĠOld": 3694,
      "ager": 3695,
      "Ġscar": 3696,
      "ival": 3697,
      "Ġtech": 3698,
      "ĠAlaric": 3699,
      "Ġdeeply": 3700,
      "Ġrecord": 3701,
      "Ġlearned": 3702,
      "Ġfaith": 3703,
      ",'": 3704,
      ",'_": 3705,
      "af": 3706,
      "Ġfurn": 3707,
      "Ġmood": 3708,
      "Ġmale": 3709,
      "Ġdi": 3710,
      "Ġcomment": 3711,
      "claim": 3712,
      "Ġshake": 3713,
      "Ġcompound": 3714,
      "Ġ10": 3715,
      "Ġsatisf": 3716,
      "Ġmeaning": 3717,
      "Ġsupport": 3718,
      "oudwan": 3719,
      "Ġboard": 3720,
      "Ġsensed": 3721,
      "ĠFrom": 3722,
      "Ġoccasion": 3723,
      "Ġgrave": 3724,
      "Ġsnapped": 3725,
      "iers": 3726,
      "Ġpill": 3727,
      "Ġpond": 3728,
      "anged": 3729,
      "Ġinner": 3730,
      "Ġgate": 3731,
      "owed": 3732,
      "Ġecho": 3733,
      "ication": 3734,
      "Ġstir": 3735,
      "ading": 3736,
      "ĠMall": 3737,
      "ĠMak": 3738,
      "ĠMortic": 3739,
      "ĠPe": 3740,
      "ĠEng": 3741,
      "aging": 3742,
      "izz": 3743,
      "Ġemp": 3744,
      "Ġchin": 3745,
      "Ġadv": 3746,
      "Ġshowed": 3747,
      "Ġpleased": 3748,
      "Ġincred": 3749,
      "Ġleader": 3750,
      "Ġbriefly": 3751,
      "Ġsuspect": 3752,
      "ĠAmerica": 3753,
      "Ġbattle": 3754,
      "Ġanimal": 3755,
      "Ġprivate": 3756,
      "ĠTrevor": 3757,
      "Ġcigaret": 3758,
      "aid": 3759,
      "wh": 3760,
      "Ġvers": 3761,
      "Ġwake": 3762,
      "Ġborn": 3763,
      "Ġdread": 3764,
      "Ġlat": 3765,
      "imate": 3766,
      "ĠMost": 3767,
      "Ġfright": 3768,
      "ĠWas": 3769,
      "Ġnod": 3770,
      "Ġnoise": 3771,
      "empl": 3772,
      "Ġsmoke": 3773,
      "Ġscreen": 3774,
      "ailing": 3775,
      "Ġfinding": 3776,
      "ĠAnnie": 3777,
      "Ġhelped": 3778,
      "Ġunderstanding": 3779,
      "Ġlistened": 3780,
      "Ġconcer": 3781,
      "Ġgesture": 3782,
      "ĠVictoria": 3783,
      "ĠCouncil": 3784,
      "sc": 3785,
      "Ġ6": 3786,
      "Ġest": 3787,
      "Ġbought": 3788,
      "Ġcook": 3789,
      "Ġmaster": 3790,
      "Ġdan": 3791,
      "Ġgreet": 3792,
      "Ġnine": 3793,
      "Ġnaked": 3794,
      "icated": 3795,
      "ĠTower": 3796,
      "Ġrum": 3797,
      "ify": 3798,
      "Ġlie": 3799,
      "Ġfem": 3800,
      "Ġtrain": 3801,
      "icking": 3802,
      "Ġplate": 3803,
      "Ġslipped": 3804,
      "Ġrespect": 3805,
      "Ġchallen": 3806,
      "Ġplanet": 3807,
      "Ġmissed": 3808,
      "Ġrequired": 3809,
      "Ġmountain": 3810,
      "Ġwrapped": 3811,
      "Ġcollege": 3812,
      "ĠRichards": 3813,
      "ĠMalloy": 3814,
      "Get": 3815,
      "hood": 3816,
      "Ġden": 3817,
      "Ġpound": 3818,
      "stitution": 3819,
      "Ġride": 3820,
      "Ġsav": 3821,
      "Ġshifted": 3822,
      "Ġunable": 3823,
      "Ġletter": 3824,
      "Ġhappens": 3825,
      "Ġtele": 3826,
      "Ġbelieved": 3827,
      "ĠWhile": 3828,
      "Ġexchan": 3829,
      "band": 3830,
      "hic": 3831,
      "Ġtask": 3832,
      "Ġwand": 3833,
      "Ġpin": 3834,
      "Ġhiding": 3835,
      "Ġrout": 3836,
      "rie": 3837,
      "Ġspoken": 3838,
      "Ġprove": 3839,
      "Ġembr": 3840,
      "ĠYes": 3841,
      "Ġputting": 3842,
      "Ġsuppose": 3843,
      "apt": 3844,
      "Ġid": 3845,
      "Ġpoor": 3846,
      "Ġproud": 3847,
      "ĠAf": 3848,
      "Ġrif": 3849,
      "Ġmemor": 3850,
      "ĠBull": 3851,
      "ĠBoudwan": 3852,
      "Ġknowledge": 3853,
      "oving": 3854,
      "ruction": 3855,
      "âĢĶ\"": 3856,
      "Ġfold": 3857,
      "ysia": 3858,
      "Ġopening": 3859,
      "Ġanswers": 3860,
      "Ġmetal": 3861,
      "Ġdeclared": 3862,
      "Ġrestaurant": 3863,
      "iently": 3864,
      "mat": 3865,
      "tain": 3866,
      "Ġfool": 3867,
      "Ġlady": 3868,
      "Ġhol": 3869,
      "ĠDes": 3870,
      "Ġexist": 3871,
      "ĠPaul": 3872,
      "Ġclut": 3873,
      "Ġadmit": 3874,
      "ierce": 3875,
      "Ġstruck": 3876,
      "Ġjoined": 3877,
      "All": 3878,
      "bow": 3879,
      "over": 3880,
      "Ġtear": 3881,
      "hall": 3882,
      "Ġhearing": 3883,
      "Ġrare": 3884,
      "Ġshel": 3885,
      "Ġval": 3886,
      "ĠLam": 3887,
      "Ġvoices": 3888,
      "Ġcheek": 3889,
      "Ġenter": 3890,
      "Ġconfusion": 3891,
      "Ġheavily": 3892,
      "ĠAnyway": 3893,
      "Ġenemy": 3894,
      "low": 3895,
      "ma": 3896,
      "Ġcal": 3897,
      "Ġdirt": 3898,
      "Ġpale": 3899,
      "Ġhost": 3900,
      "Ġweight": 3901,
      "ĠANAD": 3902,
      "ilar": 3903,
      "cture": 3904,
      "Ġtrick": 3905,
      "Ġslid": 3906,
      "Ġart": 3907,
      "Ġimpl": 3908,
      "Ġrelie": 3909,
      "Ġobject": 3910,
      "Ġinvest": 3911,
      "Ġcommun": 3912,
      "eralad": 3913,
      "Ġsuspic": 3914,
      "ĠJohnny": 3915,
      "Ġterror": 3916,
      "hamus": 3917,
      "Ġdingoes": 3918,
      "arrass": 3919,
      "For": 3920,
      "Ġice": 3921,
      "Ġtension": 3922,
      "hea": 3923,
      "inary": 3924,
      "Ġfan": 3925,
      "Ġmort": 3926,
      "Ġmach": 3927,
      "Ġbeast": 3928,
      "ghter": 3929,
      "ĠHelen": 3930,
      "ctions": 3931,
      "ĠCor": 3932,
      "Ġdeb": 3933,
      "Ġjoy": 3934,
      "ability": 3935,
      "raft": 3936,
      "Ġbecoming": 3937,
      "Ġguards": 3938,
      "Ġlaughter": 3939,
      "Ġslept": 3940,
      "Ġvehic": 3941,
      "Ġcraw": 3942,
      "Ġshoes": 3943,
      "Ġgrinned": 3944,
      "Ġnervous": 3945,
      "Ġinquired": 3946,
      "ĠStanley": 3947,
      "Ġduty": 3948,
      "Ġporch": 3949,
      "Per": 3950,
      "dess": 3951,
      "lies": 3952,
      "oll": 3953,
      "par": 3954,
      "iture": 3955,
      "asc": 3956,
      "Ġnor": 3957,
      "Ġbeach": 3958,
      "ids": 3959,
      "Ġeast": 3960,
      "Ġrough": 3961,
      "Ġmeas": 3962,
      "Ġfeat": 3963,
      "Ġproceed": 3964,
      "ĠEx": 3965,
      "Ġscared": 3966,
      "Ġemailed": 3967,
      "Ġworks": 3968,
      "angu": 3969,
      "Ġprovide": 3970,
      "iversity": 3971,
      "Ġpleasure": 3972,
      "Ġcopy": 3973,
      "uing": 3974,
      "Ġsink": 3975,
      "Ġbree": 3976,
      "isters": 3977,
      "Ġpop": 3978,
      "Ġpants": 3979,
      "Ġstiff": 3980,
      "ĠShamus": 3981,
      "Ġroof": 3982,
      "Ġshudd": 3983,
      "ember": 3984,
      "olic": 3985,
      "Ġsmir": 3986,
      "Ġhanded": 3987,
      "Ġrelig": 3988,
      "Ġinstinct": 3989,
      "Ġkilling": 3990,
      "Ġdetails": 3991,
      "Ġtightly": 3992,
      "Ġwoods": 3993,
      "Ġtroops": 3994,
      "Really": 3995,
      "cif": 3996,
      "gons": 3997,
      "ipe": 3998,
      "Ġport": 3999,
      "Ġpool": 4000,
      "cts": 4001,
      "ĠBoth": 4002,
      "eled": 4003,
      "eping": 4004,
      "Ġmanner": 4005,
      "ization": 4006,
      "Ġshouldn": 4007,
      "hens": 4008,
      "Ġattend": 4009,
      "Ġprecise": 4010,
      "Ġawake": 4011,
      "Ġdistur": 4012,
      "Ġexplan": 4013,
      "Ġcreated": 4014,
      "Ġsucceed": 4015,
      "Ġdollars": 4016,
      "Ġcarrying": 4017,
      "Ġembarrass": 4018,
      "Ġprevious": 4019,
      "Ġinnoc": 4020,
      "!_": 4021,
      "go": 4022,
      "Ġsne": 4023,
      "asy": 4024,
      "Ġincl": 4025,
      "Ġformer": 4026,
      "amn": 4027,
      "Ġintrodu": 4028,
      "ession": 4029,
      "Ġfeed": 4030,
      "Ġleaning": 4031,
      "ĠKore": 4032,
      "Ġways": 4033,
      "Ġspend": 4034,
      "Ġevidence": 4035,
      "Ġstayed": 4036,
      "ddenly": 4037,
      "Ġhotel": 4038,
      "Ġhorror": 4039,
      "case": 4040,
      "Ġess": 4041,
      "Ġcart": 4042,
      "Ġpred": 4043,
      "asing": 4044,
      "Ġnumb": 4045,
      "idge": 4046,
      "ĠSm": 4047,
      "urm": 4048,
      "ĠMir": 4049,
      "acket": 4050,
      "rier": 4051,
      "ĠRob": 4052,
      "Ġamount": 4053,
      "Ġpeered": 4054,
      "Ġthanks": 4055,
      "ĠUs": 4056,
      "Ġunto": 4057,
      "Ġbreaking": 4058,
      "Ġplanned": 4059,
      "Ġgazed": 4060,
      "Ġsafety": 4061,
      "Ġoccurred": 4062,
      "Ġradio": 4063,
      "Ġregarded": 4064,
      "Ġstretched": 4065,
      "Ġresearch": 4066,
      "Ġapolog": 4067,
      "Be": 4068,
      "spect": 4069,
      "Ġetern": 4070,
      "Ġrelease": 4071,
      "Ġru": 4072,
      "Ġantic": 4073,
      "ĠMeralad": 4074,
      "Ġneither": 4075,
      "Ġdear": 4076,
      "raham": 4077,
      "ĠOleg": 4078,
      "this": 4079,
      "Ġ_'": 4080,
      "lthea": 4081,
      "Ġpossibly": 4082,
      "umbling": 4083,
      "ĠChief": 4084,
      "jected": 4085,
      "Ġleaders": 4086,
      "Ġwhisper": 4087,
      "Ġsurrounding": 4088,
      "Ġamazing": 4089,
      "elta": 4090,
      "Ġreleased": 4091,
      "Ġsource": 4092,
      "Ġopportunity": 4093,
      "Ġcigarette": 4094,
      "ko": 4095,
      "vir": 4096,
      "Ġaut": 4097,
      "Ġpit": 4098,
      "Ġhig": 4099,
      "Ġnur": 4100,
      "ĠMc": 4101,
      "osity": 4102,
      "ems": 4103,
      "Ġyours": 4104,
      "Ġflight": 4105,
      "Ġcontempl": 4106,
      "Ġwrist": 4107,
      "Ġwriting": 4108,
      "Ġcareful": 4109,
      "Ġplanning": 4110,
      "Ġtremb": 4111,
      "Ġpurcha": 4112,
      "ĠUnited": 4113,
      "Ġmission": 4114,
      "Ġburied": 4115,
      "Ġkissed": 4116,
      "ĠSuddenly": 4117,
      "ĠDragons": 4118,
      "Ġsurface": 4119,
      "Ġrelationship": 4120,
      "der": 4121,
      "gen": 4122,
      "rad": 4123,
      "walk": 4124,
      "Ġmail": 4125,
      "Ġlangu": 4126,
      "Ġweather": 4127,
      "Ġvict": 4128,
      "ularly": 4129,
      "Ġplane": 4130,
      "arest": 4131,
      "Ġaccess": 4132,
      "ĠYuck": 4133,
      "Ġbuilt": 4134,
      "ĠAnother": 4135,
      "Ġinfected": 4136,
      "Ġshowing": 4137,
      "Ġpaid": 4138,
      "Ġrecognized": 4139,
      "Ġsummer": 4140,
      "Ġhusband": 4141,
      "ĠDragonsword": 4142,
      "Hell": 4143,
      "mp": 4144,
      "Ġfaced": 4145,
      "Ġlower": 4146,
      "attered": 4147,
      "ĠSat": 4148,
      "Ġrul": 4149,
      "Ġfort": 4150,
      "Ġjo": 4151,
      "Ġjer": 4152,
      "Ġplain": 4153,
      "Ġunex": 4154,
      "pted": 4155,
      "Ġanywhere": 4156,
      "ĠRain": 4157,
      "Ġwanting": 4158,
      "Ġcurious": 4159,
      "ĠQu": 4160,
      "Ġtemp": 4161,
      "Ġrisk": 4162,
      "kward": 4163,
      "ns": 4164,
      "rict": 4165,
      "ya": 4166,
      "Ġ8": 4167,
      "Ġsouth": 4168,
      "Ġfist": 4169,
      "Ġmask": 4170,
      "Ġdom": 4171,
      "Ġhoney": 4172,
      "ature": 4173,
      "ators": 4174,
      "Ġgives": 4175,
      "let": 4176,
      "Ġstare": 4177,
      "Ġstream": 4178,
      "Ġanci": 4179,
      "Ġsole": 4180,
      "Ġconsequ": 4181,
      "Ġvir": 4182,
      "Ġvast": 4183,
      "unately": 4184,
      "Ġheads": 4185,
      "Ġshape": 4186,
      "Ġpray": 4187,
      "Ġbelong": 4188,
      "Ġwarning": 4189,
      "Ġhardly": 4190,
      "Ġawkward": 4191,
      "Ġexped": 4192,
      "Ġlovely": 4193,
      "Ġdragged": 4194,
      "Ġforever": 4195,
      "Ġdeliber": 4196,
      "Ġleading": 4197,
      "Ġindeed": 4198,
      "Ġstreets": 4199,
      "Ġclassroom": 4200,
      "Ġignored": 4201,
      "Ġaccepted": 4202,
      "Ġcircum": 4203,
      "Ġceiling": 4204,
      "ĠEmerc": 4205,
      "Ġmemories": 4206,
      "aly": 4207,
      "iod": 4208,
      "Ġaver": 4209,
      "Ġbol": 4210,
      "Ġhint": 4211,
      "Ġgigg": 4212,
      "Ġwaste": 4213,
      "ayne": 4214,
      "ador": 4215,
      "Ġrang": 4216,
      "Ġsepar": 4217,
      "Ġjump": 4218,
      "ĠDef": 4219,
      "istic": 4220,
      "Ġchoose": 4221,
      "ission": 4222,
      "ĠStates": 4223,
      "Ġsniff": 4224,
      "Ġrefused": 4225,
      "Ġconcent": 4226,
      "ĠOffice": 4227,
      "Ġvillage": 4228,
      "claimed": 4229,
      "bel": 4230,
      "cher": 4231,
      "men": 4232,
      "inging": 4233,
      "Ġhealth": 4234,
      "Ġate": 4235,
      "rop": 4236,
      "ushing": 4237,
      "Ġsumm": 4238,
      "Ġclock": 4239,
      "agon": 4240,
      "Ġtwisted": 4241,
      "Ġglim": 4242,
      "Ġarmy": 4243,
      "Ġserved": 4244,
      "ĠAlec": 4245,
      "Ġaccord": 4246,
      "Ġforehead": 4247,
      "Ġblinked": 4248,
      "ĠMonti": 4249,
      "Ġanticip": 4250,
      "Ex": 4251,
      "rit": 4252,
      "Ġaim": 4253,
      "Ġachie": 4254,
      "Ġwet": 4255,
      "Ġwore": 4256,
      "Ġfair": 4257,
      "orrow": 4258,
      "Ġinev": 4259,
      "aries": 4260,
      "idget": 4261,
      "alace": 4262,
      "kend": 4263,
      "Ġshocked": 4264,
      "Ġjaw": 4265,
      "Ġknife": 4266,
      "Ġagre": 4267,
      "ĠGabrielle": 4268,
      "ĠRud": 4269,
      "Ġenorm": 4270,
      "Ġslave": 4271,
      "ucked": 4272,
      "Ġperiod": 4273,
      "ĠThose": 4274,
      "ĠNothing": 4275,
      "Ġloudly": 4276,
      "Ġcomfortable": 4277,
      "Ġtravel": 4278,
      "Ġeyebrows": 4279,
      "Ġinevit": 4280,
      "ik": 4281,
      "Ġ9": 4282,
      "Ġtun": 4283,
      "Ġwest": 4284,
      "Ġfailed": 4285,
      "Ġmod": 4286,
      "Ġdirty": 4287,
      "Ġpant": 4288,
      "Ġyards": 4289,
      "ĠSher": 4290,
      "illing": 4291,
      "ĠCabinet": 4292,
      "ĠJoe": 4293,
      "Ġgrad": 4294,
      "Ġbrill": 4295,
      "onscious": 4296,
      "Ġaccount": 4297,
      "Ġcollap": 4298,
      "ĠUnit": 4299,
      "reedom": 4300,
      "Ġscreamed": 4301,
      "Ġobserved": 4302,
      "Ġgrip": 4303,
      "Ġdrug": 4304,
      "ĠThank": 4305,
      "Ġbalance": 4306,
      "Ġexperienced": 4307,
      "Ġexplanation": 4308,
      "Ar": 4309,
      "esides": 4310,
      "arin": 4311,
      "ats": 4312,
      "oted": 4313,
      "Ġrise": 4314,
      "Ġnotion": 4315,
      "ĠBook": 4316,
      "ĠBadir": 4317,
      "pless": 4318,
      "ploy": 4319,
      "Ġswept": 4320,
      "Ġdescri": 4321,
      "Ġseriously": 4322,
      "ception": 4323,
      "Ġincident": 4324,
      "Ġexpecting": 4325,
      "Ġlanded": 4326,
      "Ġfighters": 4327,
      "Ġmissing": 4328,
      "Ġprovided": 4329,
      "Ġsurvive": 4330,
      "Ġrecognize": 4331,
      "Ġpuzz": 4332,
      "Ġsearching": 4333,
      "ĠLamish": 4334,
      "io": 4335,
      "mber": 4336,
      "ring": 4337,
      "time": 4338,
      "uced": 4339,
      "Ġband": 4340,
      "erge": 4341,
      "Ġcustom": 4342,
      "Ġcivil": 4343,
      "ites": 4344,
      "itions": 4345,
      "ences": 4346,
      "acr": 4347,
      "ĠJew": 4348,
      "Ġdownstairs": 4349,
      "Ġflick": 4350,
      "udge": 4351,
      "Ġremark": 4352,
      "Ġresist": 4353,
      "ointed": 4354,
      "Ġwarri": 4355,
      "Ġincre": 4356,
      "Ġelev": 4357,
      "Ġuncomfort": 4358,
      "Ġenjoyed": 4359,
      "ventually": 4360,
      "Ġthrust": 4361,
      "ĠEveryone": 4362,
      "Ġreceived": 4363,
      "Ġmirr": 4364,
      "ĠAwak": 4365,
      "elligence": 4366,
      "ĠAngela": 4367,
      ".'_": 4368,
      "Go": 4369,
      "God": 4370,
      "aone": 4371,
      "fe": 4372,
      "form": 4373,
      "rid": 4374,
      "Ġshat": 4375,
      "Ġbul": 4376,
      "Ġmater": 4377,
      "Ġhill": 4378,
      "Ġinj": 4379,
      "Ġhated": 4380,
      "ĠSouth": 4381,
      "Ġwear": 4382,
      "ĠAlthea": 4383,
      "ama": 4384,
      "Ġlip": 4385,
      "ĠOur": 4386,
      "Ġroll": 4387,
      "Ġrolling": 4388,
      "Ġnowhere": 4389,
      "Ġremarked": 4390,
      "Ġemerg": 4391,
      "Ġspeech": 4392,
      "Ġfighting": 4393,
      "Ġdrinking": 4394,
      "Ġannounced": 4395,
      "Ġcondition": 4396,
      "Ġmassive": 4397,
      "Ġsoldiers": 4398,
      "Ġdetermined": 4399,
      "Ġtechn": 4400,
      "back": 4401,
      "kin": 4402,
      "mn": 4403,
      "Ġwis": 4404,
      "Ġbuck": 4405,
      "Ġinit": 4406,
      "Ġep": 4407,
      "Ġrever": 4408,
      "ĠHiber": 4409,
      "Ġrace": 4410,
      "Ġexit": 4411,
      "Ġplastic": 4412,
      "ĠOl": 4413,
      "Ġthinks": 4414,
      "Ġeverywhere": 4415,
      "Ġprevent": 4416,
      "ĠYet": 4417,
      "cip": 4418,
      "Ġpulls": 4419,
      "Ġpassing": 4420,
      "Ġprotest": 4421,
      "Ġdamned": 4422,
      "Ġsouls": 4423,
      "Ġweekend": 4424,
      "Ġanimals": 4425,
      "ĠKayla": 4426,
      "Ġwelcome": 4427,
      "Ġcharacter": 4428,
      "Ġconsciousness": 4429,
      "Ġfurniture": 4430,
      "ĠHiberas": 4431,
      "chan": 4432,
      "nal": 4433,
      "uch": 4434,
      "Ġhips": 4435,
      "atory": 4436,
      "Ġnames": 4437,
      "Ġreaching": 4438,
      "Ġonline": 4439,
      "ality": 4440,
      "Ġbutton": 4441,
      "rib": 4442,
      "riatus": 4443,
      "Ġdeg": 4444,
      "Ġintention": 4445,
      "Ġintended": 4446,
      "ĠJayne": 4447,
      "Ġtraining": 4448,
      "ĠPeter": 4449,
      "Ġunus": 4450,
      "elve": 4451,
      "ĠRom": 4452,
      "Ġrole": 4453,
      "Ġthroughout": 4454,
      "aige": 4455,
      "Ġrooms": 4456,
      "Ġsurre": 4457,
      "Ġlift": 4458,
      "Ġretreat": 4459,
      "Ġassist": 4460,
      "Ġcommon": 4461,
      "they": 4462,
      "Ġsimilar": 4463,
      "ienko": 4464,
      "Ġhoriz": 4465,
      "Ġsenses": 4466,
      "Islena": 4467,
      "Ġgasped": 4468,
      "Ġparking": 4469,
      "Ġlucky": 4470,
      "Ġinterrupted": 4471,
      "Ġchuckled": 4472,
      "ĠMorticants": 4473,
      "Hello": 4474,
      "Ġunexpected": 4475,
      "front": 4476,
      "pite": 4477,
      "tar": 4478,
      "wen": 4479,
      "zing": 4480,
      "Ġfought": 4481,
      "Ġdue": 4482,
      "Ġpause": 4483,
      "ĠSee": 4484,
      "aming": 4485,
      "Ġsection": 4486,
      "ables": 4487,
      "pend": 4488,
      "unted": 4489,
      "Ġprogress": 4490,
      "Ġresol": 4491,
      "Ġattract": 4492,
      "Ġchain": 4493,
      "Ġstartled": 4494,
      "Ġdesire": 4495,
      "Ġharsh": 4496,
      "ĠStrate": 4497,
      "Ġresting": 4498,
      "Ġmostly": 4499,
      "Ġpassage": 4500,
      "ĠThough": 4501,
      "vision": 4502,
      "Ġmarried": 4503,
      "Ġradiation": 4504,
      "Ġyelled": 4505,
      "Ġthrowing": 4506,
      "Ġthousand": 4507,
      "Ġrifle": 4508,
      "Ġinvestig": 4509,
      "bara": 4510,
      "rete": 4511,
      "Ġpace": 4512,
      "Ġpier": 4513,
      "Ġloss": 4514,
      "Ġlines": 4515,
      "asped": 4516,
      "ĠSection": 4517,
      "ĠHave": 4518,
      "ĠMan": 4519,
      "Ġgod": 4520,
      "arden": 4521,
      "ulation": 4522,
      "emember": 4523,
      "ounds": 4524,
      "Ġrob": 4525,
      "ĠFar": 4526,
      "Ġtwice": 4527,
      "ĠInner": 4528,
      "Ġcalls": 4529,
      "Ġfeels": 4530,
      "Ġdefend": 4531,
      "ĠAdriatus": 4532,
      "Ġdelight": 4533,
      "ĠConstitution": 4534,
      "Ġbringing": 4535,
      "Ġfocused": 4536,
      "Ġappearance": 4537,
      "Ġmentioned": 4538,
      "Ġsmooth": 4539,
      "Ġvarious": 4540,
      "Ġblonde": 4541,
      "Perhaps": 4542,
      "Ġcircumst": 4543,
      "One": 4544,
      "To": 4545,
      "ault": 4546,
      "tling": 4547,
      "Ġbite": 4548,
      "Ġdance": 4549,
      "ano": 4550,
      "Ġinha": 4551,
      "Ġthunder": 4552,
      "Ġstumbled": 4553,
      "Ġweird": 4554,
      "alley": 4555,
      "ille": 4556,
      "Ġshore": 4557,
      "Ġship": 4558,
      "Ġje": 4559,
      "oses": 4560,
      "Ġunless": 4561,
      "eling": 4562,
      "ianos": 4563,
      "Ġbegun": 4564,
      "Ġconfident": 4565,
      "Ġdistant": 4566,
      "Ġdefense": 4567,
      "Ġaccident": 4568,
      "Ġgrabs": 4569,
      "Ġenjoying": 4570,
      "Ġmember": 4571,
      "ĠDonald": 4572,
      "Ġtype": 4573,
      "Ġfifteen": 4574,
      "ĠAfric": 4575,
      "Ġrelieved": 4576,
      "Ġbreeze": 4577,
      "Because": 4578,
      "DC": 4579,
      "Hi": 4580,
      "cr": 4581,
      "Ġsides": 4582,
      "Ġcabin": 4583,
      "Ġhors": 4584,
      "Ġhidden": 4585,
      "Ġrear": 4586,
      "ĠTy": 4587,
      "ĠSte": 4588,
      "ĠScript": 4589,
      "Ġrage": 4590,
      "Ġfruit": 4591,
      "ĠDr": 4592,
      "ĠJones": 4593,
      "ĠPl": 4594,
      "ĠOwen": 4595,
      "ĠEventually": 4596,
      "Ġflu": 4597,
      "Ġflashed": 4598,
      "atherine": 4599,
      "Ġsettle": 4600,
      "ĠVelta": 4601,
      "Ġbreathed": 4602,
      "Ġsupplies": 4603,
      "Ġyounger": 4604,
      "Ġparked": 4605,
      "Ġrubbed": 4606,
      "Ġperfectly": 4607,
      "Ġnotebook": 4608,
      "Ġfifty": 4609,
      "ĠMarsden": 4610,
      "Ġrepeated": 4611,
      "ĠMakienko": 4612,
      "Ġfemale": 4613,
      "Den": 4614,
      "On": 4615,
      "cery": 4616,
      "pers": 4617,
      "Ġtar": 4618,
      "Ġtang": 4619,
      "Ġboss": 4620,
      "Ġfail": 4621,
      "arai": 4622,
      "idering": 4623,
      "Ġthor": 4624,
      "Ġstar": 4625,
      "semb": 4626,
      "ĠSaone": 4627,
      "Ġalarm": 4628,
      "Ġclay": 4629,
      "Ġwhenever": 4630,
      "Ġglared": 4631,
      "Ġfeelings": 4632,
      "Ġactiv": 4633,
      "Ġstrang": 4634,
      "Ġcourage": 4635,
      "Ġpicking": 4636,
      "Ġmonit": 4637,
      "ĠCarol": 4638,
      "Ġapproach": 4639,
      "Ġwonderful": 4640,
      "Ġbags": 4641,
      "Ġtotal": 4642,
      "Ġvampire": 4643,
      "Ġdisplay": 4644,
      "Ġembrace": 4645,
      "Ġhorizon": 4646,
      "Ġbent": 4647,
      "Ġbast": 4648,
      "Ġfixed": 4649,
      "oning": 4650,
      "Ġgut": 4651,
      "Ġupper": 4652,
      "amon": 4653,
      "Ġmeal": 4654,
      "Ġsending": 4655,
      "Ġsaved": 4656,
      "ĠCent": 4657,
      "pel": 4658,
      "ĠLacy": 4659,
      "olate": 4660,
      "Ġclub": 4661,
      "oves": 4662,
      "ĠRo": 4663,
      "Ġscow": 4664,
      "Ġhasn": 4665,
      "Ġappears": 4666,
      "Ġbegins": 4667,
      "Ġassumed": 4668,
      "Ġsits": 4669,
      "Ġstopping": 4670,
      "Ġdefe": 4671,
      "Ġchecking": 4672,
      "Ġgroaned": 4673,
      "ĠSule": 4674,
      "Ġignore": 4675,
      "Ġclouds": 4676,
      "ĠNatianos": 4677,
      "ĠSenate": 4678,
      "Ġfrustration": 4679,
      "Ġabsolutely": 4680,
      "Ġconcerned": 4681,
      "Ġshelter": 4682,
      "ĠRobin": 4683,
      "Ġmirror": 4684,
      "Ġmaterial": 4685,
      "Uh": 4686,
      "Ġfish": 4687,
      "Ġheight": 4688,
      "Ġnamed": 4689,
      "sec": 4690,
      "irlf": 4691,
      "ĠHam": 4692,
      "Ġforty": 4693,
      "ĠCong": 4694,
      "Ġknee": 4695,
      "Ġfellow": 4696,
      "Ġnobody": 4697,
      "Ġspat": 4698,
      "Ġspun": 4699,
      "Ġspark": 4700,
      "assion": 4701,
      "ordon": 4702,
      "Ġassume": 4703,
      "Ġhug": 4704,
      "Ġwallet": 4705,
      "Ġlots": 4706,
      "Ġstaying": 4707,
      "ĠWithout": 4708,
      "Ġarrive": 4709,
      "Ġattempting": 4710,
      "Ġmuscles": 4711,
      "Ġoccup": 4712,
      "ĠEverything": 4713,
      "ĠQue": 4714,
      "Ġsucks": 4715,
      "Ġissue": 4716,
      "Ġapparently": 4717,
      "Ġrapidly": 4718,
      "Ġabandoned": 4719,
      "ĠUsarai": 4720,
      "Ġhorses": 4721,
      "irlfriend": 4722,
      "mar": 4723,
      "Ġlosing": 4724,
      "Ġhous": 4725,
      "stal": 4726,
      "ĠServ": 4727,
      "Ġforces": 4728,
      "ĠCDC": 4729,
      "antic": 4730,
      "Ġgrown": 4731,
      "Ġotherwise": 4732,
      "rud": 4733,
      "Ġremaining": 4734,
      "Ġchose": 4735,
      "bey": 4736,
      "Ġhelpless": 4737,
      "Ġstranger": 4738,
      "Ġpointing": 4739,
      "Ġdrag": 4740,
      "Ġaccomp": 4741,
      "Ġcomplex": 4742,
      "Ġlocation": 4743,
      "ĠBarbara": 4744,
      "Ġdestruction": 4745,
      "Ġwarmth": 4746,
      "Ġconstant": 4747,
      "Ġemotional": 4748,
      "Ġengine": 4749,
      "Ġflying": 4750,
      "Ġgathering": 4751,
      "Ġsample": 4752,
      "Ġdawn": 4753,
      "Ġwaist": 4754,
      "Ġwandered": 4755,
      "Ġfeatures": 4756,
      "ĠEmercian": 4757,
      "Ġcircumstances": 4758,
      "RU": 4759,
      "ares": 4760,
      "cast": 4761,
      "pet": 4762,
      "yet": 4763,
      "Ġwid": 4764,
      "Ġfence": 4765,
      "Ġpour": 4766,
      "Ġlake": 4767,
      "Ġloose": 4768,
      "atch": 4769,
      "ĠSc": 4770,
      "ĠMe": 4771,
      "iform": 4772,
      "Ġknocked": 4773,
      "Ġconce": 4774,
      "Ġven": 4775,
      "ĠZach": 4776,
      "Ġourselves": 4777,
      "Ġunderground": 4778,
      "ivid": 4779,
      "Ġattitude": 4780,
      "Ġswall": 4781,
      "iety": 4782,
      "Ġclosely": 4783,
      "Ġbuildings": 4784,
      "ĠBeamon": 4785,
      "Ġinformed": 4786,
      "Ġveget": 4787,
      "Ġgrowled": 4788,
      "Ġdisappear": 4789,
      "Ġgeneral": 4790,
      "Ġconvin": 4791,
      "Ġmountains": 4792,
      "Ġphotogra": 4793,
      "Ġslammed": 4794,
      "Ġextremely": 4795,
      "Ġsqueezed": 4796,
      "ĠDespite": 4797,
      "Ġuncomfortable": 4798,
      "ĠQueen": 4799,
      "Acting": 4800,
      "Right": 4801,
      "iam": 4802,
      "yn": 4803,
      "Ġtur": 4804,
      "Ġsize": 4805,
      "Ġsacr": 4806,
      "hael": 4807,
      "Ġbill": 4808,
      "Ġlob": 4809,
      "aches": 4810,
      "str": 4811,
      "ĠTH": 4812,
      "Ġstars": 4813,
      "rian": 4814,
      "ĠJolic": 4815,
      "isten": 4816,
      "ĠLaw": 4817,
      "ola": 4818,
      "Ġplenty": 4819,
      "agged": 4820,
      "Ġarrest": 4821,
      "Ġdiss": 4822,
      "Ġprefer": 4823,
      "Ġseemingly": 4824,
      "Ġ19": 4825,
      "Ġdetail": 4826,
      "cluded": 4827,
      "Ġsurvived": 4828,
      "Ġprofound": 4829,
      "Ġawakened": 4830,
      "Ġdestroy": 4831,
      "board": 4832,
      "Ġterms": 4833,
      "Ġextended": 4834,
      "Ġpowers": 4835,
      "Ġancient": 4836,
      "Ġagreement": 4837,
      "Ġthorough": 4838,
      "ĠJolica": 4839,
      "Al": 4840,
      "Here": 4841,
      "Very": 4842,
      "gment": 4843,
      "ners": 4844,
      "Ġmoon": 4845,
      "Ġdying": 4846,
      "Ġpink": 4847,
      "Ġyard": 4848,
      "ales": 4849,
      "ĠSince": 4850,
      "Ġnotes": 4851,
      "Ġsucc": 4852,
      "osc": 4853,
      "Ġvul": 4854,
      "ulf": 4855,
      "Ġuniform": 4856,
      "orthern": 4857,
      "Ġproject": 4858,
      "oyal": 4859,
      "Ġtend": 4860,
      "Ġcleared": 4861,
      "ĠStreet": 4862,
      "Ġwrite": 4863,
      "Ġreluct": 4864,
      "Ġexpress": 4865,
      "Ġruns": 4866,
      "Ġdeeper": 4867,
      "Ġbloody": 4868,
      "Ġbitter": 4869,
      "Ġrecently": 4870,
      "Ġescaped": 4871,
      "Ġconfirmed": 4872,
      "Ġfirmly": 4873,
      "Ġmystery": 4874,
      "Ġhigher": 4875,
      "Have": 4876,
      "apping": 4877,
      "nation": 4878,
      "Ġtip": 4879,
      "inous": 4880,
      "Ġpul": 4881,
      "Ġthigh": 4882,
      "ications": 4883,
      "roll": 4884,
      "Ġsea": 4885,
      "ĠCome": 4886,
      "ĠCirc": 4887,
      "Ġjacket": 4888,
      "ĠDep": 4889,
      "Ġalert": 4890,
      "osure": 4891,
      "arted": 4892,
      "ĠGraham": 4893,
      "ĠGordon": 4894,
      "dding": 4895,
      "aps": 4896,
      "Ġbuying": 4897,
      "Ġ15": 4898,
      "Ġcausing": 4899,
      "Ġdifference": 4900,
      "ĠFriday": 4901,
      "Ġdouble": 4902,
      "Ġscreaming": 4903,
      "Ġnormally": 4904,
      "ĠMarshall": 4905,
      "Ġhesitated": 4906,
      "Ġpossessed": 4907,
      "ĠTris": 4908,
      "Ġgolden": 4909,
      "Ġangels": 4910,
      "Ġpolitical": 4911,
      "Ġbirthday": 4912,
      "Ġeru": 4913,
      "Ġbranches": 4914,
      "Ġstunned": 4915,
      "ĠMirades": 4916,
      "idgetown": 4917,
      ":**": 4918,
      "Any": 4919,
      "iosity": 4920,
      "pse": 4921,
      "ĠX": 4922,
      "Ġcow": 4923,
      "Ġcred": 4924,
      "Ġgirlfriend": 4925,
      "oms": 4926,
      "lear": 4927,
      "Ġstair": 4928,
      "ĠAust": 4929,
      "Ġexclaimed": 4930,
      "Ġsomebody": 4931,
      "ondon": 4932,
      "Ġresc": 4933,
      "Ġserv": 4934,
      "Ġsilver": 4935,
      "Ġcuriosity": 4936,
      "Ġdiscern": 4937,
      "Ġcorrid": 4938,
      "Ġpriest": 4939,
      "Ġwooden": 4940,
      "Ġsolid": 4941,
      "Ġsuffering": 4942,
      "Ġburning": 4943,
      "Ġgrimaced": 4944,
      "Ġrelaxed": 4945,
      "Ġbehav": 4946,
      "Chapter": 4947,
      "bl": 4948,
      "cul": 4949,
      "yth": 4950,
      "Ġwed": 4951,
      "iter": 4952,
      "onna": 4953,
      "Ġrushed": 4954,
      "illy": 4955,
      "rous": 4956,
      "Ġsoil": 4957,
      "Ġliqu": 4958,
      "osen": 4959,
      "uming": 4960,
      "ĠPlease": 4961,
      "ĠLondon": 4962,
      "Ġens": 4963,
      "Ġremoved": 4964,
      "Ġteacher": 4965,
      "Ġpassion": 4966,
      "ĠBridgetown": 4967,
      "Ġsupply": 4968,
      "Ġexplod": 4969,
      "velation": 4970,
      "Ġsigns": 4971,
      "Ġshouts": 4972,
      "Ġcircle": 4973,
      "Ġflowers": 4974,
      "Ġbowl": 4975,
      "Ġawakening": 4976,
      "ĠDrake": 4977,
      "Ġmistake": 4978,
      "Ġblanket": 4979,
      "ĠMichael": 4980,
      "Ġdiscover": 4981,
      "Ġdisgust": 4982,
      "ĠEnglish": 4983,
      "Ġvehicle": 4984,
      "Ġdeliberately": 4985,
      "'.": 4986,
      "30": 4987,
      "nes": 4988,
      "pryss": 4989,
      "sm": 4990,
      "Ġtu": 4991,
      "Ġwished": 4992,
      "Ġfed": 4993,
      "Ġfant": 4994,
      "Ġfacing": 4995,
      "Ġfreedom": 4996,
      "Ġmill": 4997,
      "Ġmurm": 4998,
      "orse": 4999,
      "Ġpity": 5000,
      "Ġpile": 5001,
      "att": 5002,
      "atched": 5003,
      "Ġgear": 5004,
      "omes": 5005,
      "Ġthus": 5006,
      "ential": 5007,
      "Ġframe": 5008,
      "ĠCaden": 5009,
      "antage": 5010,
      "ĠBecause": 5011,
      "Ġintent": 5012,
      "Ġvirt": 5013,
      "ĠPaige": 5014,
      "ĠGet": 5015,
      "ĠKev": 5016,
      "Ġbrushed": 5017,
      "azed": 5018,
      "Ġsetting": 5019,
      "rence": 5020,
      "Ġconsidering": 5021,
      "Ġstudy": 5022,
      "Ġimmediate": 5023,
      "Ġlocate": 5024,
      "Ġhurry": 5025,
      "ĠDenysia": 5026,
      "Ġshade": 5027,
      "atively": 5028,
      "Ġpromised": 5029,
      "Ġconstitution": 5030,
      "Ġaffected": 5031,
      "ĠReg": 5032,
      "ĠRedia": 5033,
      "Ġburned": 5034,
      "ĠAmpryss": 5035,
      "Ġvanished": 5036,
      "Ġpressure": 5037,
      "Ġcamera": 5038,
      "Ġprophe": 5039,
      "Ġwiped": 5040,
      "Ġinnocent": 5041,
      "arinna": 5042,
      "Ġtarget": 5043,
      "Wait": 5044,
      "inc": 5045,
      "Ġfaint": 5046,
      "ases": 5047,
      "arters": 5048,
      "ĠTier": 5049,
      "Ġult": 5050,
      "Ġstage": 5051,
      "Ġrate": 5052,
      "Ġconcept": 5053,
      "cknow": 5054,
      "uments": 5055,
      "Ġagent": 5056,
      "ĠOther": 5057,
      "Ġseek": 5058,
      "Ġeverybody": 5059,
      "Ġprim": 5060,
      "Ġimpat": 5061,
      "Ġawait": 5062,
      "idding": 5063,
      "Ġarrival": 5064,
      "Ġkisses": 5065,
      "Ġpoison": 5066,
      "Ġreported": 5067,
      "Ġmagic": 5068,
      "Ġstruggle": 5069,
      "Ġnervously": 5070,
      "Ġconnection": 5071,
      "Ġbreasts": 5072,
      "uhm": 5073,
      "Ġneighbor": 5074,
      "Ġbrilliant": 5075,
      "fall": 5076,
      "uish": 5077,
      "ugg": 5078,
      "ounce": 5079,
      "Ġban": 5080,
      "erted": 5081,
      "Ġfile": 5082,
      "Ġmult": 5083,
      "Ġpiss": 5084,
      "asm": 5085,
      "otic": 5086,
      "ĠTest": 5087,
      "ĠSal": 5088,
      "ĠARU": 5089,
      "Ġupset": 5090,
      "ĠBesides": 5091,
      "Ġvent": 5092,
      "ĠPat": 5093,
      "Ġbless": 5094,
      "Ġblade": 5095,
      "Ġ_\\_": 5096,
      "Ġopens": 5097,
      "Ġchosen": 5098,
      "Ġcrim": 5099,
      "Ġcontinues": 5100,
      "iverse": 5101,
      "Ġrange": 5102,
      "Ġsubs": 5103,
      "ĠMaxwell": 5104,
      "ĠSomeone": 5105,
      "Ġiron": 5106,
      "Ġclothing": 5107,
      "Ġhonor": 5108,
      "Ġoption": 5109,
      "rawl": 5110,
      "Ġutterly": 5111,
      "Ġfavorite": 5112,
      "Ġappreciate": 5113,
      "Ġenormous": 5114,
      "Ġunusual": 5115,
      "do": 5116,
      "whel": 5117,
      "Ġtit": 5118,
      "nday": 5119,
      "Ġcand": 5120,
      "orate": 5121,
      "Ġlink": 5122,
      "lect": 5123,
      "ĠHad": 5124,
      "Ġassemb": 5125,
      "Ġrush": 5126,
      "Ġdoc": 5127,
      "ĠBel": 5128,
      "ĠPet": 5129,
      "ĠKing": 5130,
      "Ġsmart": 5131,
      "Ġcontent": 5132,
      "Ġbrush": 5133,
      "Ġchick": 5134,
      "Ġparts": 5135,
      "Ġputs": 5136,
      "Ġassass": 5137,
      "Ġconfront": 5138,
      "Ġstands": 5139,
      "ĠSoon": 5140,
      "ĠGoddess": 5141,
      "Ġsteel": 5142,
      "Ġcaut": 5143,
      "Ġsquare": 5144,
      "Ġconcrete": 5145,
      "Ġsensation": 5146,
      "Ġprior": 5147,
      "Ġcommander": 5148,
      "Ġcompanion": 5149,
      "Ġshuttle": 5150,
      "Ġparticularly": 5151,
      "ĠRedian": 5152,
      "Ġsurrounded": 5153,
      "Ġsandw": 5154,
      "Ġarrange": 5155,
      "Ġoperation": 5156,
      "Ġblocks": 5157,
      "Ġdismiss": 5158,
      "Ġmurder": 5159,
      "Ġdescended": 5160,
      "Ġmental": 5161,
      "Ġreligious": 5162,
      "Ġprecisely": 5163,
      "Ġlanguage": 5164,
      "taru": 5165,
      "gy": 5166,
      "ka": 5167,
      "mon": 5168,
      "pir": 5169,
      "rin": 5170,
      "rom": 5171,
      "Ġtaught": 5172,
      "Ġtore": 5173,
      "Ġfal": 5174,
      "isible": 5175,
      "asons": 5176,
      "icy": 5177,
      "imm": 5178,
      "urday": 5179,
      "ĠMain": 5180,
      "Ġshiver": 5181,
      "quarters": 5182,
      "Ġvague": 5183,
      "Ġunp": 5184,
      "eless": 5185,
      "ĠNic": 5186,
      "Ġblame": 5187,
      "ailable": 5188,
      "Ġkeen": 5189,
      "Ġswear": 5190,
      "obody": 5191,
      "Ġconfidence": 5192,
      "Ġreturning": 5193,
      "Ġpersonally": 5194,
      "Ġbushes": 5195,
      "Ġlocated": 5196,
      "Ġlouder": 5197,
      "Ġgenuine": 5198,
      "Ġcompanions": 5199,
      "Ġtorment": 5200,
      "Ġpieces": 5201,
      "Ġequip": 5202,
      "Ġarranged": 5203,
      "Ġenemies": 5204,
      "Ġfacility": 5205,
      "uinevere": 5206,
      "Ġoriginal": 5207,
      "eks": 5208,
      "gu": 5209,
      "Ġerr": 5210,
      "Ġnuhm": 5211,
      "Ġreass": 5212,
      "uttered": 5213,
      "Ġaspect": 5214,
      "Ġripp": 5215,
      "ĠMer": 5216,
      "Ġkicked": 5217,
      "ĠCatherine": 5218,
      "Ġbutt": 5219,
      "Ġintim": 5220,
      "Ġspin": 5221,
      "urning": 5222,
      "Ġblur": 5223,
      "Ġgrace": 5224,
      "Ġscan": 5225,
      "Ġprete": 5226,
      "ĠYork": 5227,
      "Ġimpro": 5228,
      "Ġsmaller": 5229,
      "Ġ12": 5230,
      "Ġrecent": 5231,
      "ashion": 5232,
      "Ġeasier": 5233,
      "Ġdetect": 5234,
      "Ġallowing": 5235,
      "Ġlanding": 5236,
      "usement": 5237,
      "Ġhungry": 5238,
      "Ġstatement": 5239,
      "ĠRussians": 5240,
      "Ġdrawing": 5241,
      "Ġmedical": 5242,
      "words": 5243,
      "Ġtaste": 5244,
      "Ġheavens": 5245,
      "Ġversion": 5246,
      "Ġexpedition": 5247,
      "ĠCongress": 5248,
      "ĠCircle": 5249,
      "Ġwedding": 5250,
      "Ġequipment": 5251,
      "Sorry": 5252,
      "of": 5253,
      "rel": 5254,
      "Ġfaster": 5255,
      "Ġyeah": 5256,
      "Ġwash": 5257,
      "ethe": 5258,
      "Ġug": 5259,
      "Ġwithd": 5260,
      "Ġdoct": 5261,
      "Ġshivered": 5262,
      "ĠWil": 5263,
      "ĠJon": 5264,
      "ĠGuinevere": 5265,
      "Ġanybody": 5266,
      "ĠOtaru": 5267,
      "ĠEarth": 5268,
      "ĠFirst": 5269,
      "Ġamused": 5270,
      "Ġscen": 5271,
      "Ġscent": 5272,
      "Ġremains": 5273,
      "Ġattached": 5274,
      "Ġsidewalk": 5275,
      "Ġfilling": 5276,
      "Ġfootball": 5277,
      "Ġdespair": 5278,
      "Ġsuspected": 5279,
      "Ġpapers": 5280,
      "Ġmisery": 5281,
      "Ġpaying": 5282,
      "Ġpictures": 5283,
      "ology": 5284,
      "ĠAgent": 5285,
      "Ġrevealed": 5286,
      "Ġshooting": 5287,
      "Ġgarage": 5288,
      "Ġelectric": 5289,
      "Ġmuttered": 5290,
      "Ġtossed": 5291,
      "Ġchallenge": 5292,
      "Ġexistence": 5293,
      "ĠSaturday": 5294,
      "Ġwarrior": 5295,
      "Ġdegree": 5296,
      "Ġjeans": 5297,
      "ĠSalvation": 5298,
      "bling": 5299,
      "xy": 5300,
      "zurd": 5301,
      "Ġtied": 5302,
      "Ġsed": 5303,
      "Ġfab": 5304,
      "Ġfix": 5305,
      "Ġder": 5306,
      "Ġlad": 5307,
      "Ġlum": 5308,
      "lebr": 5309,
      "Ġstat": 5310,
      "Ġrising": 5311,
      "ĠMel": 5312,
      "Ġupstairs": 5313,
      "ĠBur": 5314,
      "Ġexer": 5315,
      "ulate": 5316,
      "resent": 5317,
      "isting": 5318,
      "Ġworst": 5319,
      "Ġunw": 5320,
      "Ġimper": 5321,
      "Ġscattered": 5322,
      "action": 5323,
      "Ġguide": 5324,
      "Ġemploy": 5325,
      "Ġchamber": 5326,
      "Ġnights": 5327,
      "Ġsecure": 5328,
      "Ġcrit": 5329,
      "Ġinvisible": 5330,
      "Ġinfl": 5331,
      "Ġbigger": 5332,
      "Ġmonster": 5333,
      "Ġraise": 5334,
      "ĠUniversity": 5335,
      "Nothing": 5336,
      "Ġgrocery": 5337,
      "Ġterrified": 5338,
      "Ġirrit": 5339,
      "Ġclimb": 5340,
      "Ġadmitted": 5341,
      "ĠAmna": 5342,
      "uclear": 5343,
      "Ġpurchase": 5344,
      "Ġelevator": 5345,
      "Ġlobby": 5346,
      "Ġbehavior": 5347,
      "zurdan": 5348,
      "eff": 5349,
      "mas": 5350,
      "no": 5351,
      "win": 5352,
      "Ġtempt": 5353,
      "Ġcit": 5354,
      "Ġdat": 5355,
      "Ġlion": 5356,
      "ĠSure": 5357,
      "urs": 5358,
      "alled": 5359,
      "ifting": 5360,
      "Ġwhim": 5361,
      "Ġconcl": 5362,
      "Ġintens": 5363,
      "Ġintently": 5364,
      "anding": 5365,
      "artment": 5366,
      "uno": 5367,
      "Ġnodding": 5368,
      "ĠGu": 5369,
      "ĠRa": 5370,
      "aping": 5371,
      "clam": 5372,
      "Ġimpression": 5373,
      "Ġhumans": 5374,
      "Ġcollar": 5375,
      "ĠLucif": 5376,
      "Ġdelivered": 5377,
      "Ġprotection": 5378,
      "Ġattacked": 5379,
      "Ġimages": 5380,
      "Ġrequire": 5381,
      "Ġcrying": 5382,
      "Ġspring": 5383,
      "ĠNatzurdan": 5384,
      "Ġexhausted": 5385,
      "Ġflew": 5386,
      "Ġjudge": 5387,
      "Ġdancing": 5388,
      "Ġnumbers": 5389,
      "Ġaccording": 5390,
      "Ġphotograph": 5391,
      "ĠTestament": 5392,
      "ĠLucifer": 5393,
      "net": 5394,
      "pri": 5395,
      "wing": 5396,
      "xed": 5397,
      "hell": 5398,
      "Ġsen": 5399,
      "Ġwings": 5400,
      "erable": 5401,
      "itory": 5402,
      "Ġdating": 5403,
      "Ġpil": 5404,
      "Ġhook": 5405,
      "Ġgonna": 5406,
      "Ġhast": 5407,
      "Ġthread": 5408,
      "Ġwashed": 5409,
      "Ġriding": 5410,
      "acks": 5411,
      "acked": 5412,
      "ĠCont": 5413,
      "Ġshift": 5414,
      "ĠWar": 5415,
      "ĠWat": 5416,
      "Ġvib": 5417,
      "Ġunl": 5418,
      "Ġoverwhel": 5419,
      "Ġquit": 5420,
      "Ġblast": 5421,
      "Ġprospect": 5422,
      "Ġbru": 5423,
      "udged": 5424,
      "athy": 5425,
      "Ġadvice": 5426,
      "Ġdistracted": 5427,
      "Ġpossibility": 5428,
      "Ġinches": 5429,
      "Ġinterv": 5430,
      "Ġstudent": 5431,
      "Ġpositive": 5432,
      "bye": 5433,
      "Ġofficial": 5434,
      "Ġimagined": 5435,
      "Ġglasses": 5436,
      "Ġafford": 5437,
      "Ġlimp": 5438,
      "Ġregarding": 5439,
      "Ġcovering": 5440,
      "Ġstruggled": 5441,
      "Ġwinter": 5442,
      "Ġsamples": 5443,
      "Ġconfirm": 5444,
      "Ġthousands": 5445,
      "Ġvampires": 5446,
      "Ġdesperately": 5447,
      "Ġbullet": 5448,
      "Ġtrembling": 5449,
      "ĠDefense": 5450,
      "ĠJoey": 5451,
      "Ġbastard": 5452,
      "ĠNicola": 5453,
      "Damn": 5454,
      "ON": 5455,
      "Or": 5456,
      "Tell": 5457,
      "pap": 5458,
      "yard": 5459,
      "inate": 5460,
      "Ġfart": 5461,
      "Ġfasc": 5462,
      "onment": 5463,
      "Ġgre": 5464,
      "omb": 5465,
      "icious": 5466,
      "Ġhissed": 5467,
      "Ġjoke": 5468,
      "uses": 5469,
      "Ġconve": 5470,
      "Ġvid": 5471,
      "ulence": 5472,
      "ests": 5473,
      "ĠKraft": 5474,
      "ĠOut": 5475,
      "Ġswift": 5476,
      "Ġacting": 5477,
      "Ġcris": 5478,
      "Ġreplaced": 5479,
      "ĠAlthough": 5480,
      "Ġbored": 5481,
      "Ġholds": 5482,
      "Ġbadly": 5483,
      "ĠSecurity": 5484,
      "Ġmagaz": 5485,
      "ashington": 5486,
      "Ġphotos": 5487,
      "Ġdestroyed": 5488,
      "Ġresponsible": 5489,
      "ĠPeople": 5490,
      "ĠAwakening": 5491,
      "At": 5492,
      "bri": 5493,
      "friend": 5494,
      "ique": 5495,
      "kn": 5496,
      "oly": 5497,
      "Ġtale": 5498,
      "Ġacknow": 5499,
      "Ġwise": 5500,
      "Ġcult": 5501,
      "Ġdare": 5502,
      "Ġdumb": 5503,
      "estern": 5504,
      "Ġhalt": 5505,
      "Ġhabit": 5506,
      "Ġeager": 5507,
      "ĠTW": 5508,
      "ays": 5509,
      "ĠSlow": 5510,
      "key": 5511,
      "ĠMajor": 5512,
      "ĠCould": 5513,
      "ĠWashington": 5514,
      "ĠBed": 5515,
      "Ġintelligence": 5516,
      "Ġwheel": 5517,
      "Ġbackground": 5518,
      "ĠLook": 5519,
      "rael": 5520,
      "Ġmanage": 5521,
      "Ġcontents": 5522,
      "Ġcoat": 5523,
      "Ġends": 5524,
      "Ġsmiles": 5525,
      "Ġhelping": 5526,
      "Ġanswering": 5527,
      "Ġsnar": 5528,
      "Ġgreater": 5529,
      "Ġpainful": 5530,
      "Ġtrem": 5531,
      "Ġsubst": 5532,
      "ĠThom": 5533,
      "Ġsunlight": 5534,
      "Ġhurried": 5535,
      "Ġdining": 5536,
      "Ġbleed": 5537,
      "Ġgestured": 5538,
      "force": 5539,
      "Ġestab": 5540,
      "Ġleadership": 5541,
      "Ġmulti": 5542,
      "etheless": 5543,
      "Ġugly": 5544,
      "tw": 5545,
      "Ġtal": 5546,
      "Ġwicked": 5547,
      "erves": 5548,
      "Ġpoured": 5549,
      "asper": 5550,
      "Ġgift": 5551,
      "ache": 5552,
      "aying": 5553,
      "Ġsty": 5554,
      "Ġstern": 5555,
      "ĠSerge": 5556,
      "ĠHim": 5557,
      "Ġwebs": 5558,
      "ĠAir": 5559,
      "uries": 5560,
      "Ġkick": 5561,
      "Ġdozen": 5562,
      "ĠCreat": 5563,
      "Ġshield": 5564,
      "Ġfeared": 5565,
      "Ġtraff": 5566,
      "igil": 5567,
      "Ġplant": 5568,
      "elin": 5569,
      "ĠGhar": 5570,
      "Ġtwelve": 5571,
      "aiah": 5572,
      "herent": 5573,
      "Ġswim": 5574,
      "Ġperce": 5575,
      "Ġcheeks": 5576,
      "ĠState": 5577,
      "Ġcompre": 5578,
      "Ġdrunk": 5579,
      "Ġcommunity": 5580,
      "Ġexplos": 5581,
      "Ġmatters": 5582,
      "jection": 5583,
      "Ġideas": 5584,
      "fortunately": 5585,
      "Does": 5586,
      "Ġprotective": 5587,
      "Ġlowered": 5588,
      "Ġdreams": 5589,
      "Ġcelebr": 5590,
      "Ġgripped": 5591,
      "Ġpleasant": 5592,
      "Ġlawy": 5593,
      "Ġclaimed": 5594,
      "Ġurg": 5595,
      "ulsion": 5596,
      "Ġinstructions": 5597,
      "cellent": 5598,
      "Ġthoroughly": 5599,
      "oscow": 5600,
      "OU": 5601,
      "down": 5602,
      "eep": 5603,
      "mosp": 5604,
      "ses": 5605,
      "Ġsway": 5606,
      "Ġoxy": 5607,
      "Ġcous": 5608,
      "isive": 5609,
      "Ġpills": 5610,
      "Ġhaul": 5611,
      "Ġnuclear": 5612,
      "omed": 5613,
      "icing": 5614,
      "Ġstock": 5615,
      "Ġitems": 5616,
      "irm": 5617,
      "ĠHope": 5618,
      "outs": 5619,
      "ĠMiles": 5620,
      "ĠMoscow": 5621,
      "rog": 5622,
      "Ġmyster": 5623,
      "agues": 5624,
      "ĠFive": 5625,
      "Ġslope": 5626,
      "ĠIsrael": 5627,
      "ĠIsaiah": 5628,
      "Ġpride": 5629,
      "Ġretrie": 5630,
      "Ġbuzz": 5631,
      "retched": 5632,
      "Ġclosing": 5633,
      "Ġcursed": 5634,
      "Ġindivid": 5635,
      "Ġtransport": 5636,
      "Ġstraightened": 5637,
      "ĠSunday": 5638,
      "Ġpreparing": 5639,
      "Ġavailable": 5640,
      "Ġyellow": 5641,
      "Ġcapable": 5642,
      "adder": 5643,
      "ĠEmery": 5644,
      "Ġargument": 5645,
      "Ġscram": 5646,
      "Ġviolent": 5647,
      "ĠChancell": 5648,
      "Ġdesperate": 5649,
      "Ġidiot": 5650,
      "Ġfolded": 5651,
      "Ġmachine": 5652,
      "Ġmeasure": 5653,
      "Ġinclined": 5654,
      "ĠScripture": 5655,
      "Ġvulner": 5656,
      "Ġcitiz": 5657,
      "Ġtraffic": 5658,
      "Br": 5659,
      "Every": 5660,
      "eg": 5661,
      "loy": 5662,
      "inating": 5663,
      "Ġwink": 5664,
      "Ġfaded": 5665,
      "Ġgiant": 5666,
      "Ġbear": 5667,
      "Ġthumb": 5668,
      "utive": 5669,
      "utable": 5670,
      "Ġrib": 5671,
      "Ġripped": 5672,
      "Ġatmosp": 5673,
      "Ġwhore": 5674,
      "Ġsoot": 5675,
      "ourt": 5676,
      "ulating": 5677,
      "Ġorange": 5678,
      "agger": 5679,
      "ĠFather": 5680,
      "Ġartic": 5681,
      "Ġscrew": 5682,
      "izar": 5683,
      "Ġdoorway": 5684,
      "Ġchaos": 5685,
      "Ġteach": 5686,
      "rowing": 5687,
      "Ġchanging": 5688,
      "Ġfriendly": 5689,
      "Ġguessed": 5690,
      "Ġapproaching": 5691,
      "Ġconstantly": 5692,
      "vernor": 5693,
      "Ġabsor": 5694,
      "ĠDarwin": 5695,
      "Ġsuffered": 5696,
      "Ġtorn": 5697,
      "Ġpeaceful": 5698,
      "Ġreveal": 5699,
      "Ġdiscussion": 5700,
      "Ġunsure": 5701,
      "ointment": 5702,
      "Ġflashlight": 5703,
      "Ġechoed": 5704,
      "scape": 5705,
      "Ġroute": 5706,
      "Ġsolemn": 5707,
      "ĠOliver": 5708,
      "Ġaccompan": 5709,
      "By": 5710,
      "Take": 5711,
      "coming": 5712,
      "fl": 5713,
      "hndah": 5714,
      "Ġsong": 5715,
      "Ġward": 5716,
      "Ġbone": 5717,
      "Ġbond": 5718,
      "erged": 5719,
      "Ġcoo": 5720,
      "Ġfund": 5721,
      "Ġfashion": 5722,
      "itched": 5723,
      "Ġmate": 5724,
      "ora": 5725,
      "Ġpist": 5726,
      "Ġstatus": 5727,
      "urally": 5728,
      "ĠHead": 5729,
      "ĠMount": 5730,
      "Ġsem": 5731,
      "Ġdept": 5732,
      "Ġintend": 5733,
      "ĠPent": 5734,
      "Ġunit": 5735,
      "ĠRee": 5736,
      "ĠRemember": 5737,
      "ĠFl": 5738,
      "Ġacqu": 5739,
      "Ġguilt": 5740,
      "Ġemails": 5741,
      "Ġchill": 5742,
      "ishment": 5743,
      "Ġsurely": 5744,
      "Ġlightly": 5745,
      "Ġrestr": 5746,
      "Ġharder": 5747,
      "itional": 5748,
      "Ġraven": 5749,
      "Ġdelicate": 5750,
      "Ġhalfway": 5751,
      "ĠThree": 5752,
      "Ġdamage": 5753,
      "Ġshrug": 5754,
      "ification": 5755,
      "Ġaffect": 5756,
      "Ġdemands": 5757,
      "Ġsolution": 5758,
      "Ġtort": 5759,
      "ĠPerth": 5760,
      "eyed": 5761,
      "Ġsoldier": 5762,
      "ĠShir": 5763,
      "Ġobliv": 5764,
      "Ġessence": 5765,
      "ĠBedou": 5766,
      "ĠCreator": 5767,
      "Ġatmosphere": 5768,
      "Ġdepth": 5769,
      "Le": 5770,
      "cus": 5771,
      "even": 5772,
      "uits": 5773,
      "heem": 5774,
      "inion": 5775,
      "Ġske": 5776,
      "Ġwaving": 5777,
      "Ġcere": 5778,
      "orld": 5779,
      "Ġeb": 5780,
      "ĠTell": 5781,
      "uts": 5782,
      "Ġrom": 5783,
      "Ġmel": 5784,
      "Ġsell": 5785,
      "ĠWalk": 5786,
      "ĠDist": 5787,
      "Ġgodd": 5788,
      "Ġunm": 5789,
      "ĠNik": 5790,
      "ĠRep": 5791,
      "Ġflood": 5792,
      "Ġenvir": 5793,
      "Ġslip": 5794,
      "rue": 5795,
      "Ġswitch": 5796,
      "Ġenth": 5797,
      "ĠStu": 5798,
      "Ġassess": 5799,
      "Ġassured": 5800,
      "Ġmovie": 5801,
      "ĠBruno": 5802,
      "Ġstole": 5803,
      "Ġsteady": 5804,
      "Ġforeign": 5805,
      "Ġcharged": 5806,
      "ervation": 5807,
      "Ġchairs": 5808,
      "Ġcreate": 5809,
      "Ġconvince": 5810,
      "Ġrubbing": 5811,
      "Ġforgetting": 5812,
      "Ġtowel": 5813,
      "Ġsuccession": 5814,
      "Ġquarter": 5815,
      "Ġquarters": 5816,
      "Ġbirds": 5817,
      "Ġadvantage": 5818,
      "Ġmortal": 5819,
      "Ġshattered": 5820,
      "Ġinitial": 5821,
      "ĠTyler": 5822,
      "Ġsacrif": 5823,
      "ĠSlowly": 5824,
      "An": 5825,
      "Hmm": 5826,
      "Some": 5827,
      "Wow": 5828,
      "iest": 5829,
      "kins": 5830,
      "pired": 5831,
      "rant": 5832,
      "hetic": 5833,
      "Ġbunch": 5834,
      "Ġcy": 5835,
      "Ġfu": 5836,
      "enced": 5837,
      "Ġdull": 5838,
      "Ġheels": 5839,
      "orge": 5840,
      "Ġloyal": 5841,
      "Ġladder": 5842,
      "ashes": 5843,
      "Ġgall": 5844,
      "Ġbeating": 5845,
      "Ġstub": 5846,
      "Ġrow": 5847,
      "ilty": 5848,
      "Ġdogs": 5849,
      "ĠWould": 5850,
      "ĠWater": 5851,
      "ĠBeth": 5852,
      "Ġjun": 5853,
      "Ġsof": 5854,
      "ĠDrew": 5855,
      "ĠJim": 5856,
      "ĠLove": 5857,
      "ĠRight": 5858,
      "oday": 5859,
      "ĠOK": 5860,
      "Ġcontained": 5861,
      "Ġemerged": 5862,
      "Ġsurve": 5863,
      "Ġchoc": 5864,
      "rowed": 5865,
      "aze": 5866,
      "Ġadult": 5867,
      "Ġcrashed": 5868,
      "Ġinstantly": 5869,
      "Ġvisible": 5870,
      "Ġregular": 5871,
      "ĠCarr": 5872,
      "Ġsensing": 5873,
      "Ġparano": 5874,
      "Ġencour": 5875,
      "Ġcommanded": 5876,
      "ĠMaxim": 5877,
      "shirt": 5878,
      "Ġobsc": 5879,
      "ĠColt": 5880,
      "Ġpacked": 5881,
      "Ġlevels": 5882,
      "Ġcrawled": 5883,
      "Ġrules": 5884,
      "ĠRudi": 5885,
      "Ġhouses": 5886,
      "ĠService": 5887,
      "Ġcorridor": 5888,
      "ĠRaheem": 5889,
      "Ġindividual": 5890,
      "Ġenvironment": 5891,
      "SB": 5892,
      "born": 5893,
      "gest": 5894,
      "ients": 5895,
      "looking": 5896,
      "nÃ©": 5897,
      "wood": 5898,
      "Ġtank": 5899,
      "Ġtapped": 5900,
      "Ġsan": 5901,
      "Ġsite": 5902,
      "Ġoh": 5903,
      "eness": 5904,
      "Ġpad": 5905,
      "Ġling": 5906,
      "Ġlined": 5907,
      "ana": 5908,
      "Ġgrief": 5909,
      "idency": 5910,
      "acity": 5911,
      "Ġrevelation": 5912,
      "Ġreasons": 5913,
      "Ġsake": 5914,
      "ĠDay": 5915,
      "....\"": 5916,
      "Ġworn": 5917,
      "ĠLooking": 5918,
      "auld": 5919,
      "Ġplun": 5920,
      "ĠGood": 5921,
      "ĠOmar": 5922,
      "ĠEl": 5923,
      "ĠEach": 5924,
      "Ġgrate": 5925,
      "Ġgrunted": 5926,
      "thur": 5927,
      "Ġguilty": 5928,
      "pective": 5929,
      "Ġentry": 5930,
      "Ġentering": 5931,
      "Ġsounding": 5932,
      "oger": 5933,
      "Ġsnake": 5934,
      "Ġpurs": 5935,
      "Ġpurple": 5936,
      "Ġregret": 5937,
      "arently": 5938,
      "Ġglances": 5939,
      "Ġreduced": 5940,
      "Ġslightest": 5941,
      "ĠConrad": 5942,
      "Ġappropri": 5943,
      "Ġsymb": 5944,
      "hole": 5945,
      "inese": 5946,
      "000": 5947,
      "ĠRussia": 5948,
      "Ġamazed": 5949,
      "Ġweapons": 5950,
      "Ġcruel": 5951,
      "Ġbelly": 5952,
      "ĠThanks": 5953,
      "Ġpanic": 5954,
      "Ġpondered": 5955,
      "Ġsmirked": 5956,
      "hension": 5957,
      "Ġemergency": 5958,
      "ĠHamelin": 5959,
      "Ġconvinced": 5960,
      "ĠKevlan": 5961,
      "clamations": 5962,
      "Ġfarther": 5963,
      "loyd": 5964,
      "See": 5965,
      "TE": 5966,
      "Wh": 5967,
      "ixt": 5968,
      "mate": 5969,
      "ville": 5970,
      "was": 5971,
      "Ġsin": 5972,
      "reg": 5973,
      "eron": 5974,
      "Ġdial": 5975,
      "Ġpsy": 5976,
      "anys": 5977,
      "Ġinex": 5978,
      "atives": 5979,
      "Ġgang": 5980,
      "Ġbelt": 5981,
      "ott": 5982,
      "otted": 5983,
      "imately": 5984,
      "ette": 5985,
      "Ġstares": 5986,
      "ĠHill": 5987,
      "oop": 5988,
      "ĠApp": 5989,
      "Ġraw": 5990,
      "kered": 5991,
      "ams": 5992,
      "ĠMor": 5993,
      "Ġfrag": 5994,
      "ppy": 5995,
      "ĠCle": 5996,
      "Ġshimm": 5997,
      "Ġju": 5998,
      "Ġconcluded": 5999
    },
    "merges": [
      "Ġ t",
      "h e",
      "Ġ a",
      "i n",
      "Ġ s",
      "Ġ w",
      "Ġt he",
      "r e",
      "o u",
      "e d",
      "Ġ o",
      "n d",
      "h a",
      "Ġ b",
      "e r",
      "in g",
      "Ġt o",
      "Ġ c",
      "Ġ f",
      "i s",
      "i t",
      "e n",
      "Ġ m",
      "o n",
      "Ġ d",
      "Ġ he",
      "Ġa nd",
      "l l",
      "o r",
      "Ġ p",
      "Ġ l",
      "Ġ h",
      "Ġ \"",
      "Ġo f",
      "a n",
      "Ġ I",
      "a s",
      "e s",
      "Ġ in",
      "a r",
      "a t",
      "Ġ g",
      "Ġ ha",
      "Ġ n",
      "o m",
      "ha t",
      "Ġb e",
      "o w",
      "l e",
      "i d",
      "Ġ e",
      "Ġ y",
      "o t",
      "v e",
      "l y",
      "a c",
      "Ġt h",
      "Ġy ou",
      "g h",
      "i c",
      "s t",
      "Ġw as",
      "l d",
      ". \"",
      "i m",
      "e t",
      "Ġt hat",
      "Ġ re",
      "Ġhe r",
      "Ġ T",
      "Ġo n",
      "Ġ u",
      "a y",
      "Ġs t",
      "a l",
      "en t",
      "s e",
      "u t",
      "Ġ it",
      "Ġh is",
      "i r",
      "Ġ S",
      "i on",
      "v er",
      "Ġ H",
      "' s",
      "o o",
      "a d",
      "Ġw e",
      "Ġ A",
      "ou t",
      "Ġa s",
      "gh t",
      "it h",
      "Ġ r",
      "Ġf or",
      "Ġw ith",
      "ou ld",
      ". .",
      "u r",
      "k e",
      "ĠT he",
      "Ġs he",
      "Ġha d",
      "Ġa t",
      "a m",
      "Ġa n",
      "Ġ is",
      "a ll",
      "' t",
      "Ġm e",
      "ĠH e",
      "i ght",
      "c e",
      "i ll",
      "Ġ M",
      "r o",
      "Ġ k",
      "Ġf r",
      "Ġn ot",
      "re d",
      "he r",
      "Ġs e",
      "i f",
      "i l",
      "Ġh im",
      "Ġw h",
      "c h",
      "Ġs a",
      "c t",
      "Ġd o",
      "t er",
      "p p",
      "? \"",
      "a in",
      "ac k",
      "Ġu p",
      "o re",
      "Ġha ve",
      "Ġn e",
      "Ġ C",
      "Ġb ut",
      "oo k",
      "u st",
      "om e",
      "Ġs h",
      "Ġ W",
      "Ġ out",
      "Ġth is",
      "r ou",
      "an t",
      "Ġm y",
      "Ġ B",
      "r i",
      ", \"",
      "Ġd e",
      "Ġ j",
      "Ġs o",
      "Ġ D",
      "Ġk n",
      "u s",
      "Ġc on",
      "Ġfr om",
      "Ġl i",
      "Ġin t",
      "in d",
      "Ġsa id",
      "a nd",
      "Ġa b",
      "g e",
      "h ing",
      "es s",
      "ĠS he",
      "Ġs u",
      "Ġf e",
      "on e",
      "q u",
      "a b",
      "p e",
      "c k",
      "at ion",
      "Ġg o",
      "Ġthe y",
      ".. .",
      "ou r",
      "at e",
      "Ġw ould",
      "Ġl e",
      "Ġe x",
      "Ġa re",
      "Ġa l",
      "Ġa ll",
      "o s",
      "Ġ v",
      "ar t",
      "Ġw he",
      "i e",
      "all y",
      "oo d",
      "ar d",
      "u l",
      "he d",
      "u n",
      "re s",
      "Ġl ook",
      "Ġb ack",
      "Ġc ould",
      "Ġwe re",
      "a k",
      "Ġ J",
      "ow n",
      "Ġint o",
      "Ġt r",
      "id e",
      "es t",
      "is t",
      "as t",
      "Ġw hat",
      "u m",
      "er s",
      "ac e",
      "Ġw or",
      "ha n",
      "Ġ P",
      "Ġn o",
      "Ġd id",
      "Ġ L",
      "e m",
      "Ġli ke",
      "Ġthe m",
      "i g",
      "Ġbe en",
      "ic k",
      "o l",
      "Ġc om",
      "Ġb y",
      "Ġa g",
      "Ġkn ow",
      "ou s",
      "a u",
      "Ġab out",
      "e ll",
      "Ġp l",
      "Ġon e",
      "Ġc l",
      "Ġu n",
      "i ve",
      "v en",
      "Ġj ust",
      "Ġo r",
      "e l",
      "Ġ G",
      "ver y",
      "Ġc an",
      "Ġg et",
      "r a",
      "Ġ N",
      "w ay",
      "on g",
      "o p",
      "Ġyou r",
      "e p",
      "Ġw ill",
      "Y ou",
      "Ġt im",
      "in k",
      "Ġo ver",
      "Ġ if",
      "ic e",
      "o v",
      "Ġ K",
      "ĠI t",
      "Ġthe re",
      "a ke",
      "a re",
      "rou nd",
      "Ġs p",
      "or t",
      "l f",
      "Ġ qu",
      "p t",
      "r y",
      "ur n",
      "k ed",
      "Ġof f",
      "Ġb l",
      "Ġan y",
      "Ġs m",
      "am e",
      "Ġm an",
      "it y",
      "Ġ R",
      "Ġd own",
      "Ġs ome",
      "Ġp ro",
      "o d",
      "Ġ O",
      "Ġwh o",
      "Ġthe ir",
      "Ġtim e",
      "t her",
      "ou nd",
      "Ġwhe n",
      "Ġ E",
      "Ġth ou",
      "Ġr o",
      "Ġe y",
      "Ġha nd",
      "Ġu s",
      "Ġw ant",
      "Ġf l",
      "Ġthe n",
      "a g",
      "' m",
      "Ġ en",
      "p l",
      "o st",
      "Ġto o",
      "u re",
      "o nd",
      "u ll",
      "i le",
      "Ġg r",
      "Ġn ow",
      "e red",
      "f ore",
      "f f",
      "Ġag ain",
      "Ġhe ad",
      "Ġse e",
      "n t",
      "Ġ F",
      "it e",
      "Ġt w",
      "in e",
      "Ġo ther",
      "it t",
      "as s",
      "Ġs ay",
      "d d",
      "t h",
      "Ġs l",
      "se lf",
      "Ġa r",
      "Ġ _",
      "Ġd is",
      "l ed",
      "m ent",
      "Ġbe fore",
      "Ġgo ing",
      "Ġa round",
      "Ġm ore",
      "' d",
      "o se",
      "Ġth ink",
      "h i",
      "a v",
      "re at",
      "e ct",
      "Ġey es",
      "Ġ im",
      "Ġd on",
      "al k",
      "Ġcon t",
      "ot her",
      "Ġhe re",
      "â Ģ",
      "o ve",
      "ĠI s",
      "Ġb r",
      "f ter",
      "res s",
      "b le",
      "r u",
      "i es",
      "ab le",
      "om et",
      "Ġa m",
      "Ġw ay",
      "Ġs c",
      "nd er",
      "Ġt urn",
      "w ard",
      "ic h",
      "e ar",
      "' re",
      "ac t",
      "rou gh",
      "Ġon ly",
      "i ous",
      "f t",
      "i z",
      "ĠW e",
      "Ġlook ed",
      "pp ed",
      "Ġ Z",
      "ĠThe y",
      "Ġth rough",
      "Ġha s",
      "Ġbe c",
      "Ġp e",
      "a ve",
      "Ġw at",
      "Ġe ven",
      "i re",
      "ĠA r",
      "Ġr ight",
      "' ll",
      "Ġt han",
      "Ġc o",
      "Ġne ed",
      "a p",
      "u d",
      "i ed",
      "Ġdid n",
      "an ce",
      "Ġthou ght",
      "Ġg l",
      "en ce",
      "ov y",
      "in ovy",
      "Ġe very",
      "Ġh ow",
      "at ed",
      "c l",
      "omet hing",
      "Ġa c",
      "re e",
      "ĠZ inovy",
      "Ġwh ich",
      "w n",
      "o y",
      "Ġm om",
      "t ed",
      "Ġtw o",
      "Ġ our",
      "n e",
      "âĢ Ķ",
      "Ġg u",
      "Ġu nder",
      "Ġd ay",
      "ar k",
      "Ġsh ould",
      "b er",
      "he n",
      "Ġl ong",
      "t ing",
      "en ed",
      "l en",
      "ac h",
      "u e",
      "i v",
      "p s",
      "Ġre m",
      "Ġf ace",
      "n ing",
      "Ġth ing",
      "Ġs ha",
      "Ġdo or",
      "o ck",
      "Ġ U",
      "Ġa pp",
      "a ge",
      "Ġst ill",
      "Ġre s",
      "Ġf ir",
      "Ġa way",
      "ad e",
      "Ġs omething",
      "e w",
      "t hing",
      "len a",
      "o c",
      "Ġe m",
      "a red",
      "Ġp r",
      "ou gh",
      "Ġg ot",
      "au se",
      "a il",
      "h is",
      "Ġa fter",
      "u ck",
      "Ġm u",
      "Ġwhe re",
      "Ġl et",
      "a i",
      "Ġat t",
      "' ve",
      "ĠIs lena",
      "i an",
      "ĠI n",
      "Ġfir st",
      "Ġh o",
      "p le",
      "Ġo p",
      "Ġc all",
      "l t",
      "Ġp re",
      "Ġg ood",
      "s s",
      "Ġc ha",
      "op le",
      "Ġwe ll",
      "Ġst art",
      "Ġas ked",
      "c hed",
      "Ġ ke",
      "Ġro om",
      "he re",
      "Ġmu ch",
      "Ġ Y",
      "Ġwor k",
      "o in",
      "Ġ You",
      "ion s",
      "Ġs w",
      "g ed",
      "t e",
      "Ġs ur",
      "at h",
      "or m",
      "s ide",
      "Ġc ome",
      "Ġfe el",
      "ĠB ut",
      "itt le",
      "at her",
      "ar y",
      "Ġpe ople",
      "ad y",
      "Ġha pp",
      "Ġc h",
      "Ġw om",
      "! \"",
      "Ġl ittle",
      "c ed",
      "Ġb ot",
      "Ġp art",
      "as e",
      "Ġturn ed",
      "Ġt e",
      "ou se",
      "v ing",
      "Ġt ell",
      "Ġbe g",
      "Ġne ver",
      "ak ing",
      "en s",
      "id ent",
      "od y",
      "W hat",
      "Ġbe t",
      "Ġd es",
      "Ġmom ent",
      "Ġl if",
      "Ġv o",
      "Ġs pe",
      "Ġp er",
      "Ġm ake",
      "e re",
      "p er",
      "Ġ very",
      "Ġf o",
      "on t",
      "u b",
      "Ġse em",
      "r ow",
      "v ed",
      "Ġkn ew",
      "Ġm ade",
      "Ġt ake",
      "os s",
      "hi a",
      "Ġto ward",
      "Ġre al",
      "ig n",
      "is h",
      "ir a",
      "Ġc he",
      "Ġp h",
      "Ġle ft",
      "y ing",
      "Ġc ou",
      "Ġf ind",
      "Ġha r",
      "Ġf in",
      "Ġo wn",
      "an s",
      "t y",
      "s on",
      "is e",
      "ĠK ira",
      "n g",
      "pe ct",
      "f ul",
      "Ġa ct",
      "o b",
      "is s",
      "s o",
      "a it",
      "Ġn ight",
      "Ġbec ause",
      "x t",
      "Ġar m",
      "Ġw ent",
      "ĠM y",
      "c i",
      "Ġwh ile",
      "Ġ ent",
      "Ġc ar",
      "Ġm ind",
      "Ġ '",
      "Ġvo ice",
      "l ing",
      "Ġc ame",
      "Ġfe lt",
      "Ġsu re",
      "ĠA s",
      "ro ss",
      "Ġbe ing",
      "or d",
      "Ġtoo k",
      "a z",
      "c o",
      "ĠA nd",
      "u ally",
      "Ġne w",
      "ow er",
      "I t",
      "T he",
      "ear s",
      "ĠH is",
      "n ess",
      "Ġit s",
      "ri ed",
      "b e",
      "an g",
      "Ġl ast",
      "Ġpl ace",
      "Ġse c",
      "Ġc le",
      "Ġre t",
      "g et",
      "at ing",
      "Ġun t",
      "Ġt alk",
      "Ġe nd",
      "Ġan other",
      "e nd",
      "i ly",
      ".. .\"",
      "Ġre ally",
      "Ġbe l",
      "Ġm ight",
      "ĠS t",
      "Ġfe w",
      "Ġf ound",
      "Ġp ull",
      "Ġhe l",
      "Ġp ut",
      "en se",
      "i gh",
      "l ess",
      "re w",
      "if f",
      "Ġsa w",
      "Ġa d",
      "or i",
      "Ġl ight",
      "ĠT his",
      "i p",
      "ĠT hat",
      "Ġwom an",
      "m ed",
      "Ġthou gh",
      "h ind",
      "ĠThe re",
      "Ġhand s",
      "Ġm ust",
      "ll ow",
      "Ġde c",
      "Ġw alk",
      "oo l",
      "an e",
      "h y",
      "Ġbe hind",
      "dd ed",
      "Ġst r",
      "Ġbot h",
      "n er",
      "k s",
      "Ġcom p",
      "i ble",
      "a ir",
      "a le",
      "W e",
      "am es",
      "he s",
      "Ġwas n",
      "Ġe v",
      "e ver",
      "Ġw r",
      "Ġim p",
      "u al",
      "Ġm ay",
      "ar ing",
      "Ġas s",
      "or y",
      "Ġre l",
      "a h",
      "Ġ *",
      "Ġs ide",
      "Ġc han",
      "Ġlif e",
      "Ġb u",
      "Ġlook ing",
      "ir l",
      "Ġb ook",
      "ĠA n",
      "Ġo b",
      "Ġne xt",
      "Ġw ait",
      "Ġe l",
      "Ġhim self",
      "Ġen ough",
      "Ġsm all",
      "Ġre st",
      "Ġto ld",
      "ĠW hen",
      "way s",
      "Ġcon f",
      "Ġunt il",
      "Ġc r",
      "Ġre pl",
      "ic t",
      "ĠI f",
      "Ġwor d",
      "Ġm in",
      "Ġsm il",
      "Ġs er",
      "Ġke ep",
      "Ġs et",
      "er ing",
      "re t",
      "us ed",
      "Ġb ody",
      "Ġdo es",
      "g g",
      "Ġqu ick",
      "Ġb ed",
      "v an",
      "w e",
      "Ġw ar",
      "Ġc our",
      "Ġm ov",
      "ic al",
      "Ġsay s",
      "Ġhar d",
      "l es",
      "Ġhel p",
      "on s",
      "ie nd",
      "Ġ 1",
      "Ġl au",
      "at er",
      "Ġfr iend",
      "e e",
      "ch ing",
      "n ed",
      "Ġany thing",
      "Ġo ld",
      "Ġg irl",
      "ers on",
      "ab ly",
      "m er",
      "in ce",
      "Ġh ome",
      "ate ly",
      "Ġs k",
      "Ġcont in",
      "ar ly",
      "Ġal so",
      "er t",
      "Ġth ose",
      "ent ly",
      "Ġs at",
      "Ġ V",
      "Ġin st",
      "Ġcl os",
      "Ġp oin",
      "ĠThe n",
      "er r",
      "ull y",
      "it ion",
      "n a",
      "or s",
      "res ident",
      "i ver",
      "re n",
      "Ġwor ld",
      "Ġagain st",
      "Ġwat er",
      "Ġunder st",
      "ori o",
      "Ġthing s",
      "i ld",
      "Ġd r",
      "is ed",
      "Ġd ark",
      "ation s",
      "y s",
      "N o",
      "d ay",
      "o ke",
      "Ġm ost",
      "Ġin v",
      "T hat",
      "t o",
      "Ġh ouse",
      "Ġal ways",
      "Ġst ood",
      "ĠP resident",
      "Ġnot hing",
      "Ġwant ed",
      "Ġb oy",
      "ĠL orio",
      "Ġop en",
      "Ġa w",
      "Ġqu est",
      "Ġp ass",
      "Ġcom m",
      "Ġbel ie",
      "m ost",
      "Ġre ad",
      "v es",
      "Ġb reat",
      "ain ed",
      "Ġs il",
      "Ġe ach",
      "Y es",
      "ĠI van",
      "al ked",
      "Ġs ound",
      "Ġthe se",
      "Ġfo llow",
      "o g",
      "c ess",
      "r hia",
      "an k",
      "Ġwith out",
      "Ġd ist",
      "Ġwh y",
      "Ġhe ard",
      "ĠJ ames",
      "Ġm or",
      "ar s",
      "Ġex p",
      "ĠA l",
      "ĠB r",
      "Ġs ame",
      "ent s",
      "Ġseem ed",
      "Ġfr ont",
      "ĠW hat",
      "Ġc ur",
      "Ġst and",
      "Ġh u",
      "Ġon ce",
      "s w",
      "Ġac ross",
      "Ġph one",
      "Ġsmil ed",
      "r ist",
      "Ġr un",
      "Ġth ree",
      "ĠA ll",
      "Ġno dded",
      "ĠMy rhia",
      "Ġrepl ied",
      "Ġmin ut",
      "ac hed",
      "Ġa ir",
      "Ġin f",
      "ĠS o",
      "re ady",
      "ĠA le",
      "Ġan sw",
      "b ed",
      "ce pt",
      "ha r",
      "Ġbeg an",
      "ct ion",
      "Ġs le",
      "out h",
      "Ġme an",
      "iz ed",
      "Ġb re",
      "Ġde ep",
      "ĠU gh",
      "i a",
      "on y",
      "Ġe ver",
      "Ġher self",
      "ĠD av",
      "o or",
      "Ġs it",
      "Ġy ears",
      "Ġcould n",
      "Ġw ind",
      "Ġres p",
      "Ġw ond",
      "re am",
      "Ġso on",
      "e c",
      "ĠG od",
      "Ġret urn",
      "i x",
      "Ġsu pp",
      "Ġex pl",
      "i er",
      "p r",
      "Ġal most",
      "Ġal ready",
      "Ġc are",
      "i et",
      "Ġs n",
      "Ġbl ood",
      "ou d",
      "H e",
      "Ġb it",
      "ent ion",
      "au ght",
      "i al",
      "Ġme et",
      "ing s",
      "Ġst o",
      "Ġfe et",
      "Ġg ive",
      "ĠH er",
      "a w",
      "ĠK ate",
      "ĠDav id",
      "Ġb o",
      "Ġh our",
      "am p",
      "Ġel se",
      "i b",
      "is hed",
      "ul t",
      "Ġm at",
      "Ġas k",
      "Ġp oss",
      "i red",
      "Ġd iff",
      "Ġv is",
      "Ġstart ed",
      "Ġd one",
      "id ed",
      "ch ie",
      "h u",
      "Ġdis c",
      "ĠAr m",
      "Ġmor ning",
      "Ġc hi",
      "Ġha ir",
      "Ġdo ing",
      "Ġl ove",
      "Ġk ill",
      "Ġtr ying",
      "Ġst e",
      "ĠN ow",
      "u ed",
      "ac ed",
      "Ġsh ow",
      "Ġsl ow",
      "t he",
      "u p",
      "Ġf ar",
      "Ġp ower",
      "Ġre p",
      "e k",
      "Ġh um",
      "ĠM r",
      "a x",
      "e f",
      "Ġc or",
      "Ġcour se",
      "Ġal ong",
      "Ġm en",
      "Ġho ld",
      "Ġd ire",
      "Ġevery thing",
      "en ing",
      "c es",
      "Ġsm ile",
      "ious ly",
      "Ġp le",
      "W ell",
      "and y",
      "Ġg reat",
      "Ġde f",
      "ou nt",
      "Ġin c",
      "Ġman y",
      "u red",
      "Ġc a",
      "Ġup on",
      "Ġb ig",
      "um b",
      "Ġcl ose",
      "Ġbet ter",
      "er al",
      "Ġp ick",
      "Ġrem em",
      "r ic",
      "Ġs im",
      "Ġre c",
      "it her",
      "Ġp ain",
      "Ġin ter",
      "Ġs ince",
      "Ġpl an",
      "Ġsu ch",
      "ĠO ne",
      "ĠDavid son",
      "k ay",
      "Ġd ra",
      "Ġget ting",
      "f ully",
      "ir it",
      "ai hu",
      "n i",
      "ĠJ er",
      "Ġcom ing",
      "Ġunderst and",
      "Ġsec ond",
      "Ġbl ack",
      "Ġm ove",
      "ind a",
      "ver s",
      "m b",
      "pp ing",
      "Ġchi ld",
      "Ġhe ar",
      "Ġp erson",
      "n ce",
      "as h",
      "Ġin s",
      "Ġg ave",
      "Ġp res",
      "Ġcon s",
      "Ġle ast",
      "Ġpull ed",
      "Ġon to",
      "Ġcall ed",
      "Ġd ro",
      "ve l",
      "O h",
      "Ġl ater",
      "Ġre f",
      "ut h",
      "Ġt re",
      "Ġp ur",
      "Ġg one",
      "Ġn ame",
      "Ġac c",
      "Ġquick ly",
      "ert ain",
      "Ġd ri",
      "we en",
      "Ġw alked",
      "Ġp us",
      "Ġf am",
      "Ġw all",
      "ĠM andy",
      "get her",
      "Ġl ot",
      "ĠA d",
      "Ġother s",
      "ad en",
      "Ġbet ween",
      "Ġor d",
      "Ġday s",
      "Ġy et",
      "itt ing",
      "A nd",
      "Ġs ch",
      "Ġb us",
      "Ġle ave",
      "p ed",
      "Ġin side",
      "i ke",
      "p ter",
      "Ġey e",
      "Ġtoward s",
      "m it",
      "ĠA fter",
      "Ġse en",
      "Ġre g",
      "Ġt ak",
      "g er",
      "Ġm et",
      "b ably",
      "ur i",
      "Ġm on",
      "Ġst ay",
      "Ġfl oor",
      "Ġf ore",
      "ic ally",
      "Ġfin ally",
      "Ġhe ld",
      "dd en",
      "Ġpl ay",
      "p art",
      "re et",
      "e ared",
      "Ġsome one",
      "S o",
      "o e",
      "Ġg az",
      "ĠH ow",
      "Ġho pe",
      "Ġpoin t",
      "b r",
      "Ġout side",
      "Ġp ast",
      "as on",
      "Ġbelie ve",
      "Ġf all",
      "ĠD or",
      "us s",
      "* *",
      "Ġto gether",
      "Ġc at",
      "Ġcom ple",
      "au x",
      "are nt",
      "t le",
      "Ġsp irit",
      "Ġt able",
      "Ġhe art",
      "ro om",
      "ĠC h",
      "Ġm outh",
      "ĠW h",
      "Ġco ll",
      "Ġr a",
      "Ġg round",
      "Ġde m",
      "Ġqu iet",
      "Ġk ind",
      "in ed",
      "Ġex pect",
      "ĠAr chie",
      "Ġsle ep",
      "Ġ es",
      "Ġword s",
      "Ġe as",
      "Ġminut es",
      "Ġf act",
      "ir t",
      "Ġpr ot",
      "Ġt ried",
      "Ġm other",
      "Ġyou ng",
      "Ġhapp ened",
      "ĠDor aux",
      "a ut",
      "Ġu se",
      "ĠG en",
      "ĠN o",
      "Ġsur pr",
      "Ġsch ool",
      "Ġab le",
      "Ġex c",
      "Ġus ed",
      "Ġquest ion",
      "ĠL u",
      "in s",
      "j ect",
      "re en",
      "Ġd et",
      "Ġarm s",
      "i en",
      "Ġwith in",
      "Ġde ad",
      "ĠY uri",
      "Ġsto pped",
      "Ġ ide",
      "Ġsh ook",
      "k ing",
      "ar a",
      "it ed",
      "Ġwat ched",
      "ĠArm inda",
      "ter s",
      "Ġbreat h",
      "em pt",
      "un g",
      "id d",
      "Ġall ow",
      "t en",
      "Ġ 2",
      "Ġpro bably",
      "Ġmov ed",
      "H ow",
      "Ġl ist",
      "at es",
      "Ġche ck",
      "Ġr an",
      "Ġde l",
      "Ġc ut",
      "Ġh igh",
      "e ah",
      "Ã ©",
      "B ut",
      "Ġs ense",
      "Ġha lf",
      "Ġh or",
      "Ġle ad",
      "w here",
      "er y",
      "Ġre ached",
      "il ity",
      "Ġso ft",
      "ĠJer hia",
      "k se",
      "Ġin d",
      "kse i",
      "Ġsu b",
      "Ġst op",
      "ur ing",
      "Ġf ing",
      "ha ps",
      "med i",
      "ĠF or",
      "Ġcontin ued",
      "e ad",
      "Ġs ign",
      "ĠC ar",
      "Ġf ather",
      "iz e",
      "c c",
      "g ged",
      "ress ed",
      "ble m",
      "Ġf ur",
      "Ġbu ild",
      "ĠAle ksei",
      "Ġne ar",
      "Ġdiff ere",
      "are n",
      "Ġwh ite",
      "Ġgr ab",
      "t ered",
      "ĠA t",
      "Ġgl an",
      "c y",
      "it ch",
      "u ff",
      "Ġt aking",
      "ĠW ith",
      "t on",
      "Ġwind ow",
      "Ġ âĢ",
      "Ġst ud",
      "Ġpro blem",
      "ĠâĢ ĵ",
      "Ġim medi",
      "Ġremem ber",
      "ĠT ony",
      "ĠBr aden",
      "n y",
      "Ġs qu",
      "ĠAd am",
      "Ġdoes n",
      "f ort",
      "Ġb est",
      "rist an",
      "Ġc ertain",
      "Ġb ar",
      "Ġre d",
      "ĠD ane",
      "Ġtalk ing",
      "Ġt ri",
      "ot er",
      "Ġsl ight",
      "Ġgu ess",
      "Ġe ar",
      "ĠT h",
      "Ġsu dden",
      "Ġre ason",
      "Ġcon c",
      "Ġbe aut",
      "Ġ ed",
      "Ġb ad",
      "ĠT ristan",
      "ress ion",
      "ere st",
      "Ġslow ly",
      "Ġcou nt",
      "Ġre ady",
      "ĠC aren",
      "Ġe ff",
      "ĠS co",
      "al m",
      "ĠJ ack",
      "ĠLu ke",
      "one y",
      "Ġf ull",
      "os ed",
      "ic ed",
      "Ġs ens",
      "ĠJ o",
      "Ġcont ro",
      "Ġf ood",
      "Ġop ened",
      "Ġcha r",
      "Ġp ar",
      "Ġsa f",
      "Ġsu n",
      "ove red",
      "Ġl ost",
      "Ġw on",
      "ĠN e",
      "ĠU n",
      "l an",
      "ot ion",
      "Ġe le",
      "Ġag o",
      "Ġneed ed",
      "Ġsp oke",
      "ĠF r",
      "Ġp ol",
      "g s",
      "Ġs itting",
      "Ġb ro",
      "Ġto p",
      "v is",
      "er g",
      "an ed",
      "ĠN ot",
      "Ġfeel ing",
      "he ad",
      "Ġqu ite",
      "Ġide a",
      "ĠSco oter",
      "n ot",
      "Ġact ually",
      "Ġl ar",
      "Ġl and",
      "ha pter",
      "ĠL e",
      "Ġ (",
      "Ġc ity",
      "T his",
      "Ġf ight",
      "ĠC on",
      "Ġ .",
      "Ġf our",
      "Ġlook s",
      "Ġoff ice",
      "Ġint erest",
      "a pp",
      "ag ed",
      "Ġgu y",
      "Ġm aking",
      "W hy",
      "Ġto day",
      "Ġcomple te",
      "al s",
      "er v",
      "or ry",
      "Ġe ither",
      "Ġde ath",
      "an or",
      "st er",
      "Ġbre ak",
      "Ġhad n",
      "cl ud",
      "Ġmat ter",
      "Ġar ri",
      "ou n",
      "Ġex t",
      "# #",
      "Ġf ire",
      "Ġp at",
      "ri ef",
      "Ġevery one",
      "ĠS ec",
      "Ġm iss",
      "av ing",
      "Ġapp ro",
      "Ġdec ided",
      "Ġwh is",
      "g hed",
      "ha l",
      "ver al",
      "Ġsh ort",
      "Ġdiffere nt",
      "Ġb ur",
      "Ġp os",
      "Ġha ving",
      "m an",
      "Ġl oc",
      "ant s",
      "Ġimmedi ately",
      "Ġthink ing",
      "Ġhour s",
      "Ġun c",
      "Ġbec ome",
      "Ġgaz e",
      "Y eah",
      "b y",
      "i ven",
      "k en",
      "ĠB ar",
      "en ry",
      "Ġh ur",
      "as ed",
      "ĠD en",
      "I f",
      "u res",
      "Ġs y",
      "Ġst ra",
      "Ġal one",
      "Ġsha d",
      "ĠM ar",
      "Ġshould er",
      "Ġapp eared",
      "Ġs ou",
      "Ġf ive",
      "Ġwould n",
      "Ġa part",
      "ĠS am",
      "Ġfam ily",
      "n ight",
      "o on",
      "Ġd ou",
      "ay be",
      "ĠC am",
      "err ick",
      "Ġcou ple",
      "Ġfor ward",
      "Ġtr y",
      "ru pt",
      "Ġcha ir",
      "Ġtak en",
      "Ġf ig",
      "it c",
      "Ġfor m",
      "ĠD mit",
      "c ing",
      "ter n",
      "Ġsit u",
      "Ġdire ct",
      "er a",
      "Ġd am",
      "D o",
      "in ch",
      "ĠH enry",
      "Ġany one",
      "Ġinv ol",
      "at ive",
      "ĠP oe",
      "end aihu",
      "m or",
      "Ġj ob",
      "un ch",
      "ĠD errick",
      "ĠJ ust",
      "Ġlar ge",
      "in ess",
      "Ġf ill",
      "Ġm il",
      "ant ly",
      "ul ar",
      "Ġp a",
      "Ġl ay",
      "ut ion",
      "Ġse veral",
      "Ġcontro l",
      "g n",
      "p ly",
      "Ġen c",
      "ang er",
      "Ġw ound",
      "Ġm ar",
      "Ġha ll",
      "l and",
      "re ad",
      "ie w",
      "Ġwho le",
      "air s",
      "ĠB e",
      "Ġbr ing",
      "Ġent ire",
      "Ġansw er",
      "Ġglan ced",
      "ac es",
      "y ge",
      "yge anor",
      "g ing",
      "Ġbeg in",
      "Ġper f",
      "Ġprot ect",
      "it s",
      "Ġwait ing",
      "Ġt en",
      "Ġst ep",
      "Ġmy self",
      "Ġlau ghed",
      "ĠJack son",
      "ĠM endaihu",
      "Ġoff ic",
      "Ġwom en",
      "ĠDmit ri",
      "Ġt ou",
      "Ġatt empt",
      "ale b",
      "Ġfriend s",
      "im e",
      "Ġst reet",
      "rou ght",
      "Ġlau gh",
      "i pped",
      "r act",
      "ing ly",
      "Ġatt ack",
      "Ġb es",
      "Ġr ather",
      "m m",
      "t s",
      "Ġc ent",
      "Ġhe ll",
      "Ġre co",
      "Ġst ru",
      "Ġinf orm",
      "Ġ ve",
      "ll ed",
      "an ge",
      "Ġhum an",
      "Ġk iss",
      "ock ed",
      "Ġ ver",
      "om m",
      "Ġfr own",
      "ot h",
      "id ing",
      "Ġclos ed",
      "Ġc ra",
      "Ġf uck",
      "s ed",
      "it ies",
      "Ġd est",
      "ĠAr t",
      "Ġatt ention",
      "ĠG r",
      "Ġim ag",
      "Ġpre t",
      "Ġwr ong",
      "inch on",
      "Ġc ase",
      "Ġf ree",
      "ĠS ara",
      "ĠC hapter",
      "Ġn at",
      "Ġspe ak",
      "Ġev ent",
      "Ġs ent",
      "er m",
      "Ġ\" ...",
      "se l",
      "ir d",
      "ie f",
      "ard s",
      "um p",
      "Ġtim es",
      "Ġfollow ed",
      "Ġsitu ation",
      "h o",
      "er n",
      "Ġf un",
      "Ġm us",
      "ĠS ygeanor",
      "Ġsw e",
      "Ġh ot",
      "id es",
      "ĠP inchon",
      "Ġbuild ing",
      "ent y",
      "Ġstand ing",
      "Ġposs ible",
      "Ġsudden ly",
      "Ġdr ink",
      "Ġpr om",
      "ail ed",
      "T here",
      "a pe",
      "Ġc ross",
      "ir c",
      "ĠC aleb",
      "en e",
      "Ġex per",
      "Ġsay ing",
      "Ġp ri",
      "Ġfe ll",
      "ĠR ub",
      "Ġb rought",
      "Ġc reat",
      "Ġwork ing",
      "Ġexp ression",
      "hal Ã©",
      "i ence",
      "Ġb rief",
      "ĠO n",
      "The y",
      "S he",
      "b ody",
      "h n",
      "Ġare a",
      "Ġgr ow",
      "Ġsou l",
      "I s",
      "Ġreal ized",
      "re ed",
      "Ġo cc",
      "Ġsh ru",
      "in ai",
      "Ġs ix",
      "ĠA J",
      "Ġj oin",
      "j oy",
      "Ġtr ans",
      "um as",
      "Ġgl ass",
      "Ġpart y",
      "Ġwar m",
      "Ġpret ty",
      "i ent",
      "Ġre qu",
      "ist ed",
      "Ġfo ot",
      "Ġco ld",
      "Ġg rou",
      "if e",
      "Ġli ps",
      "Ġsil ence",
      "Ġk id",
      "ain ing",
      "Ġc ol",
      "iv ing",
      "m e",
      "Ġdis app",
      "Ġwat ching",
      "Ġob v",
      "Ġcomm and",
      "in es",
      "Ġc amp",
      "is ter",
      "Ġnot iced",
      "if ic",
      "ie ld",
      "Ġresp ond",
      "Ġa dd",
      "Ġo pp",
      "ĠC l",
      "ĠAr inai",
      "Ġc aught",
      "Ġh op",
      "Ġcon st",
      "Ġen erg",
      "0 0",
      "ak es",
      "Ġsh o",
      "ĠO h",
      "Ġbec ame",
      "Ġsim ply",
      "Ġes c",
      "ut e",
      "ab y",
      "Ġtr ue",
      "Ġdes p",
      "Ġm ess",
      "Ġl oud",
      "Ġse at",
      "ov ed",
      "Ġbl ue",
      "Ġs orry",
      "Ġg iven",
      "Ġwat ch",
      "Ġche st",
      "g ar",
      "Ġg en",
      "us h",
      "g r",
      ". _",
      "Ġa ff",
      "Ġo kay",
      "Ġp arent",
      "Ġl ess",
      "ĠD o",
      "Ġke pt",
      "Ġdou b",
      "Ġm oney",
      "ĠNe halÃ©",
      "Ġan g",
      "Ġfe ar",
      "av es",
      "Ġt ight",
      "et s",
      "Ġsh ot",
      "ud e",
      "ĠM et",
      "Ġli ving",
      "Ġen joy",
      "Ġgr in",
      "ci al",
      "Ġmay be",
      "Ġwond er",
      "e x",
      "Ġs us",
      "Ġp ap",
      "Ġl ine",
      "Ġli ve",
      "Ġcl ass",
      "Ġbr other",
      "ĠArt umas",
      "is on",
      "Ġd in",
      "N ot",
      "Ġw ood",
      "Ġc re",
      "if ul",
      "Ġchan ge",
      "ĠGen eral",
      "Ġs ort",
      "ll en",
      "Ġab ove",
      "ĠSec ret",
      "o red",
      "Ġhe av",
      "Ġe at",
      "ĠM ax",
      "Ġro ad",
      "Ġhapp y",
      "um ber",
      "ĠE ric",
      "Ġthought s",
      "Ġlong er",
      "Ġpus hed",
      "T han",
      "or n",
      "Ġst ory",
      "Ġcle ar",
      "gg est",
      "h ow",
      "l ight",
      "Ġtr uth",
      "ĠH ouse",
      "ad i",
      "ĠM ore",
      "Ġex act",
      "ort h",
      "Ġreturn ed",
      "itc hen",
      "Ġin clud",
      "Ġsu ggest",
      "cl ock",
      "Ġto wn",
      "Ġd uring",
      "ir ty",
      "Ġk itchen",
      "Ġstra ight",
      "u se",
      "Ġn ice",
      "ĠM itch",
      "ĠB ill",
      "Ġclos er",
      "Ġslight ly",
      "Ġm is",
      "Ġl ate",
      "ĠJo hn",
      "ĠMet oc",
      "Ġl ed",
      "ĠW hy",
      "th ough",
      "Ġcomp an",
      "Ġparent s",
      "ĠMetoc an",
      "art h",
      "Ġsaf e",
      "b ing",
      "c ri",
      "Ġm ain",
      "Ġg ro",
      "ver n",
      "u es",
      "ar ch",
      "Ġne ck",
      "Ġle ar",
      "Ġhead ed",
      "Ġtre es",
      "o ld",
      "Ġ ...",
      "Ġtr uck",
      "Ġbr ight",
      "Ġgrou p",
      "a im",
      "c hes",
      "s h",
      "ĠS u",
      "Ġpick ed",
      "Ġwalk ing",
      "Ġenerg y",
      "b ut",
      "Ġf ine",
      "Ġpre p",
      "Ġbook s",
      "Ġsh ut",
      "Ġfing ers",
      "z e",
      "Ġd ad",
      "Ġab s",
      "ect ed",
      "ĠDen ni",
      "sel ves",
      "Ġt err",
      "Ġl ab",
      "at or",
      "Ġan n",
      "em ent",
      "Ġdem and",
      "i as",
      "Ġa v",
      "Ġs ick",
      "Ġstr ong",
      "Ġmon th",
      "Ġcomplete ly",
      "Ġbes ide",
      "d u",
      "as hed",
      "Ġse x",
      "us ion",
      "Ġte am",
      "ĠCar ter",
      "Ġshad ow",
      "ment s",
      "v ent",
      "in ation",
      "nd ing",
      "le ase",
      "Ġde al",
      "pe red",
      "ĠE ven",
      "Ġc ond",
      "Ġpro v",
      "Ġb are",
      "Ġp ay",
      "ĠT o",
      "D on",
      "Ġ 3",
      "Ġwe e",
      "Ġtr ust",
      "M y",
      "ha m",
      "Ġr adi",
      "Ġcon vers",
      "Ġnew s",
      "i or",
      "Ġc ry",
      "if ied",
      "Ġco ff",
      "Ġ ign",
      "Ġh ung",
      "Ġsh out",
      "Ġgu ys",
      "Ġpass ed",
      "in ally",
      "Ġn umber",
      "Ġy es",
      "ĠM at",
      "ĠC har",
      "ĠD ar",
      "Ġv iew",
      "Ġvis it",
      "l a",
      "Ġst ate",
      "Ġsc ream",
      "Ġmeet ing",
      "a ff",
      "Ġd anger",
      "ian s",
      "Ġsur v",
      ", _",
      "m ing",
      "Ġ âĢĶ",
      "Ġs ig",
      "as k",
      "Ġso l",
      "Ġra ised",
      "Ġb ag",
      "et h",
      "ain s",
      "Ġh it",
      "Ġany way",
      "nd ed",
      "ĠS ome",
      "Ġr iver",
      "ĠB er",
      "Ġsu ff",
      "Ġle aving",
      "mer ic",
      "Ġ ir",
      "Ġme ant",
      "ect ion",
      "Ġst ared",
      "if t",
      "Ġinst ead",
      "Ġfur ther",
      "Ġpos ition",
      "Ġb aby",
      "Ġl o",
      "Ġth r",
      "ic es",
      "hi p",
      "Ġste pped",
      "ĠA meric",
      "Ġcl ot",
      "Ġyour self",
      "Ġro ck",
      "ĠIn os",
      "Ġhold ing",
      "o ff",
      "Ġc row",
      "Ġre act",
      "Ġis n",
      "ĠR uss",
      "Ġbeaut iful",
      "id er",
      "iv es",
      "Ġread ing",
      "Ġchild ren",
      "Ġsu c",
      "Ġfin ished",
      "Ġob s",
      "O kay",
      "Ġb at",
      "Ġac cept",
      "iv ed",
      "l ic",
      "Ġt ree",
      "Ġs ight",
      "ĠL ight",
      "Ġhapp en",
      "Ġdes k",
      "ni k",
      "Ġord er",
      "Ġed ge",
      "Ġto night",
      "Ġl ow",
      "ct or",
      "' _",
      "Ġto r",
      "ĠE very",
      "ĠE lan",
      "Ġmov ing",
      "Ġl a",
      "us hed",
      "on ed",
      "L et",
      "h nik",
      "ar vis",
      "ct ed",
      "un t",
      "Ġwor ry",
      "ive ly",
      "ĠC ol",
      "Ġboy s",
      "Ġrun ning",
      "Ġsig hed",
      "Ġt ears",
      "Ġp o",
      "Ġsk in",
      "Ġs on",
      "Ġl im",
      "Ġcon v",
      "Ġch o",
      "Ġdra w",
      "Ġquiet ly",
      "Ġapart ment",
      "cl ay",
      "Ġc irc",
      "Ġp ict",
      "Ġst ore",
      "Ġper haps",
      "Ġth reat",
      "ĠW ell",
      "Ġgr ass",
      "ĠCh rist",
      "ous ly",
      "Ġsurpr ised",
      "idd le",
      "c ious",
      "p h",
      "as ter",
      "im es",
      "Ġwe ek",
      "Ġfor g",
      "ĠP ro",
      "Ġfrown ed",
      "Ġto mor",
      "il i",
      "ĠJ arvis",
      "Ġexact ly",
      "Ġtomor row",
      "on se",
      "Ġy ear",
      "Ġcan not",
      "Ġpart ic",
      "Ġreg ard",
      "e v",
      "y ond",
      "Ġa head",
      "Ġde v",
      "ci ally",
      "Ġwhis pered",
      "nd red",
      "Ġc alm",
      "Ġd ream",
      "Ġchan ce",
      "Ġsk y",
      "Ġgrab bed",
      "ĠBar clay",
      "Ġconvers ation",
      "t led",
      "Ġha ng",
      "Ġe arly",
      "Ġth ro",
      "ĠF inally",
      "ail s",
      "Ġdoub t",
      "Ġcoff ee",
      "Ġr ub",
      "Ġget s",
      "ĠIs hnik",
      "Ġsoft ly",
      "Ġ -",
      "Ġb ath",
      "Ġm ount",
      "ur ity",
      "Ġrep ort",
      "a j",
      "b s",
      "Ġne arly",
      "Ġkn own",
      "ĠP er",
      "Ġpres ence",
      "w ell",
      "Ġy ell",
      "ac y",
      "Ġcom fort",
      "Ġsp ot",
      "Ġph ys",
      "Ġdire ction",
      "Ġreco gn",
      "ĠSecret ary",
      "Ġa f",
      "Ġh on",
      "Ġg reen",
      "Ġcont act",
      "Ġresp onse",
      "W here",
      "t ic",
      "Ġf ast",
      "Ġg ently",
      "Ġle aned",
      "Ġ* *",
      "ĠGr ace",
      "ĠBer ry",
      "G ood",
      "ou ght",
      "is ing",
      "it ary",
      "ac ing",
      "Ġwond ered",
      "Ġallow ed",
      "ing er",
      "Ġan im",
      "Ġwant s",
      "Ġem pt",
      "n aihu",
      "Ġg ra",
      "Ġme ans",
      "ĠShe naihu",
      "ist s",
      "Ġcl im",
      "Ġcle an",
      "A re",
      "Ġf oc",
      "Ġfor ce",
      "Ġme m",
      "ick ed",
      "Ġcom es",
      "ra id",
      "Ġfl at",
      "Ġsha r",
      "Ġdist ance",
      "Ġt rou",
      "Ġw ish",
      "it ing",
      "ur d",
      "Ġeven ing",
      "p ose",
      "ac hing",
      "ol og",
      "Ġgu ard",
      "Ġhu ndred",
      "Ġcrow d",
      "Ġa dded",
      "Ġbe yond",
      "le y",
      "ĠM aybe",
      "Ġfill ed",
      "Ġg as",
      "Ġknow ing",
      "Ġoff ered",
      "o pe",
      "Ġg iving",
      "Ġpl aced",
      "Ġsee ing",
      "Ġad m",
      "Ġb le",
      "ĠM om",
      "ĠM ur",
      "Ġal ive",
      "os p",
      "e en",
      "Ġp ie",
      "ĠR e",
      "Ġseem s",
      "Ġimp ort",
      "Ġinclud ing",
      "i ps",
      "Ġs ing",
      "Ġm ed",
      "Ġm akes",
      "Ġp air",
      "Ġha ven",
      "Ġshould ers",
      "Ġpa used",
      "Ġn orm",
      "Ġcor ner",
      "E R",
      "Ġt est",
      "ĠS pe",
      "Ġdo ll",
      "Ġle gs",
      "Ġwor ked",
      "ĠE m",
      "Ġple ase",
      "an ne",
      "ĠR ed",
      "Ġcle arly",
      "ĠAn y",
      "ĠV era",
      "uth or",
      "e y",
      "r al",
      "Ġ ##",
      "Ġs ister",
      "Ġst uff",
      "ag ren",
      "Ġco ver",
      "Ġdri ve",
      "Ġexpect ed",
      "Ġdin ner",
      "Ġo dd",
      "pe cially",
      "ĠJ an",
      "Ġinform ation",
      "Ġshru gged",
      "o le",
      "he red",
      "es h",
      "Ġg un",
      "Ġe arth",
      "Ġst aring",
      "ce ed",
      "ĠN ick",
      "Ġperf ect",
      "Ġaf raid",
      "re nt",
      "it ual",
      "Ġh y",
      "Ġcount ry",
      "Ġpap er",
      "ĠD on",
      "Ġknow s",
      "Ġeas y",
      "z y",
      "it al",
      "Ġwhat ever",
      "ne y",
      "ĠMore na",
      "l s",
      "Ġ Q",
      "on es",
      "Ġre ach",
      "Ġsp r",
      "Ġto t",
      "Ġm ag",
      "ll ing",
      "un k",
      "Ġwalk s",
      "ĠMur agren",
      "b ook",
      "l er",
      "en cy",
      "Ġpro cess",
      "Ġfl ow",
      "Ġtw enty",
      "itt ed",
      "ĠChar les",
      "Ġp ath",
      "Ġme re",
      "n oon",
      "st em",
      "ĠM ill",
      "Ġsm ell",
      "Ġsur round",
      "Ġsec ret",
      "t hat",
      "Ġs ir",
      "on ro",
      "Ġv i",
      "ak ed",
      "Ġsha ll",
      "orm ias",
      "Ġkill ed",
      "Ġdro pped",
      "Ġcertain ly",
      "ĠLe anne",
      "r ight",
      "Ġb urn",
      "Ġp ark",
      "om ing",
      "Ġth row",
      "Ġman aged",
      "Ġpe ace",
      "Ġsupp osed",
      "ĠS ir",
      "ur al",
      "Ġcl oud",
      "Ġem otion",
      "Ġbo x",
      "Ġsy stem",
      "Ġdesp ite",
      "Ġm iddle",
      "Ġth ick",
      "Ġan ger",
      "Ġnot ice",
      "ri g",
      "Ġrem ind",
      "Ġevent ually",
      "ĠCl ay",
      "Ġu t",
      "ĠA g",
      "Ġas ks",
      "Ġminut e",
      "C ome",
      "or k",
      "ad ed",
      "Ġsome where",
      "Ġturn ing",
      "Ġbus iness",
      "t ress",
      "in y",
      "Ġto ne",
      "Ġp ack",
      "as hing",
      "ĠO r",
      "Ġpoin ted",
      "onro e",
      "al ed",
      "Ġr itual",
      "Ġle g",
      "Ġhu ge",
      "umb led",
      "Ġarri ved",
      "i ance",
      "o a",
      "id ence",
      "ĠC omm",
      "Ġj our",
      "Ġtr ave",
      "Ġfig ure",
      "ĠRub y",
      "ĠDar ien",
      "ĠMill er",
      "ĠClay ton",
      "Ġre ve",
      "os a",
      "Ġafter noon",
      "Ġdisc uss",
      "l ier",
      "p ort",
      "Ġd ie",
      "or ies",
      "Ġp ost",
      "Ġl unch",
      "Ġn ation",
      "Ġsh irt",
      "and er",
      "um ped",
      "i ber",
      "Ġt em",
      "Ġw ide",
      "Ġm ad",
      "Ġd ied",
      "or ing",
      "ĠA m",
      "ĠD ian",
      "ĠL et",
      "omet imes",
      "Ġaw are",
      "He y",
      "Ġb ow",
      "ul as",
      "ak er",
      "Ġcar ry",
      "Ġstr ange",
      "Ġquest ions",
      "om p",
      "Ġe ight",
      "Ġe qu",
      "Ġst one",
      "ĠS ormias",
      "Ġgl ance",
      "Ġc overed",
      "Ġp ock",
      "Ġun s",
      "Ġtell ing",
      "ib ly",
      "Ġsurpr ise",
      "Ġempt y",
      "d s",
      "Ġc ap",
      "Ġse lf",
      "Ġpro f",
      "ĠO nce",
      "Ġeff ect",
      "u g",
      "in t",
      "in ite",
      "Ġc rew",
      "ĠM onroe",
      "il t",
      "Ġam az",
      "Ġapp ear",
      "Ġcou n",
      "Ġunderst ood",
      "Ġansw ered",
      "Ġthro at",
      "T hen",
      "r ation",
      "Ġt all",
      "Ġa uthor",
      "ĠT w",
      "ill s",
      "us ing",
      "um e",
      "ek oa",
      "Ġbegin ning",
      "Ġit self",
      "Ġwe ak",
      "Ġsa nd",
      "ĠB y",
      "Ġen g",
      "Ġbath room",
      "z z",
      "Ġ ,",
      "Ġf ut",
      "it ution",
      "Ġd ing",
      "Ġv an",
      "ĠK ekoa",
      "Ġgr im",
      "Ġgl ad",
      "Ġperson al",
      "Ġpres ent",
      "Ġbare ly",
      "A P",
      "Ġc e",
      "am ed",
      "Ġnot e",
      "il ing",
      "Ġwee ks",
      "Ġg ri",
      "ĠM ark",
      "Ġde cl",
      "ab in",
      "itt en",
      "ĠAl so",
      "ĠCam ulas",
      "Ġobv iously",
      "Ġs al",
      "Ġm ot",
      "Ġg est",
      "Ġfor th",
      "Ġmil itary",
      "vern ment",
      "n ow",
      "ot s",
      "Ġthem selves",
      "Ġev il",
      "ĠMar oc",
      "Ġstru gg",
      "J ust",
      "u c",
      "Ġ ill",
      "Ġex cept",
      "Ġrem ained",
      "iver s",
      "Ġple as",
      "Ġding o",
      "Ġc ell",
      "Ġof ten",
      "Ġfl esh",
      "Ġdam n",
      "Ġtou ch",
      "ĠH igh",
      "ĠP h",
      "ag es",
      "Ġdec ide",
      "Ġtak es",
      "Ġm ine",
      "Ġm ass",
      "Ġp ress",
      "Ġp ub",
      "oo se",
      "ur ch",
      "Ġdo g",
      "ĠG e",
      "Ġwait ed",
      "aught er",
      "vel op",
      "Ġpur pose",
      "Ġcent er",
      "ar m",
      "ic s",
      "ad d",
      "ĠN ew",
      "Ġro se",
      "ĠIn st",
      "Ġav o",
      "e al",
      "i res",
      "k es",
      "l or",
      "Ġl aw",
      "Ġmoment s",
      "pect ed",
      "Ġinvol ving",
      "Ġheav y",
      "v ice",
      "it ude",
      "oo f",
      "Ġfor get",
      "ĠE mer",
      "Ġent ered",
      "Ġpull ing",
      "Ġaw ak",
      "Ġdiff ic",
      "Ġhor r",
      "Ġear lier",
      "Ġf a",
      "Ġm ention",
      "al th",
      "ri ble",
      "rew s",
      "Ġexpl ain",
      "ĠWh ite",
      "Ġhur t",
      "c il",
      "c ome",
      "l ike",
      "u dd",
      "el s",
      "Ġsound s",
      "Ġpri v",
      "ĠEm ian",
      "g es",
      "Ġw in",
      "Ġst re",
      "ĠC ity",
      "Ġal though",
      "Ġdro ve",
      "Ġmonth s",
      "is hing",
      "Ġk ing",
      "ĠR osa",
      "Ġro lled",
      "Ġchan ged",
      "Ġnat ure",
      "h ouse",
      "Ġt y",
      "re me",
      "Ġf if",
      "Ġl it",
      "ac le",
      "ac red",
      "ĠM ars",
      "ĠW inger",
      "ĠD ra",
      "ĠJ ess",
      "ĠK ai",
      "m ore",
      "s it",
      "Ġhe sit",
      "Ġes pecially",
      "Ġdirect ly",
      "Ġclot hes",
      "Ġ## #",
      "Ġst ri",
      "Ġar g",
      "ĠSt ill",
      "ĠCon all",
      "Ġver se",
      "Ġimport ant",
      "re ct",
      "Ġc op",
      "Ġf il",
      "Ġag reed",
      "Ġus ing",
      "Ġdis p",
      "Ġem b",
      "Ġte eth",
      "Ġset tled",
      "Ġdark ness",
      "in ct",
      "et er",
      "Ġle vel",
      "Ġcl aim",
      "Ġsc r",
      "Ġbeaut y",
      "W ho",
      "d en",
      "Ġm ist",
      "ot e",
      "Ġth irty",
      "Ġre ce",
      "one l",
      "Ġsil ent",
      "Ġfore st",
      "ĠWh o",
      "aj or",
      "b ered",
      "is m",
      "Ġli ves",
      "Ġfin al",
      "ĠMr s",
      "Ġvi ol",
      "D id",
      "l ine",
      "u it",
      "w ord",
      "ĠC H",
      "ĠG l",
      "Ġhow ever",
      "Ġlif ted",
      "ĠHow ever",
      "S t",
      "Ġm id",
      "Ġm ir",
      "ĠN at",
      "Ġthan k",
      "g round",
      "Ġfor ced",
      "ust ed",
      "ri es",
      "Ġspe c",
      "end ed",
      "Ġfuck ing",
      "T ER",
      "w hat",
      "Ġb ase",
      "Ġe ating",
      "et y",
      "Ġgo es",
      "Ġun f",
      "ep t",
      "Ġem ail",
      "b it",
      "m y",
      "Ġ 4",
      "Ġf av",
      "Ġl uck",
      "Ġst ro",
      "Ġst up",
      "ad es",
      "Ġwe ap",
      "Ġr is",
      "Ġcom pl",
      "Ġar r",
      "Ġrel ax",
      "Ġkeep ing",
      "Ġpol ice",
      "Ġenc han",
      "Ġw ra",
      "re st",
      "Ġto w",
      "ĠHe b",
      "Ġop er",
      "Ġstep s",
      "Ġw ild",
      "Ġc ool",
      "Ġf ield",
      "is ion",
      "Ġn erv",
      "Ġu r",
      "Ġst ation",
      "Ġst airs",
      "Ġwe aring",
      "Ġse ven",
      "Ġdo ctor",
      "ĠB en",
      "el t",
      "Ġen em",
      "Ġim m",
      "Ġpict ure",
      "Ġt ent",
      "Ġw ave",
      "Ġst ret",
      "Ġtr u",
      "Ġsome how",
      "Ġsim ple",
      "Than k",
      "Ġso ld",
      "ĠD an",
      "Ġab rupt",
      "Ġco ck",
      "ens ion",
      "Ġph ot",
      "Ġcontin ue",
      "Ġeye b",
      "ili ar",
      "AP TER",
      "ĠCH APTER",
      "I n",
      "e es",
      "Ġf ly",
      "as p",
      "Ġu nd",
      "Ġint ense",
      "Ġser ious",
      "Ġdest ro",
      "ĠHeb rews",
      "O f",
      "r ate",
      "Ġd ressed",
      "Ġst om",
      "if ted",
      "Ġag ree",
      "Ġrem ain",
      "Ġsec urity",
      "Ġcoll e",
      "Ġsuc cess",
      "ĠDian a",
      "inite ly",
      "c ise",
      "e ed",
      "Ġl oved",
      "Ġg ame",
      "ĠT re",
      "ent le",
      "ĠWe b",
      "side red",
      "Ġbed room",
      "mb ers",
      ". '",
      "b o",
      "Ġ #",
      "ĠT om",
      "ay ed",
      "ĠB l",
      "Ġde p",
      "Ġsu ck",
      "Ġex ha",
      "Ġhop ing",
      "Ġsho ot",
      "cri pt",
      "A s",
      "Ġf le",
      "Ġm otion",
      "Ġn ar",
      "Ġth rew",
      "Ġon es",
      "Ġr ing",
      "il a",
      "un ity",
      "Ġsp ace",
      "Ġcons ider",
      "Ġopp os",
      "Ġphys ical",
      "Ġeyeb row",
      "Ġb other",
      "Ġc hat",
      "Ġd ress",
      "Ġre le",
      "Ġis s",
      "ter ing",
      "ix ed",
      "Ġeff ort",
      "ĠSpe aker",
      "Ġc ru",
      "Ġg ar",
      "Ġne cess",
      "Ġcon sidered",
      "un e",
      "Ġtr ack",
      "Ġpre v",
      "ĠY our",
      "te en",
      "Ġact ion",
      "Ġimp oss",
      "Ġcr ack",
      "Ġforg ot",
      "Ġdiffic ult",
      "ĠWeb ster",
      "a ur",
      "c ha",
      "Ġt ill",
      "Ġt alked",
      "Ġin qu",
      "Ġre se",
      "ook ing",
      "ast ic",
      "ol ute",
      "Ġapp re",
      "Ġser ies",
      "ĠAle x",
      "Ġpower ful",
      "Ġpock et",
      "Ġstup id",
      "a ven",
      "f ast",
      "Ġt ired",
      "Ġc as",
      "Ġf ac",
      "ĠS on",
      "Ġsh ock",
      "ul s",
      "Ġor g",
      "Ġoff er",
      "Ġturn s",
      "Ġsecond s",
      "Ġfing er",
      "Ġsing le",
      "ĠGe off",
      "A D",
      "a pped",
      "er ved",
      "Ġd rew",
      "Ġbe at",
      "Ġst ick",
      "al ing",
      "Ġj ud",
      "Ġsm o",
      "Ġneed s",
      "ĠFr ank",
      "ĠJan oss",
      "b or",
      "f or",
      "y ou",
      "in a",
      "es us",
      "at ic",
      "cl es",
      "Ġke y",
      "Ġcare fully",
      "Ġposs ess",
      "Ġvis ion",
      "Ġenchan tress",
      "a ld",
      "n ie",
      "Ġt erm",
      "Ġb all",
      "Ġc ast",
      "Ġp u",
      "st airs",
      "ĠT r",
      "ĠS p",
      "and s",
      "Ġare n",
      "Ġapp arent",
      "Ġbot t",
      "o ken",
      "r ont",
      "Ġt er",
      "Ġth in",
      "ld er",
      "ir th",
      "Ġr ap",
      "Ġsur f",
      "Ġconf used",
      "Ġstud ied",
      "Ġlaugh ing",
      "Ġcompan y",
      "Ġpie ce",
      "c on",
      "i pp",
      "ĠThe ir",
      "Ġcon n",
      "Ġsu per",
      "res h",
      "Ġbl ink",
      "Ġgr ay",
      "Ġstart ing",
      "Ġent r",
      "Ġcomp ut",
      "Ġesc ape",
      "Ġmere ly",
      "N ow",
      "Y our",
      "Ġa p",
      "in al",
      "Ġo pt",
      "Ġc ause",
      "um ed",
      "Ġreal ity",
      "Ġev ents",
      "Ġdet erm",
      "Ġele ct",
      "ene ath",
      "Ġtrou ble",
      "osp ital",
      "Ġfut ure",
      "Ġd ate",
      "Ġl og",
      "Ġst ories",
      "Ġgo vernment",
      "ort ed",
      "Ġreal ize",
      "Ġplay ing",
      "Ġmess age",
      "ĠS ha",
      "ĠS acred",
      "Ġwhe ther",
      "Ġcat ch",
      "Ġnorm al",
      "in ing",
      "Ġb ound",
      "Ġd ust",
      "Ġg entle",
      "Ġn one",
      "Ġbe ll",
      "ĠD ad",
      "Ġbl ock",
      "Ġsl am",
      "iz ing",
      "Ġinst ru",
      "ĠAll iance",
      "y ed",
      "Ġa ge",
      "ic har",
      "ĠS omething",
      "Ġr ain",
      "Ġse nd",
      "ĠC han",
      "Ġgo ld",
      "Ġsha king",
      "Ġremem bered",
      "Ġwall s",
      "Ġconc ern",
      "ract ed",
      "Ġ ident",
      "an ing",
      "ĠS en",
      "Ġme mbers",
      "ĠD id",
      "Ġno se",
      "ell e",
      "Ġhand le",
      "ile t",
      "ec ause",
      "Ġspirit ual",
      "Ġproblem s",
      "Ġdemand ed",
      "Ġpartic ular",
      "im on",
      "Ġde velop",
      "are house",
      "Ġqu ar",
      "ĠR ichar",
      "Ġdoor s",
      "Ġcha pter",
      "ĠAs han",
      "Ġfam iliar",
      "Ġpar as",
      "Ġexper ience",
      "Ġreact ion",
      "ĠRuss ian",
      "Ġnar row",
      "Ġc am",
      "Ġf ully",
      "Ġg ather",
      "Ġre pe",
      "ri end",
      "os ing",
      "Ġpro p",
      "led ge",
      "Ġim age",
      "Ġsleep ing",
      "oun ced",
      "Ġshout ed",
      "i ant",
      "r ated",
      "Ġs am",
      "er ve",
      "as ion",
      "ur red",
      "Ġan ge",
      "ĠHe nd",
      "Ġch urch",
      "Ġbel ow",
      "Ġconf ir",
      "Ġinst ant",
      "Ġexc ited",
      "Ġbur st",
      "Ġstre ng",
      "Ġstom ach",
      "C an",
      "Ġw it",
      "Ġis land",
      "ce an",
      "ab ri",
      "ive red",
      "Ġhead ing",
      "Ġdis m",
      "Ġbus y",
      "Ġeas ily",
      "Ġbro ke",
      "Ġang ry",
      "Ġprep ared",
      "Ġmem ory",
      "Ġtru ly",
      "p ic",
      "z ed",
      "Ġs our",
      "Ġw ife",
      "Ġb eneath",
      "en g",
      "Ġd iv",
      "Ġas ide",
      "Ġli br",
      "Ġsp ent",
      "Ġbl ank",
      "Ġany more",
      "od e",
      "oin t",
      "less ly",
      "ĠArm y",
      "Ġmus ic",
      "ĠCol onel",
      "Ġhon est",
      "a ul",
      "i pping",
      "ar r",
      "Ġn orth",
      "Ġth ous",
      "qu e",
      "Ġsp read",
      "Ġbot tle",
      "Ġdisapp eared",
      "Ġcho ice",
      "ĠPh il",
      "ĠHend erson",
      "a ac",
      "n el",
      "Ġto ilet",
      "Ġf it",
      "Ġm er",
      "Ġd ru",
      "at us",
      "ĠS h",
      "ur y",
      "Ġse arch",
      "ood s",
      "Ġtr ail",
      "ĠE llen",
      "Ġsha re",
      "Ġswe et",
      "k y",
      "Ġb as",
      "Ġm ut",
      "ĠT han",
      "ill ian",
      "ĠM ic",
      "Ġv amp",
      "Ġpl aces",
      "Ġsw ord",
      "Ġlight s",
      "ib ility",
      "Ġrespond ed",
      "Ġshadow s",
      "Ġdanger ous",
      "Ġla id",
      "Ġcomput er",
      "g ress",
      "u nd",
      "Ġf ate",
      "Ġl ack",
      "an ces",
      "ent ed",
      "Ġhis t",
      "Ġr id",
      "Ġsh it",
      "ĠB ob",
      "Ġwor ried",
      "Ġdes per",
      "br id",
      "Ġcreat ure",
      "Ġabrupt ly",
      "v al",
      "z en",
      "Ġs ad",
      "Ġb od",
      "Ġh ospital",
      "ain t",
      "ra w",
      "Ġcall ing",
      "ob i",
      "Ġfollow ing",
      "\\ _",
      "b led",
      "Ġ 5",
      "Ġto ng",
      "Ġha te",
      "Ġth ird",
      "ĠT ed",
      "ĠA nt",
      "Ġde part",
      "Ġresp ons",
      "Ġbro ad",
      "Ġann oy",
      "ĠDan ie",
      "Ġimposs ible",
      "abri elle",
      "d e",
      "o om",
      "s ing",
      "u le",
      "Ġs ometimes",
      "Ġf resh",
      "Ġd aughter",
      "le ep",
      "ĠC an",
      "and o",
      "Ġwere n",
      "ĠG o",
      "Ġbr ow",
      "Ġwond ering",
      "Ġsn ow",
      "Ġp en",
      "Ġp an",
      "Ġl ose",
      "ch o",
      "Ġli ved",
      "ru ce",
      "Ġspe cial",
      "Ġsound ed",
      "Ġexpl ained",
      "Ġfall ing",
      "Ġfig ured",
      "ĠOn ly",
      "Ġjour ney",
      "Ġpub lic",
      "s y",
      "u ine",
      "Ġp ers",
      "ĠT V",
      "ĠS imon",
      "Ġr ound",
      "rou d",
      "Ġwor th",
      "Ġad j",
      "ori a",
      "Ġcoll ect",
      "Ġpol it",
      "Ġappro ached",
      "Ġinvol ved",
      "Ġentr ance",
      "E N",
      "u ct",
      "Ġw oke",
      "Ġb al",
      "an y",
      "Ġbe er",
      "Ġe ars",
      "ĠA re",
      "Ġr at",
      "um ent",
      "Ġgot ten",
      "Ġfin ish",
      "Ġdef initely",
      "Ġhor se",
      "s et",
      "Ġt ast",
      "Ġfr ust",
      "Ġse ar",
      "Ġtr oo",
      "ĠG illian",
      "Ġsp l",
      "Ġus ually",
      "ĠIs aac",
      "Ġhapp ening",
      "Ġrel ief",
      "Ġask ing",
      "Ġdisc overed",
      "Ġcheck ed",
      "Ġcross ed",
      "Than ks",
      "ĠPer haps",
      "Ġstreng th",
      "g ak",
      "l gak",
      "r on",
      "Ġb irth",
      "is es",
      "il ed",
      "ĠB ry",
      "ess or",
      "av ed",
      "Ġres ult",
      "Ġspe ct",
      "Ġhall way",
      "Ġsuggest ed",
      "l ish",
      "n ath",
      "Ġs na",
      "Ġp un",
      "ve re",
      "ill ed",
      "ter day",
      "ĠL ike",
      "Ġpro du",
      "ĠO ff",
      "Ġbr ain",
      "Ġbu y",
      "Ġold er",
      "Ġbreat hing",
      "Ġcor rect",
      "ĠAg ain",
      "nath reen",
      "L ook",
      "M aybe",
      "he l",
      "Ġs igh",
      "Ġhe nce",
      "Ġp ot",
      "om fort",
      "Ġsa ve",
      "Ġkn ock",
      "ĠK ay",
      "Ġfir m",
      "ĠY ates",
      "Ġte xt",
      "Ġbreak fast",
      "ĠBe fore",
      "Ġimag ine",
      "Ġobv ious",
      "W hen",
      "Ġo cean",
      "Ġf aces",
      "Ġp ure",
      "ĠA w",
      "pp er",
      "ĠW here",
      "Ġkn ees",
      "Ġab and",
      "ĠO f",
      "Ġhar m",
      "ĠAl gar",
      "Ġinter rupt",
      "Ġref le",
      "Ġ2 0",
      "Ġtri p",
      "Ġext reme",
      "gr am",
      "Ġlear n",
      "Ġwit ness",
      "Ġlibr ary",
      "Ġtong ue",
      "ĠBry an",
      "Ġhe at",
      "Ġin n",
      "Ġre v",
      "ir st",
      "ĠA b",
      "Ġpl ans",
      "Ġwill ing",
      "Ġbl ind",
      "Ġtell s",
      "Ġspe aking",
      "Ġend ed",
      "Ġca pt",
      "Ġmove ment",
      "Ġext ra",
      "ĠInst ead",
      "b all",
      "f er",
      "Ġ z",
      "Ġa ud",
      "Ġc ig",
      "Ġd im",
      "Ġl eng",
      "Ġh ide",
      "im ent",
      "Ġst orm",
      "Ġsh op",
      "ĠB ruce",
      "ĠShe ila",
      "Ġle ather",
      "Ġwor se",
      "ĠR ose",
      "Ġcont ain",
      "Ġam b",
      "Ġcle aring",
      "Ġgirl s",
      "Ġnecess ary",
      "- -",
      "i ally",
      "Ġ er",
      "Ġa st",
      "Ġw arehouse",
      "Ġm o",
      "Ġl ock",
      "ar ily",
      "Ġca used",
      "Ġdri ving",
      "Ġlist en",
      "Ġloc al",
      "Ġparas ite",
      "ĠAnt on",
      "S ure",
      "Ġt ick",
      "Ġc ard",
      "it ive",
      "Ġm ark",
      "ĠL iz",
      "Ġus ual",
      "Ġch uck",
      "ĠSt an",
      "Ġdro p",
      "Ġnat ural",
      "Ġleng th",
      "R e",
      "ĠC ole",
      "Ġli ked",
      "Ġsu m",
      "Ġwho se",
      "ĠAn ando",
      "Ġ1 1",
      "Ġbro ken",
      "Ġmil es",
      "mm a",
      "ĠRub en",
      "ĠAmeric an",
      "Ġter rible",
      "c ent",
      "d om",
      "i ot",
      "u ous",
      "in ated",
      "Ġw ip",
      "Ġb ull",
      "Ġc up",
      "ot ions",
      "ce ll",
      "Ġex te",
      "ĠN orth",
      "Ġfl o",
      "Ġrec all",
      "idd en",
      "ĠLe o",
      "Ġexper ien",
      "Ġgen er",
      "Ġut ter",
      "Ġbod ies",
      "N AD",
      "s he",
      "nd ah",
      "Ġd a",
      "Ġl ying",
      "ay lor",
      "ad ir",
      "ĠW oods",
      "ĠJ esus",
      "ol gar",
      "Ġbl ow",
      "Ġgr asp",
      "Ġdis co",
      "ap ed",
      "ont ane",
      "ign ed",
      "Ġbre ast",
      "Ġdem on",
      "Ġsub ject",
      "Ġhang ing",
      "ĠDanie l",
      "Ġt reat",
      "Ġc ried",
      "is f",
      "Ġd ut",
      "Ġn on",
      "Ġbe ha",
      "il ities",
      "Ġwh om",
      "ct ing",
      "Ġv ar",
      "ĠP r",
      "ĠL ord",
      "ĠG olgar",
      "Ġpro per",
      "Ġfl ash",
      "Ġlet ting",
      "Ġord ers",
      "Ġsqu ee",
      "Ġprom ise",
      "Ġhop ed",
      "Ġfoc us",
      "Ġbott om",
      "? _",
      "Ġhe aven",
      "Ġh un",
      "Ġher s",
      "Ġwe l",
      "Ġan x",
      "Ġne g",
      "ation al",
      "Ġex am",
      "ort ic",
      "Ġam ong",
      "Ġgl ow",
      "ens ive",
      "Ġdec ision",
      "ĠV ict",
      "Ġcur rent",
      "Ġpus hing",
      "Ġabs olute",
      "c le",
      "f essor",
      "Ġw ine",
      "Ġd ig",
      "Ġp ow",
      "Ġp et",
      "ĠM ike",
      "ell ig",
      "Ġem otions",
      "ĠY nathreen",
      "Ġcou ch",
      "Ġdri ver",
      "Ġfall en",
      "Ġstud ents",
      "Ġoffic ers",
      "Ġrequ est",
      "Ġcol or",
      "Ġorg an",
      "M r",
      "Ġw a",
      "ou red",
      "Ġb ank",
      "Ġm urd",
      "Ġl ap",
      "Ġas leep",
      "ĠM ont",
      "ro du",
      "ĠW ill",
      "Ġv ill",
      "ast on",
      "Ġbr own",
      "Ġdes ce",
      "Ġrel ations",
      "Ġser ve",
      "og ra",
      "Ġinterest ed",
      "Ġentire ly",
      "Ġl ocked",
      "ar ic",
      "at hered",
      "Ġg le",
      "Ġha t",
      "Ġe lder",
      "ĠS e",
      "am ent",
      "Ġle aves",
      "ĠK obi",
      "Ġqu een",
      "ag ue",
      "Ġpr act",
      "Ġob l",
      "Ġspirit s",
      "Ġlist ening",
      "ĠAdam s",
      "ĠMat his",
      "Ġclim bed",
      "Ġshar p",
      "ĠTw o",
      "Ġfav or",
      "Ġoppos ite",
      "in ted",
      "Ġg rew",
      "ĠH ar",
      "ĠC oun",
      "ul ous",
      "ol on",
      "ĠE mma",
      "Ġact ions",
      "Ġsil ently",
      "the w",
      "Ġrep ly",
      "Ġord ered",
      "Ġchar ac",
      "Ġtot ally",
      "Ġcoun ter",
      "Ġavo id",
      "ĠPhil ip",
      "ĠMathis en",
      "c om",
      "Ġo rig",
      "Ġf ro",
      "id ly",
      "id ay",
      "ac her",
      "ĠT aylor",
      "if ying",
      "Ġsh ower",
      "are t",
      "ĠF ontane",
      "ĠU lgak",
      "Ġ* **",
      "Ġcut e",
      "Ġwindow s",
      "ĠGl aston",
      "Ġweap on",
      "Ġhist ory",
      "_ .",
      "c er",
      "v ation",
      "Ġd ry",
      "il es",
      "Ġj umped",
      "Ġv ol",
      "Ġbl ond",
      "Ġdis pl",
      "Ġpr ison",
      "Ġcar ried",
      "Ġrest aur",
      "ict ion",
      "gg ing",
      "Ġhy brid",
      "Ġst uck",
      "ver ing",
      "her n",
      "Ġse es",
      "ust om",
      "ant ed",
      "Ġsc ene",
      "ĠAn ge",
      "Ġbit ch",
      "Ġinterest ing",
      "Ġtou ched",
      "ĠMat thew",
      "Ġremind ed",
      "ĠComm ander",
      "u nder",
      "v or",
      "w ork",
      "Ġb ra",
      "it ement",
      "le g",
      "Ġst aff",
      "ĠThe se",
      "pl es",
      "Ġgr and",
      "Ġsha red",
      "Ġfun ny",
      "ĠPro fessor",
      "A h",
      "e ch",
      "p ing",
      "u h",
      "Ġto ss",
      "Ġp ressed",
      "Ġan t",
      "il s",
      "Ġne igh",
      "Ġbr an",
      "ere nce",
      "Ġoffic er",
      "Ġgrow ing",
      "Ġyes terday",
      "abin et",
      "w ise",
      "Ġt iny",
      "Ġm ent",
      "ĠS olon",
      "ĠD e",
      "Ġab ility",
      "Ġv ac",
      "Ġcom b",
      "Ġpro gram",
      "Ġdis g",
      "Ġstart s",
      "Ġser vice",
      "Ġexc itement",
      "Ġnear by",
      "Ġperf orm",
      "Ġcra zy",
      "Ġadd ress",
      "P lease",
      "c he",
      "d ing",
      "Ġ 7",
      "Ġb en",
      "Ġf re",
      "Ġm ajor",
      "Ġst un",
      "Ġlike ly",
      "ry ss",
      "Ġho le",
      "Ġspe ed",
      "Ġdra wn",
      "Ġins isted",
      "Ġcons cious",
      "Ġpus h",
      "Ġplay ed",
      "Ġattempt ed",
      "Ġswe at",
      "Ġkid s",
      "Ġopp ort",
      "ĠBill y",
      "Ġforgot ten",
      "Ġappre ci",
      "l in",
      "Ġt our",
      "Ġw aved",
      "Ġb ird",
      "Ġp or",
      "Ġp alm",
      "Ġh us",
      "ar ked",
      "Ġg athered",
      "se qu",
      "Ġshe ep",
      "ĠHe re",
      "Ġmy st",
      "Ġsu it",
      "ig g",
      "ward s",
      "iv il",
      "Ġwr itten",
      "Ġsmil ing",
      "Ġcour t",
      "Ġchar ge",
      "S h",
      "T h",
      "l o",
      "w an",
      "Ġw aves",
      "Ġc ost",
      "Ġf at",
      "ic ate",
      "and a",
      "ĠP ark",
      "Ġun e",
      "ĠO ld",
      "ag er",
      "Ġsc ar",
      "iv al",
      "Ġte ch",
      "ĠAl aric",
      "Ġdeep ly",
      "Ġrec ord",
      "Ġlear ned",
      "Ġfa ith",
      ", '",
      ", '_",
      "a f",
      "Ġf urn",
      "Ġm ood",
      "Ġm ale",
      "Ġd i",
      "Ġcom ment",
      "cl aim",
      "Ġsha ke",
      "Ġcomp ound",
      "Ġ1 0",
      "Ġsat isf",
      "Ġmean ing",
      "Ġsupp ort",
      "oud wan",
      "Ġbo ard",
      "Ġsens ed",
      "ĠFr om",
      "Ġocc asion",
      "Ġgra ve",
      "Ġsna pped",
      "i ers",
      "Ġp ill",
      "Ġp ond",
      "an ged",
      "Ġin ner",
      "Ġg ate",
      "ow ed",
      "Ġe cho",
      "ic ation",
      "Ġst ir",
      "ad ing",
      "ĠM all",
      "ĠM ak",
      "ĠM ortic",
      "ĠP e",
      "ĠE ng",
      "ag ing",
      "iz z",
      "Ġem p",
      "Ġch in",
      "Ġad v",
      "Ġshow ed",
      "Ġple ased",
      "Ġinc red",
      "Ġlead er",
      "Ġbrief ly",
      "Ġsus pect",
      "ĠAmeric a",
      "Ġbat tle",
      "Ġanim al",
      "Ġpriv ate",
      "ĠTre vor",
      "Ġcig aret",
      "a id",
      "w h",
      "Ġ vers",
      "Ġw ake",
      "Ġb orn",
      "Ġd read",
      "Ġl at",
      "im ate",
      "ĠM ost",
      "Ġfr ight",
      "ĠW as",
      "Ġno d",
      "Ġno ise",
      "em pl",
      "Ġsm oke",
      "Ġsc reen",
      "ail ing",
      "Ġfind ing",
      "ĠAn nie",
      "Ġhelp ed",
      "Ġunderstand ing",
      "Ġlist ened",
      "Ġconc er",
      "Ġgest ure",
      "ĠVict oria",
      "ĠCoun cil",
      "s c",
      "Ġ 6",
      "Ġ est",
      "Ġb ought",
      "Ġc ook",
      "Ġm aster",
      "Ġd an",
      "Ġg reet",
      "Ġn ine",
      "Ġn aked",
      "ic ated",
      "ĠT ower",
      "Ġr um",
      "if y",
      "Ġli e",
      "Ġfe m",
      "Ġtr ain",
      "ick ing",
      "Ġpl ate",
      "Ġsl ipped",
      "Ġres pect",
      "Ġcha llen",
      "Ġplan et",
      "Ġmiss ed",
      "Ġrequ ired",
      "Ġmount ain",
      "Ġwra pped",
      "Ġcolle ge",
      "ĠRichar ds",
      "ĠMall oy",
      "G et",
      "h ood",
      "Ġd en",
      "Ġp ound",
      "st itution",
      "Ġr ide",
      "Ġsa v",
      "Ġsh ifted",
      "Ġun able",
      "Ġlet ter",
      "Ġhapp ens",
      "Ġte le",
      "Ġbelie ved",
      "ĠWh ile",
      "Ġexc han",
      "b and",
      "h ic",
      "Ġt ask",
      "Ġw and",
      "Ġp in",
      "Ġh iding",
      "Ġr out",
      "ri e",
      "Ġsp oken",
      "Ġpro ve",
      "Ġem br",
      "ĠY es",
      "Ġput ting",
      "Ġsupp ose",
      "a pt",
      "Ġ id",
      "Ġp oor",
      "Ġp roud",
      "ĠA f",
      "Ġr if",
      "Ġme mor",
      "ĠB ull",
      "ĠB oudwan",
      "Ġknow ledge",
      "ov ing",
      "ru ction",
      "âĢĶ \"",
      "Ġfo ld",
      "ys ia",
      "Ġopen ing",
      "Ġansw ers",
      "Ġmet al",
      "Ġdecl ared",
      "Ġrestaur ant",
      "i ently",
      "m at",
      "t ain",
      "Ġf ool",
      "Ġl ady",
      "Ġh ol",
      "ĠD es",
      "Ġex ist",
      "ĠP aul",
      "Ġcl ut",
      "Ġad mit",
      "ier ce",
      "Ġstru ck",
      "Ġjoin ed",
      "A ll",
      "b ow",
      "o ver",
      "Ġt ear",
      "ha ll",
      "Ġhe aring",
      "Ġr are",
      "Ġshe l",
      "Ġv al",
      "ĠL am",
      "Ġvo ices",
      "Ġche ek",
      "Ġent er",
      "Ġconf usion",
      "Ġheav ily",
      "ĠAny way",
      "Ġenem y",
      "l ow",
      "m a",
      "Ġc al",
      "Ġd irt",
      "Ġp ale",
      "Ġh ost",
      "Ġwe ight",
      "ĠA NAD",
      "il ar",
      "ct ure",
      "Ġtr ick",
      "Ġsl id",
      "Ġar t",
      "Ġim pl",
      "Ġrel ie",
      "Ġob ject",
      "Ġinv est",
      "Ġcomm un",
      "eral ad",
      "Ġsus pic",
      "ĠJohn ny",
      "Ġterr or",
      "ham us",
      "Ġdingo es",
      "arr ass",
      "F or",
      "Ġ ice",
      "Ġt ension",
      "he a",
      "in ary",
      "Ġf an",
      "Ġm ort",
      "Ġm ach",
      "Ġbe ast",
      "ght er",
      "ĠHe len",
      "ct ions",
      "ĠC or",
      "Ġde b",
      "Ġj oy",
      "ab ility",
      "ra ft",
      "Ġbec oming",
      "Ġgu ards",
      "Ġlau ghter",
      "Ġsle pt",
      "Ġve hic",
      "Ġcra w",
      "Ġsho es",
      "Ġgrin ned",
      "Ġnerv ous",
      "Ġinqu ired",
      "ĠStan ley",
      "Ġdut y",
      "Ġpor ch",
      "P er",
      "d ess",
      "l ies",
      "o ll",
      "p ar",
      "it ure",
      "as c",
      "Ġn or",
      "Ġbe ach",
      "id s",
      "Ġe ast",
      "Ġr ough",
      "Ġme as",
      "Ġfe at",
      "Ġpro ceed",
      "ĠE x",
      "Ġsc ared",
      "Ġem ailed",
      "Ġwork s",
      "ang u",
      "Ġprov ide",
      "ivers ity",
      "Ġpleas ure",
      "Ġcop y",
      "u ing",
      "Ġs ink",
      "Ġb ree",
      "is ters",
      "Ġp op",
      "Ġp ants",
      "Ġst iff",
      "ĠS hamus",
      "Ġr oof",
      "Ġsh udd",
      "em ber",
      "ol ic",
      "Ġsm ir",
      "Ġhand ed",
      "Ġrel ig",
      "Ġinst inct",
      "Ġkill ing",
      "Ġdet ails",
      "Ġtight ly",
      "Ġwood s",
      "Ġtroo ps",
      "Re ally",
      "c if",
      "g ons",
      "i pe",
      "Ġp ort",
      "Ġp ool",
      "ct s",
      "ĠB oth",
      "el ed",
      "ep ing",
      "Ġman ner",
      "iz ation",
      "Ġshould n",
      "hen s",
      "Ġatt end",
      "Ġpre cise",
      "Ġaw ake",
      "Ġdist ur",
      "Ġexpl an",
      "Ġcreat ed",
      "Ġsuc ceed",
      "Ġdoll ars",
      "Ġcarry ing",
      "Ġemb arrass",
      "Ġprev ious",
      "Ġinn oc",
      "! _",
      "g o",
      "Ġs ne",
      "as y",
      "Ġin cl",
      "Ġfor mer",
      "am n",
      "Ġint rodu",
      "ess ion",
      "Ġfe ed",
      "Ġle aning",
      "ĠK ore",
      "Ġway s",
      "Ġspe nd",
      "Ġev idence",
      "Ġstay ed",
      "dden ly",
      "Ġhot el",
      "Ġhorr or",
      "c ase",
      "Ġ ess",
      "Ġc art",
      "Ġp red",
      "as ing",
      "Ġn umb",
      "id ge",
      "ĠS m",
      "ur m",
      "ĠM ir",
      "ack et",
      "ri er",
      "ĠR ob",
      "Ġam ount",
      "Ġpe ered",
      "Ġthan ks",
      "ĠU s",
      "Ġunt o",
      "Ġbre aking",
      "Ġplan ned",
      "Ġgaz ed",
      "Ġsaf ety",
      "Ġocc urred",
      "Ġradi o",
      "Ġregard ed",
      "Ġstret ched",
      "Ġrese arch",
      "Ġap olog",
      "B e",
      "s pect",
      "Ġe tern",
      "Ġre lease",
      "Ġr u",
      "Ġan tic",
      "ĠM eralad",
      "Ġne ither",
      "Ġde ar",
      "ra ham",
      "ĠO leg",
      "th is",
      "Ġ_ '",
      "lt hea",
      "Ġposs ibly",
      "umb ling",
      "ĠCh ief",
      "ject ed",
      "Ġlead ers",
      "Ġwhis per",
      "Ġsurround ing",
      "Ġamaz ing",
      "elt a",
      "Ġrele ased",
      "Ġsour ce",
      "Ġopport unity",
      "Ġcigaret te",
      "k o",
      "v ir",
      "Ġa ut",
      "Ġp it",
      "Ġh ig",
      "Ġn ur",
      "ĠM c",
      "os ity",
      "em s",
      "Ġyour s",
      "Ġfl ight",
      "Ġcont empl",
      "Ġwr ist",
      "Ġwr iting",
      "Ġcare ful",
      "Ġplan ning",
      "Ġtre mb",
      "Ġpur cha",
      "ĠUn ited",
      "Ġmiss ion",
      "Ġbur ied",
      "Ġkiss ed",
      "ĠSu ddenly",
      "ĠDra gons",
      "Ġsurf ace",
      "Ġrelations hip",
      "d er",
      "g en",
      "r ad",
      "w alk",
      "Ġm ail",
      "Ġl angu",
      "Ġwe ather",
      "Ġv ict",
      "ul arly",
      "Ġpl ane",
      "are st",
      "Ġac cess",
      "ĠY uck",
      "Ġbu ilt",
      "ĠAn other",
      "Ġinf ected",
      "Ġshow ing",
      "Ġpa id",
      "Ġrecogn ized",
      "Ġsum mer",
      "Ġhus band",
      "ĠDragons word",
      "H ell",
      "m p",
      "Ġf aced",
      "Ġl ower",
      "at tered",
      "ĠS at",
      "Ġr ul",
      "Ġfor t",
      "Ġj o",
      "Ġj er",
      "Ġpl ain",
      "Ġun ex",
      "pt ed",
      "Ġany where",
      "ĠR ain",
      "Ġwant ing",
      "Ġcur ious",
      "ĠQ u",
      "Ġtem p",
      "Ġris k",
      "k ward",
      "n s",
      "r ict",
      "y a",
      "Ġ 8",
      "Ġs outh",
      "Ġf ist",
      "Ġm ask",
      "Ġd om",
      "Ġh oney",
      "at ure",
      "at ors",
      "Ġg ives",
      "le t",
      "Ġst are",
      "Ġst ream",
      "Ġan ci",
      "Ġso le",
      "Ġcon sequ",
      "Ġv ir",
      "Ġv ast",
      "un ately",
      "Ġhead s",
      "Ġsha pe",
      "Ġpr ay",
      "Ġbel ong",
      "Ġwar ning",
      "Ġhard ly",
      "Ġaw kward",
      "Ġexp ed",
      "Ġlove ly",
      "Ġdra gged",
      "Ġfore ver",
      "Ġdel iber",
      "Ġlead ing",
      "Ġind eed",
      "Ġstreet s",
      "Ġclass room",
      "Ġign ored",
      "Ġaccept ed",
      "Ġcirc um",
      "Ġce iling",
      "ĠEmer c",
      "Ġmemor ies",
      "a ly",
      "i od",
      "Ġa ver",
      "Ġb ol",
      "Ġh int",
      "Ġg igg",
      "Ġwas te",
      "ay ne",
      "ad or",
      "Ġr ang",
      "Ġse par",
      "Ġj ump",
      "ĠD ef",
      "ist ic",
      "Ġch oose",
      "iss ion",
      "ĠSt ates",
      "Ġsn iff",
      "Ġref used",
      "Ġconc ent",
      "ĠOff ice",
      "Ġvill age",
      "claim ed",
      "b el",
      "c her",
      "m en",
      "ing ing",
      "Ġhe alth",
      "Ġat e",
      "ro p",
      "us hing",
      "Ġsu mm",
      "Ġcl ock",
      "ag on",
      "Ġtw isted",
      "Ġgl im",
      "Ġarm y",
      "Ġser ved",
      "ĠAle c",
      "Ġacc ord",
      "Ġfore head",
      "Ġblink ed",
      "ĠMont i",
      "Ġantic ip",
      "E x",
      "r it",
      "Ġa im",
      "Ġa chie",
      "Ġw et",
      "Ġw ore",
      "Ġf air",
      "or row",
      "Ġin ev",
      "ar ies",
      "id get",
      "al ace",
      "ke nd",
      "Ġsh ocked",
      "Ġj aw",
      "Ġkn ife",
      "Ġag re",
      "ĠG abrielle",
      "ĠR ud",
      "Ġen orm",
      "Ġsl ave",
      "uck ed",
      "Ġper iod",
      "ĠTh ose",
      "ĠNot hing",
      "Ġloud ly",
      "Ġcomfort able",
      "Ġtrave l",
      "Ġeyebrow s",
      "Ġinev it",
      "i k",
      "Ġ 9",
      "Ġt un",
      "Ġw est",
      "Ġf ailed",
      "Ġm od",
      "Ġd irty",
      "Ġp ant",
      "Ġy ards",
      "ĠS her",
      "ill ing",
      "ĠC abinet",
      "ĠJ oe",
      "Ġgr ad",
      "Ġbr ill",
      "ons cious",
      "Ġacc ount",
      "Ġcoll ap",
      "ĠUn it",
      "reed om",
      "Ġscream ed",
      "Ġobs erved",
      "Ġgri p",
      "Ġdru g",
      "ĠThan k",
      "Ġbal ance",
      "Ġexperien ced",
      "Ġexplan ation",
      "A r",
      "es ides",
      "ar in",
      "at s",
      "ot ed",
      "Ġr ise",
      "Ġnot ion",
      "ĠB ook",
      "ĠB adir",
      "pl ess",
      "pl oy",
      "Ġsw ept",
      "Ġdes cri",
      "Ġser iously",
      "cept ion",
      "Ġinc ident",
      "Ġexpect ing",
      "Ġland ed",
      "Ġfight ers",
      "Ġmiss ing",
      "Ġprov ided",
      "Ġsurv ive",
      "Ġrecogn ize",
      "Ġpu zz",
      "Ġsear ching",
      "ĠLam ish",
      "i o",
      "m ber",
      "r ing",
      "t ime",
      "u ced",
      "Ġb and",
      "er ge",
      "Ġc ustom",
      "Ġc ivil",
      "it es",
      "it ions",
      "en ces",
      "ac r",
      "ĠJ ew",
      "Ġdown stairs",
      "Ġfl ick",
      "ud ge",
      "Ġrem ark",
      "Ġres ist",
      "oin ted",
      "Ġwar ri",
      "Ġinc re",
      "Ġele v",
      "Ġunc omfort",
      "Ġenjoy ed",
      "vent ually",
      "Ġthr ust",
      "ĠEvery one",
      "Ġrece ived",
      "Ġmir r",
      "ĠAw ak",
      "ellig ence",
      "ĠAnge la",
      ". '_",
      "G o",
      "G od",
      "a one",
      "f e",
      "f orm",
      "r id",
      "Ġs hat",
      "Ġb ul",
      "Ġm ater",
      "Ġh ill",
      "Ġin j",
      "Ġha ted",
      "ĠS outh",
      "Ġwe ar",
      "ĠA lthea",
      "am a",
      "Ġli p",
      "ĠO ur",
      "Ġro ll",
      "Ġro lling",
      "Ġnow here",
      "Ġrem arked",
      "Ġem erg",
      "Ġspe ech",
      "Ġfight ing",
      "Ġdrink ing",
      "Ġann ounced",
      "Ġcond ition",
      "Ġmass ive",
      "Ġsold iers",
      "Ġdeterm ined",
      "Ġtech n",
      "b ack",
      "k in",
      "m n",
      "Ġw is",
      "Ġb uck",
      "Ġin it",
      "Ġe p",
      "Ġre ver",
      "ĠH iber",
      "Ġr ace",
      "Ġex it",
      "Ġpl astic",
      "ĠO l",
      "Ġthink s",
      "Ġevery where",
      "Ġpre vent",
      "ĠY et",
      "ci p",
      "Ġpull s",
      "Ġpass ing",
      "Ġprot est",
      "Ġdam ned",
      "Ġsoul s",
      "Ġwee kend",
      "Ġanim als",
      "ĠKay la",
      "Ġwel come",
      "Ġcharac ter",
      "Ġconscious ness",
      "Ġfurn iture",
      "ĠHiber as",
      "c han",
      "n al",
      "u ch",
      "Ġh ips",
      "at ory",
      "Ġn ames",
      "Ġre aching",
      "Ġon line",
      "al ity",
      "Ġbut ton",
      "ri b",
      "ri atus",
      "Ġde g",
      "Ġint ention",
      "Ġint ended",
      "ĠJ ayne",
      "Ġtr aining",
      "ĠP eter",
      "Ġun us",
      "el ve",
      "ĠR om",
      "Ġro le",
      "Ġthrough out",
      "ai ge",
      "Ġroom s",
      "Ġsur re",
      "Ġlif t",
      "Ġret reat",
      "Ġass ist",
      "Ġcomm on",
      "the y",
      "Ġsim ilar",
      "ien ko",
      "Ġhor iz",
      "Ġsens es",
      "Is lena",
      "Ġgas ped",
      "Ġpark ing",
      "Ġluck y",
      "Ġinterrupt ed",
      "Ġchuck led",
      "ĠMortic ants",
      "Hell o",
      "Ġunex pected",
      "f ront",
      "p ite",
      "t ar",
      "w en",
      "z ing",
      "Ġf ought",
      "Ġd ue",
      "Ġp ause",
      "ĠS ee",
      "am ing",
      "Ġse ction",
      "ab les",
      "pe nd",
      "un ted",
      "Ġpro gress",
      "Ġres ol",
      "Ġatt ract",
      "Ġcha in",
      "Ġstart led",
      "Ġdes ire",
      "Ġhar sh",
      "ĠSt rate",
      "Ġrest ing",
      "Ġmost ly",
      "Ġpass age",
      "ĠTh ough",
      "vis ion",
      "Ġmar ried",
      "Ġradi ation",
      "Ġyell ed",
      "Ġthrow ing",
      "Ġthous and",
      "Ġrif le",
      "Ġinvest ig",
      "b ara",
      "re te",
      "Ġp ace",
      "Ġp ier",
      "Ġl oss",
      "Ġl ines",
      "as ped",
      "ĠS ection",
      "ĠH ave",
      "ĠM an",
      "Ġgo d",
      "ard en",
      "ul ation",
      "em ember",
      "ound s",
      "Ġro b",
      "ĠF ar",
      "Ġtw ice",
      "ĠIn ner",
      "Ġcall s",
      "Ġfeel s",
      "Ġdef end",
      "ĠAd riatus",
      "Ġdel ight",
      "ĠCon stitution",
      "Ġbring ing",
      "Ġfoc used",
      "Ġappear ance",
      "Ġmention ed",
      "Ġsmo oth",
      "Ġvar ious",
      "Ġblond e",
      "Per haps",
      "Ġcircum st",
      "O ne",
      "T o",
      "a ult",
      "t ling",
      "Ġb ite",
      "Ġd ance",
      "an o",
      "Ġin ha",
      "Ġth under",
      "Ġst umbled",
      "Ġwe ird",
      "all ey",
      "ill e",
      "Ġsh ore",
      "Ġsh ip",
      "Ġj e",
      "os es",
      "Ġun less",
      "el ing",
      "ian os",
      "Ġbeg un",
      "Ġconf ident",
      "Ġdist ant",
      "Ġdef ense",
      "Ġacc ident",
      "Ġgrab s",
      "Ġenjoy ing",
      "Ġmem ber",
      "ĠDon ald",
      "Ġty pe",
      "Ġfif teen",
      "ĠAf ric",
      "Ġrelie ved",
      "Ġbree ze",
      "B ecause",
      "D C",
      "H i",
      "c r",
      "Ġs ides",
      "Ġc abin",
      "Ġh ors",
      "Ġh idden",
      "Ġre ar",
      "ĠT y",
      "ĠS te",
      "ĠS cript",
      "Ġr age",
      "Ġfr uit",
      "ĠD r",
      "ĠJ ones",
      "ĠP l",
      "ĠO wen",
      "ĠE ventually",
      "Ġfl u",
      "Ġfl ashed",
      "ather ine",
      "Ġset tle",
[...]
